<unk>	0
<s>	0
</s>	0
,	-2.52934
▁	-3.16215
。	-3.24675
的	-4.37036
他	-4.54702
▁“	-4.71531
·	-4.81768
了	-4.96513
。”	-5.00167
德	-5.07024
我	-5.14248
她	-5.18511
于连	-5.49153
,“	-5.49383
在	-5.57858
;	-5.59097
,”	-5.69606
这	-5.87419
!	-5.87804
—	-5.9169
和	-5.93589
、	-5.977
是	-6.0229
而	-6.02649
来	-6.10902
你	-6.13615
雷纳耳夫人	-6.15389
▁—!"	-6.157
?”	-6.1646
?	-6.20289
时	-6.20551
!”	-6.22854
地	-6.27122
他们	-6.29458
不	-6.32044
说	-6.34064
呢	-6.34201
:	-6.34355
一个	-6.35482
。“	-6.35762
您	-6.37348
一	-6.37512
人	-6.49051
中	-6.51651
▁学	-6.52913
去	-6.53049
界	-6.53514
▁红	-6.53695
▁名	-6.54328
就	-6.54774
▁世	-6.54881
▁部	-6.55072
▁与	-6.55087
▁百	-6.55277
▁文	-6.5532
▁黑	-6.55692
▁著	-6.55753
吗	-6.5964
里	-6.62662
......	-6.63851
但是	-6.6476
对	-6.66619
那	-6.66889
也	-6.67529
#	-6.69184
有	-6.69902
上	-6.70487
又	-6.72152
要	-6.75683
着	-6.76345
的人	-6.78051
这个	-6.78819
▁于连	-6.80331
雷纳耳先生	-6.81968
但	-6.82538
他的	-6.88404
自己	-6.8935
从	-6.9019
会	-6.904
到	-6.90541
用	-6.93293
啊	-6.93302
好	-6.95363
▁的	-6.95802
先生	-6.99697
那些	-7.02427
过	-7.03426
想	-7.03566
大	-7.03745
▁德	-7.0441
没有	-7.06182
把	-7.06458
这种	-7.07411
:“	-7.10831
如果	-7.1138
不过	-7.1255
这些	-7.13062
后	-7.14336
吧	-7.14411
都	-7.16065
得	-7.16291
为	-7.1756
玛蒂尔德	-7.18391
最	-7.20871
被	-7.20988
已经	-7.25588
还	-7.26545
心	-7.26805
所	-7.26999
侯爵	-7.30161
可以	-7.30262
▁他	-7.30922
已	-7.30992
下	-7.31101
的时候	-7.32084
▁人	-7.33871
才	-7.35811
当	-7.3726
与	-7.3733
很	-7.40455
之	-7.41368
因为	-7.42779
看	-7.43196
出	-7.4326
我们	-7.43401
于	-7.44005
十分	-7.44275
让	-7.45122
一样	-7.4629
说道	-7.47712
夫人	-7.493
之后	-7.49664
就是	-7.51257
的话	-7.5247
可	-7.5263
道	-7.52751
便	-7.53277
却	-7.53509
那个	-7.53676
这是	-7.53827
像	-7.5388
还是	-7.55787
▁了	-7.57168
走	-7.57428
它	-7.57922
并且	-7.59015
使他	-7.59644
神父	-7.60092
我的	-7.60609
最后	-7.61636
应该	-7.61802
而且	-7.62662
以后	-7.63515
给	-7.63641
皮拉尔神父	-7.65125
这样	-7.65803
如此	-7.65911
为了	-7.66268
主教	-7.66464
那么	-7.66508
跟	-7.67845
可是	-7.68458
人们	-7.69872
以	-7.70347
起	-7.70956
只有	-7.71483
头	-7.71701
只	-7.71767
非常	-7.72093
”	-7.7232
话	-7.73837
......”	-7.74373
事	-7.74481
的事	-7.74948
能	-7.75807
使	-7.76011
感到	-7.76124
子	-7.76683
做	-7.78434
“	-7.79374
起来	-7.79564
幸福	-7.81117
不是	-7.81622
甚至	-7.81723
正	-7.82341
更	-7.83095
一切	-7.835
《	-7.83604
———	-7.83723
向	-7.85636
小	-7.85806
》	-7.85952
或者	-7.86217
对于	-7.87356
只是	-7.87841
长	-7.88487
这位	-7.88758
全	-7.89274
朋友	-7.89599
他想	-7.89879
▁是	-7.90198
比	-7.90291
将	-7.91777
爱	-7.91786
维鲤叶	-7.92777
无	-7.94082
章	-7.94216
什么	-7.94334
▁来	-7.94407
并	-7.94695
多	-7.9575
拉莫尔小姐	-7.95849
现在	-7.96125
一些	-7.96732
再	-7.97967
(	-7.98422
▁在	-7.98683
也许	-7.98732
前	-7.98789
意	-7.99212
那样	-8.00098
开	-8.00366
▁—!	-8.00397
一种	-8.00659
高	-8.00698
一位	-8.00883
请	-8.00937
▁说	-8.01366
别人	-8.01396
书	-8.02658
到了	-8.03173
于是	-8.0356
听	-8.03918
们	-8.04751
怎么	-8.06541
没	-8.06901
天	-8.0696
几乎	-8.0714
别	-8.08035
声	-8.08306
者	-8.08568
真	-8.08812
由于	-8.09154
天主	-8.09166
面	-8.09539
叫	-8.09945
虽然	-8.09947
▁们	-8.10227
然而	-8.11362
自己的	-8.11667
得到	-8.12079
拉莫尔先生	-8.12194
自	-8.12243
之前	-8.12576
家	-8.13465
对他	-8.1374
手	-8.14037
两	-8.14138
需要	-8.14981
生活	-8.15058
成	-8.15568
名	-8.15818
认为	-8.16474
发	-8.16991
或	-8.18288
▁道	-8.18515
呀	-8.18675
因此	-8.18686
进	-8.18878
生	-8.19354
马	-8.20303
离开	-8.20367
▁她	-8.20665
▁里	-8.21121
作	-8.21224
出来	-8.21276
国王	-8.21407
一个人	-8.215
主	-8.21519
)	-8.218
孩子	-8.21905
回答	-8.22065
尽管	-8.22397
情	-8.23103
孩子们	-8.23424
"	-8.23451
一点	-8.23549
等	-8.24301
痛苦	-8.2525
巴黎	-8.25353
看见	-8.25712
完全	-8.25748
哪	-8.25912
相信	-8.26134
还有	-8.26273
气	-8.27001
太	-8.27082
见	-8.27264
美	-8.27311
她的	-8.27518
他在	-8.27862
索黑尔	-8.27876
讲	-8.28089
不能	-8.28411
谁	-8.28558
连	-8.28668
点	-8.28783
觉得	-8.30223
丈夫	-8.303
光	-8.30425
于连的	-8.30661
相	-8.30698
一直	-8.31303
福盖	-8.31678
身	-8.31906
对他说	-8.32098
贵族	-8.32105
回	-8.32502
口	-8.33458
似乎	-8.33773
曾经	-8.33871
是个	-8.34803
就像	-8.35522
不幸	-8.35934
!—	-8.36048
离	-8.36558
爱情	-8.36985
然后	-8.37485
啦	-8.37539
住	-8.37753
来了	-8.37926
打	-8.38008
日	-8.38025
新	-8.38192
干	-8.38205
写	-8.38493
让我	-8.38721
成了	-8.38755
更加	-8.38939
深	-8.39836
同时	-8.39841
说话	-8.40062
极	-8.40185
明白	-8.40326
都是	-8.40785
间	-8.40907
苔维尔夫人	-8.41278
可能	-8.41311
雷纳耳	-8.41698
今天	-8.41826
以及	-8.42
看到	-8.42008
任何	-8.42272
动	-8.42317
一下	-8.42523
行	-8.42781
▁我	-8.42806
力	-8.42896
他是	-8.42906
一天	-8.4309
开始	-8.43765
市长	-8.43797
每	-8.43935
给他	-8.43988
问	-8.44022
如	-8.44347
利	-8.4449
因	-8.44727
能够	-8.44744
当然	-8.44792
门	-8.44795
所有	-8.4487
受到	-8.45047
▁到	-8.45104
念	-8.45215
除了	-8.4557
五	-8.45689
先	-8.46067
经过	-8.46079
圣	-8.462
表示	-8.46308
处	-8.464
让他	-8.46442
你们	-8.46462
教士	-8.46466
许多	-8.47054
▁连	-8.47181
一次	-8.4719
只要	-8.47226
这一	-8.4734
几	-8.47475
我会	-8.47503
希望	-8.47604
走了	-8.48235
以前	-8.484
女人	-8.4853
他对	-8.48596
神学院	-8.4862
信	-8.4869
等等	-8.48962
瓦尔诺先生	-8.49184
死	-8.49563
的女人	-8.50112
牧师	-8.50193
儿	-8.50376
之间	-8.50654
穿	-8.50826
他把	-8.50983
外	-8.51054
她们	-8.51343
明	-8.5139
受	-8.5259
中间	-8.52857
在巴黎	-8.53383
通	-8.53621
立刻	-8.54011
那种	-8.54061
下来	-8.54062
可怕的	-8.54079
看来	-8.54245
然	-8.54372
人家	-8.54541
拿	-8.54795
内	-8.54898
他会	-8.55108
的是	-8.55613
半	-8.55656
在他	-8.55766
关于	-8.5598
担心	-8.56026
▁子	-8.5609
取	-8.56138
雷	-8.56157
白	-8.56218
就会	-8.56392
▁———	-8.56949
拉	-8.57009
笑	-8.57059
带	-8.5717
▁样	-8.57223
神	-8.57335
好吧	-8.57458
其	-8.57699
所以	-8.58169
放	-8.58223
这时	-8.58282
是的	-8.58312
把他	-8.58383
来到	-8.58754
报	-8.58796
过去	-8.58879
想到	-8.59161
使她	-8.59249
来说	-8.59532
感	-8.59656
火	-8.59939
才能	-8.59948
拿破仑	-8.59977
重	-8.60049
无法	-8.6016
多少	-8.60203
八	-8.60344
刚	-8.60483
于连想	-8.60754
儿子	-8.61007
▁时	-8.61029
竟	-8.61228
必须	-8.61235
有些	-8.61353
有一个	-8.61749
对我	-8.62089
给我	-8.62179
的地方	-8.6226
终于	-8.6228
变得	-8.62312
之中	-8.62851
来的	-8.6292
地说	-8.63437
知道	-8.63732
令人	-8.63884
倒	-8.64063
也不	-8.6411
在维鲤叶	-8.64322
我是	-8.64472
路	-8.6457
热情	-8.64696
的性格	-8.64773
他所	-8.64829
漂亮	-8.64871
如今	-8.65168
当他	-8.6519
年	-8.65274
的生活	-8.65437
注意	-8.65571
每天	-8.65586
一般	-8.65594
这次	-8.65984
态度	-8.66152
显得	-8.66249
喜欢	-8.66492
四	-8.66518
并不	-8.66567
有人	-8.6686
则	-8.67443
难道	-8.67479
思想	-8.67491
它们	-8.67554
高兴	-8.67695
▁有	-8.679
由	-8.67977
唉	-8.68213
不可	-8.68372
身上	-8.68892
一边	-8.6907
害怕	-8.69095
越	-8.69171
入	-8.69755
同	-8.69763
在这	-8.69903
突然	-8.70181
眼	-8.70254
拉莫尔	-8.70297
这就是	-8.70418
这个人	-8.70422
激动	-8.70436
法	-8.70556
爱丽莎	-8.70579
以来	-8.70686
瓦尔诺	-8.70864
钱	-8.71082
在这儿	-8.71161
教	-8.71267
的东西	-8.71301
面前	-8.71335
假	-8.71532
▁个	-8.71644
活	-8.71761
该	-8.71945
你的	-8.72151
边	-8.72693
年轻人	-8.72757
下去	-8.72869
接受	-8.72961
多么	-8.73004
向他	-8.73046
不要	-8.73143
满	-8.73159
一条	-8.73945
是一个	-8.74263
求	-8.74847
的神情	-8.75004
传	-8.75105
难	-8.75162
年轻	-8.75267
人物	-8.75451
问题	-8.75473
▁这	-8.75552
时间	-8.75569
准备	-8.75774
物	-8.76006
领	-8.76066
近	-8.76068
方	-8.76211
这么	-8.76286
请您	-8.76341
确实	-8.76404
坐在	-8.7667
至少	-8.76702
成为	-8.7704
我就	-8.77183
读	-8.77191
我要	-8.77244
那是	-8.77426
的态度	-8.77664
时刻	-8.7808
投	-8.78144
定	-8.78356
跟他	-8.78399
一面	-8.78499
谢阆神父	-8.78568
工作	-8.78832
他自己	-8.78948
这一点	-8.78959
了解	-8.79034
可怜的	-8.79327
!"	-8.79452
脸	-8.79738
交	-8.8
即使	-8.80047
您的	-8.80055
并没有	-8.80064
贝桑松	-8.80169
真是	-8.80188
毫无	-8.80218
望	-8.80218
走进	-8.806
二	-8.80892
而是	-8.80975
仿佛	-8.81219
的信	-8.81274
家里	-8.81718
曾	-8.81747
在一起	-8.81925
极其	-8.81935
过来	-8.81976
三	-8.8223
▁么	-8.82239
语	-8.82303
出去	-8.82528
吃	-8.82601
带着	-8.82802
快乐	-8.82806
▁情	-8.82983
永远	-8.83181
生气	-8.83182
所有的	-8.83351
正在	-8.83706
知	-8.83904
事情	-8.84257
为什么	-8.84767
少	-8.84944
女	-8.8504
心里	-8.85045
的朋友	-8.85048
眼泪	-8.85128
勇敢	-8.85571
留下	-8.85611
花	-8.85864
一片	-8.85904
重新	-8.85938
拒绝	-8.86063
亲爱的	-8.86066
他又	-8.86137
我的朋友	-8.86458
一句	-8.86498
紧	-8.86625
费	-8.86634
那里	-8.86809
个	-8.86815
一旦	-8.86868
▁当	-8.87044
告诉他	-8.87191
有关	-8.87196
瞧	-8.87217
议论	-8.87523
社会	-8.87554
性	-8.87709
似的	-8.87932
谈	-8.87969
发现	-8.88018
有了	-8.88019
仆人	-8.88254
打算	-8.88301
常	-8.88671
不久	-8.88713
▁!	-8.8875
▁出	-8.88901
惊	-8.89063
在那里	-8.89518
马上	-8.90062
的声音	-8.90102
有一天	-8.90206
的那	-8.90275
他觉得	-8.90382
转	-8.9054
做出	-8.90583
▁父	-8.90798
怀疑	-8.91006
▁着	-8.91394
总	-8.91461
谨慎	-8.9199
有点	-8.92066
法兰西	-8.92132
想法	-8.92162
咱们	-8.92186
衣服	-8.92291
不管	-8.92376
市长先生	-8.92469
一份	-8.92516
听到	-8.92841
主教大人	-8.92865
危险	-8.9287
▁生	-8.92954
神情	-8.92956
疯狂	-8.93116
派	-8.93172
律师	-8.93209
继续	-8.93284
让人	-8.9349
牺牲	-8.93619
▁玛蒂尔德	-8.9386
远	-8.93863
性格	-8.93869
算	-8.94032
接着	-8.94144
"#	-8.94178
▁一	-8.94194
谈话	-8.94411
他说	-8.94466
风	-8.94518
分	-8.9454
不安	-8.94552
把我	-8.94643
不知	-8.94966
早	-8.94971
怎样	-8.95006
谢阆先生	-8.95011
▁会	-8.9503
不再	-8.95171
言	-8.95452
。’	-8.95783
惊讶	-8.96178
朝	-8.96259
实	-8.96461
▁地	-8.96679
形	-8.9689
弗里莱尔	-8.96984
商	-8.97171
既然	-8.97281
立	-8.97314
常常	-8.9736
散步	-8.974
修	-8.97546
老	-8.97597
圣经	-8.97703
的表情	-8.97729
考虑	-8.97833
那时候	-8.97892
使于连	-8.97944
快	-8.98061
黑	-8.98158
虚伪	-8.98181
告诉	-8.98334
加	-8.98511
色	-8.98566
死亡	-8.98773
场	-8.98807
也是	-8.98926
听见	-8.9922
这封信	-8.99376
▁上	-8.99384
的小	-8.99573
第二	-8.99649
东西	-8.99733
不会	-8.9985
理	-8.99866
▁—	-8.99914
特别	-9.00101
想道	-9.00126
这件事	-9.00188
约	-9.00319
此刻	-9.00511
有什么	-9.0052
大家	-9.00613
些	-9.00625
理由	-9.0088
▁事	-9.00928
客厅里	-9.01064
送	-9.01104
教堂	-9.013
的幸福	-9.0134
精神	-9.01346
红	-9.01448
不可能	-9.01449
斯	-9.01491
你要	-9.01575
好像	-9.02073
的事情	-9.02148
总是	-9.02283
稍微	-9.02311
这类	-9.02382
’	-9.02437
位	-9.02448
维尔吉	-9.02462
指	-9.02631
要求	-9.02636
这一切	-9.02936
在她	-9.0294
关	-9.02956
引起	-9.03018
▁信	-9.0302
他们的	-9.03241
解释	-9.03426
冷静	-9.03446
因为他	-9.0347
决定	-9.03489
"#$	-9.0353
特	-9.03552
想象	-9.03827
于连心想	-9.04079
虔诚	-9.04083
应	-9.041
去了	-9.04206
夜	-9.04449
万分	-9.0453
字	-9.04592
灵	-9.0465
清	-9.04723
变	-9.04731
眼睛	-9.04755
这时候	-9.0478
某	-9.04803
金	-9.0511
▁他们	-9.05262
本	-9.05389
之一	-9.05556
▁些	-9.05597
她丈夫	-9.05755
尽	-9.05935
只能	-9.06082
有时	-9.06089
原	-9.06328
散	-9.06377
享受	-9.06416
证明	-9.06487
出了	-9.06591
思	-9.0684
在德	-9.06898
如果我	-9.07024
▁己	-9.07043
▁得	-9.07076
建议	-9.07248
唯一的	-9.07432
厌倦	-9.07516
站在	-9.07586
的心灵	-9.07599
恨	-9.07604
暗	-9.07848
可怕	-9.07851
聪明	-9.07866
我应该	-9.07928
病	-9.08058
的手	-9.08239
如何	-9.0841
一起	-9.08483
刚刚	-9.08602
此	-9.08611
的名字	-9.08671
房间	-9.08753
一件	-9.08844
拉丁文	-9.08875
提	-9.09067
的想法	-9.09154
富	-9.09191
的眼睛	-9.09205
反	-9.09211
低	-9.09216
新的	-9.09269
词	-9.09405
我也	-9.09458
竟然	-9.09555
他也	-9.09678
回来	-9.0968
严厉	-9.09811
崇拜	-9.09854
平	-9.10146
行为	-9.10194
使我	-9.10278
那位	-9.1033
满意	-9.10424
穿着	-9.10581
强	-9.10748
自从	-9.10841
我可以	-9.10857
六	-9.10858
立即	-9.10893
她想	-9.10902
向她	-9.11049
达	-9.11102
富有	-9.11106
如果您	-9.11133
的口气	-9.11166
几个	-9.11222
难以	-9.11357
▁想	-9.11438
回到	-9.11457
见到	-9.11503
后来	-9.1157
愿意	-9.12411
回忆	-9.12552
夫	-9.12718
想着	-9.12741
那儿	-9.1295
跑	-9.13361
九	-9.13404
待	-9.13475
她是	-9.1354
男人	-9.13699
礼	-9.13734
谈到	-9.13774
‘	-9.13851
从来没有	-9.13913
的谈话	-9.14149
这里	-9.14217
一定会	-9.14384
他还	-9.14496
时常	-9.14567
任	-9.14775
表	-9.14859
经常	-9.15167
的样子	-9.15233
我想	-9.15318
不知道	-9.15336
乐	-9.15337
事实上	-9.1536
于连说	-9.15403
还要	-9.15453
谈论	-9.15585
首先	-9.15644
引	-9.15673
赶	-9.15694
▁不	-9.15796
她自己	-9.15917
众	-9.16228
暴	-9.16467
不堪	-9.16475
答道	-9.16476
弗里莱尔神父	-9.16549
对他说道	-9.16608
之处	-9.16612
这些人	-9.16741
我不	-9.16768
件	-9.16894
墙	-9.16983
结束	-9.17009
日子	-9.17113
显然	-9.17186
世	-9.17499
好了	-9.17546
我将	-9.17558
胜利	-9.17617
敢	-9.1764
遇到	-9.17675
这儿	-9.1768
真的	-9.17899
诺贝尔	-9.18085
布	-9.18131
度	-9.18162
生命	-9.18348
提出	-9.18513
家庭	-9.18631
十	-9.18641
公	-9.18681
痛	-9.18782
姑娘	-9.18816
反对	-9.18846
合	-9.1887
的一切	-9.1896
各	-9.18978
▁心	-9.19032
记	-9.1908
作出	-9.19229
在贝桑松	-9.19283
极端	-9.19553
不敢	-9.19588
背	-9.19732
业	-9.19816
跳	-9.19832
其他	-9.19871
对待	-9.1993
伟大的	-9.20283
放在	-9.20349
您会	-9.20497
尤其是	-9.21091
产生	-9.21165
的年轻人	-9.21215
看看	-9.21284
尔	-9.21458
很快	-9.21501
企图	-9.2154
往	-9.21592
安	-9.21628
别的	-9.21719
梯子	-9.21969
这座	-9.22158
服从	-9.22194
跟我	-9.22278
一张	-9.22285
使德	-9.22328
是多么	-9.2234
这么说	-9.22394
承认	-9.22466
苍白	-9.2251
他看见	-9.22585
见面	-9.2259
的那些	-9.22648
▁先生	-9.22651
流	-9.22652
条	-9.22657
讨厌	-9.22771
学生	-9.22931
空	-9.22947
直到	-9.22971
靠	-9.22984
马车	-9.23082
收	-9.23101
第一次	-9.23166
遭到	-9.23284
出身	-9.23303
参加	-9.2333
皮	-9.23422
冒	-9.23431
的感情	-9.23517
特别是	-9.23525
辞	-9.23605
结婚	-9.23626
教皇	-9.23634
和他	-9.23669
喊	-9.23795
此事	-9.23821
:‘	-9.2383
抽	-9.23866
拉莫尔侯爵	-9.23874
索黑尔先生	-9.23887
热	-9.23925
的缘故	-9.23969
对于连	-9.23969
▁于	-9.24098
豪华	-9.24136
服	-9.24141
实在	-9.24252
要是	-9.24288
掉	-9.24432
交谈	-9.2449
死了	-9.24694
什	-9.24707
调	-9.24744
悔恨	-9.24971
样	-9.24995
我自己	-9.25031
极了	-9.25147
充满	-9.25338
的灵魂	-9.2541
▁候	-9.25421
经	-9.25544
是在	-9.2558
政治	-9.25595
的快乐	-9.25675
▁这个	-9.25758
作为	-9.25771
如果他	-9.25826
正好	-9.26029
▁天	-9.26031
监狱	-9.26096
我已	-9.26203
决	-9.26237
一句话	-9.26287
我有	-9.26309
弄	-9.26408
我在	-9.26568
目光	-9.26582
小姐	-9.26608
式	-9.26639
她又	-9.26639
漂亮的	-9.26791
原来	-9.26884
时候	-9.27231
就要	-9.27355
自由党人	-9.27776
侮辱	-9.27794
妻子	-9.28023
换	-9.28067
计划	-9.28109
落	-9.28264
从前	-9.28266
退	-9.28301
全部	-9.2832
这句话	-9.28455
第一	-9.28457
住了	-9.28474
与他	-9.28962
出于	-9.28965
心想	-9.28988
一会儿	-9.29127
露	-9.29162
他的心	-9.29162
高傲	-9.29179
依	-9.29386
其中	-9.29406
▁那	-9.29503
逃	-9.29555
也会	-9.29614
恐惧	-9.29654
还没有	-9.29662
有趣	-9.29688
相反	-9.29979
她的手	-9.30014
仔细	-9.30015
安排	-9.30016
轻蔑	-9.30069
毫不	-9.30195
被人	-9.30272
脱	-9.30364
于连说道	-9.3038
铺	-9.30447
第	-9.30501
伯爵	-9.30822
上流社会	-9.30877
怕	-9.3089
▁以	-9.30899
整个	-9.30912
表现	-9.30966
乱	-9.30977
异常	-9.31055
此时	-9.3108
的目光	-9.31081
刚才	-9.311
无疑	-9.31122
狗	-9.31142
感觉	-9.31184
▁一天	-9.3119
罗	-9.31231
本堂神父	-9.31237
机	-9.31255
纳	-9.31263
大厅	-9.31263
短	-9.31267
傻	-9.31275
酒	-9.31318
美丽	-9.3132
彬彬有礼	-9.31321
罢	-9.31321
周围	-9.31361
弗里莱尔先生	-9.31456
脸色	-9.31587
留	-9.3165
这人	-9.31686
一段	-9.31795
自然	-9.31841
住在	-9.3187
▁儿	-9.31924
奇怪	-9.32048
相当	-9.32234
至于	-9.32285
也不会	-9.32346
忍受	-9.32434
一切都	-9.32478
他那	-9.32558
人的	-9.32621
脚	-9.32645
蔑视	-9.32808
关心	-9.32884
玛蒂尔德小姐	-9.32966
自杀	-9.32966
,‘	-9.33102
父亲	-9.3326
不少	-9.33317
做了	-9.33432
▁话	-9.33471
▁—!!	-9.33576
表情	-9.33632
车	-9.33699
将会	-9.33911
具有	-9.34116
写信	-9.34193
首	-9.3443
不得不	-9.34472
一股	-9.34654
整	-9.34703
因为她	-9.34713
苦	-9.34794
仍然	-9.34898
院士	-9.34932
一块	-9.35009
敲	-9.35047
足	-9.35168
的时	-9.35195
一番	-9.35376
公爵	-9.35398
吻	-9.35402
命	-9.35414
他就	-9.35479
!......	-9.35556
独	-9.35562
掩饰	-9.35725
天晚上	-9.35755
我呢	-9.35825
他是个	-9.35973
让她	-9.36052
按照	-9.36133
妇人	-9.36158
把它	-9.36168
顿	-9.36195
▁夫	-9.36205
行动	-9.36261
礼貌	-9.36329
▁种	-9.36339
结果	-9.36369
报纸	-9.36433
高贵	-9.36475
情绪	-9.36538
▁年	-9.36688
表现出	-9.36788
他从	-9.36845
是不是	-9.36876
命令	-9.3694
怪	-9.36942
步	-9.37061
失	-9.37092
卷	-9.37106
出现	-9.37296
责备	-9.37297
获得	-9.37401
是否	-9.37471
进行	-9.37687
山	-9.37705
外省人	-9.37732
上了	-9.37771
开了	-9.37829
目	-9.37878
这样的	-9.37931
简直	-9.3795
托	-9.38122
▁要	-9.38164
不过是	-9.38267
值得	-9.38398
侯爵夫人	-9.38444
报复	-9.38445
也没有	-9.38622
晚上	-9.38656
孤独	-9.38781
年龄	-9.38789
力量	-9.38908
致	-9.38916
绝望	-9.39177
省长	-9.39271
举止	-9.3937
排	-9.39404
料	-9.39425
而不	-9.3943
弱	-9.39558
画	-9.39569
犯罪	-9.39572
扬	-9.39626
战	-9.39636
研究	-9.39655
安慰	-9.39656
▁能	-9.39657
既	-9.39661
雷纳	-9.3967
除掉	-9.3967
举行	-9.39675
队伍	-9.39722
总之	-9.39757
代	-9.39857
一个女人	-9.39874
利用	-9.39907
一下子	-9.39931
声音	-9.39989
双	-9.40119
拥有	-9.40142
种种	-9.40168
恶	-9.40202
身边	-9.40237
正是	-9.40344
态	-9.4038
▁去	-9.40413
软弱	-9.40417
意外	-9.40477
教会	-9.40478
习惯	-9.40498
在一个	-9.40604
的意见	-9.40615
不错	-9.40658
在他的	-9.40766
▁然	-9.40767
的问题	-9.40956
一家	-9.40969
差不多	-9.40978
木	-9.41059
微	-9.4114
▁侯爵	-9.41188
▁气	-9.41212
绝	-9.41226
愤怒	-9.41485
于连在	-9.41539
当时	-9.41581
盖	-9.4166
▁后	-9.41672
▁但是	-9.41679
而又	-9.41785
是为了	-9.41928
的行为	-9.41987
愚蠢	-9.42061
▁过	-9.42094
罪	-9.42129
部	-9.42186
为自己	-9.42212
直	-9.42236
▁起	-9.42282
极为	-9.42343
便是	-9.42484
伟大	-9.42679
命运	-9.42888
粗	-9.42893
冷	-9.42953
舆论	-9.43104
骂	-9.43157
假如	-9.43163
旁	-9.43208
照	-9.43244
走近	-9.43279
敏感	-9.43361
当她	-9.43435
同意	-9.43578
至	-9.43668
办法	-9.43711
因为我	-9.43735
瓦	-9.43774
他对自己说	-9.43781
眼里	-9.43883
次	-9.44062
事实	-9.44107
阿芒达	-9.44123
选	-9.44182
他可以	-9.44236
离开了	-9.44309
的父亲	-9.44401
不同	-9.44495
中的	-9.44587
城	-9.44738
叙述	-9.4475
面包	-9.44817
我可	-9.44843
准	-9.45046
饭	-9.45066
坏	-9.45114
找	-9.45212
恰好	-9.4531
是我	-9.45333
底下	-9.45372
叫她	-9.45741
这是一个	-9.45863
金钱	-9.45975
怀	-9.4642
嫉妒	-9.46446
认识	-9.46561
发誓	-9.46739
省	-9.46756
告	-9.46761
数	-9.46839
职	-9.46898
随着	-9.47035
破	-9.47108
密	-9.47141
团	-9.47348
闻	-9.47349
帮助	-9.47352
错误	-9.47371
静	-9.47372
强烈	-9.47461
细	-9.47574
这样做	-9.47693
善	-9.47745
装	-9.47893
尊重	-9.47958
答应	-9.47971
刺	-9.47987
穷	-9.48049
清楚	-9.48081
闪	-9.48121
的种种	-9.48133
明天	-9.48149
丹东	-9.48315
伤害	-9.48334
对他的	-9.48345
房子	-9.48372
上的	-9.48412
世界上	-9.48415
树	-9.48419
证	-9.48431
父	-9.48436
略	-9.48513
急	-9.48533
血	-9.48554
化	-9.48564
代理主教	-9.48564
负责	-9.48595
举	-9.4869
宪兵	-9.48732
对我说	-9.48735
喝	-9.48746
悲伤	-9.48748
新鲜	-9.48749
阿尔塔米拉	-9.48754
哲学家	-9.48756
法律	-9.48761
吃惊	-9.48762
故意	-9.48768
这个年轻人	-9.48785
天哪	-9.48858
飞	-9.48876
咖啡馆	-9.48998
离去	-9.49008
情感	-9.4902
他一	-9.49093
的历史	-9.49112
亲自	-9.4923
那边	-9.49337
他发现	-9.49343
讲话	-9.49349
餐	-9.49372
不愿意	-9.49375
莫	-9.4938
即将	-9.49473
▁第二天	-9.4948
另一个	-9.49521
这就	-9.49584
乡	-9.49631
都会	-9.49662
骄傲的	-9.49691
朝着	-9.49777
句	-9.49786
流露出	-9.49805
他已	-9.49932
本来	-9.50026
▁“‘	-9.50081
才会	-9.50081
张	-9.50146
法国	-9.50148
陪审官	-9.50274
招	-9.5028
说出	-9.50346
门口	-9.50449
定了	-9.50455
但是他	-9.50627
的眼光	-9.50653
对方	-9.50709
在外省	-9.50901
自由党	-9.50961
我父亲	-9.50978
一只	-9.51135
保证	-9.51151
在这里	-9.51243
发生	-9.51282
青年	-9.51283
甚至于	-9.51578
制	-9.5162
颇	-9.51637
于连先生	-9.51641
活动	-9.51675
的教士	-9.51781
看守	-9.51857
送来	-9.52202
的脸	-9.52217
维鲤叶市长	-9.52269
财	-9.52271
会有	-9.5239
寻	-9.5241
内心	-9.52416
念头	-9.5248
给你	-9.52509
院长	-9.52526
便会	-9.52582
从未	-9.52585
的观念	-9.52652
体	-9.52772
早上	-9.52876
为我	-9.52882
财产	-9.52973
论	-9.53009
队	-9.53028
野心	-9.53057
他父亲	-9.53091
想起	-9.53174
学	-9.53186
一把	-9.53198
状态	-9.53227
某种	-9.53242
宗教	-9.53271
端	-9.5336
▁见	-9.53423
的地位	-9.53456
仪式	-9.53477
顿时	-9.53487
公开	-9.53525
更为	-9.53752
守	-9.53763
继续说	-9.53884
让他们	-9.53924
在那儿	-9.53955
允许	-9.53996
十年	-9.54032
轻率	-9.54033
敌人	-9.54052
临	-9.54128
的念头	-9.54147
杜河	-9.54177
工	-9.54229
▁从	-9.5425
一百	-9.54298
我已经	-9.54397
他感到	-9.54747
动作	-9.54904
无礼	-9.54909
三天	-9.55122
很多	-9.55207
套	-9.55229
师傅	-9.55261
象	-9.55316
一个小时	-9.55413
够	-9.55436
不够	-9.55513
角色	-9.55591
大声	-9.55595
里面	-9.55927
巴	-9.55962
雷纳耳夫人的	-9.56048
的自尊心	-9.56076
陷入	-9.56174
坐	-9.56178
补充道	-9.56218
看出	-9.56241
可以说	-9.56278
过了	-9.5629
丑陋	-9.56342
▁......	-9.56371
夏斯神父	-9.56386
根据	-9.56463
仍旧	-9.56485
同样	-9.56568
英国	-9.56613
居然	-9.56738
嘴	-9.56742
的男人	-9.56762
欢快	-9.56766
或许	-9.56813
沉思	-9.56824
是什么	-9.56839
男	-9.5691
的日子	-9.5708
举动	-9.57103
了一个	-9.57163
同情	-9.5727
藏在	-9.57365
走去	-9.57432
忘记了	-9.57438
的情绪	-9.57494
心情	-9.57599
竭力	-9.57601
情况	-9.57683
随	-9.57688
瓦尔	-9.57772
一道	-9.57825
精明	-9.57841
看到了	-9.58021
单	-9.58025
结	-9.58068
军	-9.5807
丝	-9.58106
一颗	-9.58148
据	-9.58151
政府	-9.58175
饰	-9.58244
哪怕	-9.58316
一点儿	-9.58351
克	-9.58356
她会	-9.58381
她的心	-9.58416
每年	-9.58499
虚	-9.58507
秘密	-9.58514
刀	-9.58515
国家	-9.58542
倾	-9.58569
完成	-9.58573
盛	-9.58584
判断	-9.58622
的爱情	-9.58628
赞	-9.58639
大概	-9.58641
的全部	-9.58653
居	-9.58654
威严	-9.58714
蒙	-9.58714
宽	-9.58732
的房间	-9.58733
课	-9.58744
斜	-9.58745
波	-9.58745
伪善	-9.58745
伏尔泰	-9.58746
圆	-9.58746
勉强	-9.58747
夸张	-9.58749
照顾	-9.58749
附近	-9.58749
喊道	-9.5875
宣布	-9.58751
罪恶	-9.5876
▁为	-9.58778
本身	-9.58789
百姓	-9.5883
平静	-9.58852
▁第四十	-9.5887
一座	-9.58902
幻想	-9.58912
重要	-9.58957
初	-9.58959
提起	-9.58987
严肃	-9.59041
坐下来	-9.59059
那个人	-9.59252
进去	-9.59457
眼前	-9.5946
各种	-9.59558
那条	-9.5964
▁第二十	-9.59653
他终于	-9.59703
之心	-9.59715
一声	-9.59806
一定	-9.59815
获	-9.59919
提到	-9.6011
很大	-9.60181
千万不要	-9.60263
支	-9.60266
找到	-9.60305
▁下	-9.60317
故事	-9.6032
灵魂	-9.60388
吃饭	-9.60425
向德	-9.60442
大臣	-9.60518
▁最后	-9.60756
对她	-9.60921
匿名信	-9.60934
因而	-9.61038
决斗	-9.61136
的意思	-9.61183
▁而	-9.61266
视	-9.61283
完	-9.61394
的命运	-9.61471
成功	-9.61552
救	-9.61643
绝不	-9.61753
现	-9.61761
无人	-9.61793
失去	-9.61874
对自己	-9.61905
没有任何	-9.61941
尊敬	-9.61949
骑士	-9.61978
办	-9.62176
▁第三十	-9.62179
理智	-9.62222
▁没有	-9.62296
了一	-9.62343
脸上	-9.62536
犯	-9.62545
客	-9.62589
几天	-9.62623
土	-9.62644
是从	-9.62647
起了	-9.62719
说来	-9.62778
两个	-9.62895
于连回答	-9.62917
期	-9.62918
巨大的	-9.62944
温柔	-9.63089
忘掉	-9.63123
强烈的	-9.6323
背诵	-9.63243
不住	-9.63284
谈起	-9.63295
仅仅	-9.63297
亮	-9.63335
的家伙	-9.63459
产生了	-9.63464
他不	-9.63575
早晨	-9.6363
款	-9.63737
得意	-9.6374
的痛苦	-9.63791
完全是	-9.63873
钟	-9.63984
一定是	-9.64002
打开	-9.6411
不禁	-9.64139
可以说是	-9.64183
巴黎的	-9.64288
缺乏	-9.64301
老人	-9.6433
拉莫尔府	-9.64367
有所	-9.64393
也就	-9.64401
努力	-9.64408
存在	-9.64493
造成的	-9.64583
他将	-9.64673
忘了	-9.64741
影响	-9.64792
家伙	-9.64842
买	-9.64874
时光	-9.64954
可能会	-9.65012
松	-9.65111
之外	-9.65242
失去了	-9.65262
望着	-9.65313
仅仅是	-9.65399
身材	-9.65416
于是他	-9.65421
的心	-9.65737
让于连	-9.65834
那人	-9.65881
这是我	-9.65926
面对	-9.65967
送给	-9.66008
对你	-9.66028
书籍	-9.66134
显	-9.66181
阻止	-9.66185
善于	-9.66196
于连觉得	-9.66242
其中的	-9.66251
徒	-9.66301
了出来	-9.6631
不到	-9.66437
夸大	-9.66559
沉默	-9.66582
全都	-9.66633
优点	-9.66683
晚	-9.66755
将要	-9.66763
沉	-9.66783
还会	-9.66853
叶	-9.66921
▁常	-9.67037
早已	-9.67114
国	-9.67169
万	-9.67176
必	-9.67206
七	-9.67292
周	-9.67319
一桩	-9.67339
众人	-9.67344
不必	-9.67546
宫廷	-9.67595
微笑	-9.67648
烧	-9.67667
得到了	-9.67837
把您	-9.67915
欺骗	-9.68072
忙	-9.68129
石	-9.68146
眼中	-9.68155
相比	-9.68167
极度	-9.68215
维	-9.68244
呆	-9.68273
支持	-9.68276
旧	-9.6831
困难	-9.68331
久	-9.68341
诗	-9.68352
他没有	-9.68352
一时	-9.68398
农民	-9.68413
动人	-9.6843
戴	-9.68452
达到	-9.68472
仅	-9.68473
保持	-9.6848
实际上	-9.68491
昨天	-9.68509
号	-9.68519
那一天	-9.6854
兴趣	-9.68635
▁果	-9.68644
交给	-9.68655
不停地	-9.68681
异	-9.68702
的那种	-9.68736
格	-9.68907
恢复	-9.68928
恶劣	-9.68955
狂	-9.68967
两个月	-9.68971
再说	-9.69014
谢	-9.69027
未	-9.69064
大胆	-9.69086
向我	-9.69094
渴望	-9.69139
没有什么	-9.69141
克鲁瓦泽努瓦	-9.69176
可能是	-9.69236
有着	-9.69262
语气	-9.69309
翻	-9.69334
索	-9.69342
万一	-9.6936
▁一个	-9.69369
▁法	-9.69385
根	-9.69413
适	-9.69439
雷纳耳夫	-9.69443
应付	-9.69518
凶	-9.69522
妙	-9.69539
仪仗队	-9.69551
耳	-9.6956
城市	-9.69564
额	-9.69609
采取	-9.6963
西	-9.69635
慢慢	-9.69638
对此	-9.69657
吓	-9.6967
浓	-9.69678
女主人	-9.69681
识	-9.697
说的	-9.69714
纸	-9.69728
到达	-9.69734
吵	-9.69782
孤	-9.69782
其实	-9.6979
隐	-9.69795
彩	-9.69799
从他	-9.698
滚	-9.69805
政	-9.69806
沙	-9.69806
差	-9.69812
屋里	-9.6982
辩护	-9.69826
执	-9.6983
莱	-9.69838
挑	-9.69848
损害	-9.69856
搭	-9.69856
惊愕	-9.69857
舍	-9.69857
上帝	-9.69857
况且	-9.69857
法尔科兹	-9.69858
亲切	-9.69859
建筑	-9.69859
粗鲁	-9.69862
接近	-9.69875
什么事	-9.69878
格外	-9.69878
不断	-9.69881
此外	-9.69896
而不是	-9.69901
无限	-9.69902
克鲁瓦泽努瓦先生	-9.69961
讲述	-9.6998
神学院里	-9.69989
分别	-9.69989
以外	-9.7001
凡是	-9.70059
告诉我	-9.70062
说明	-9.7008
记住	-9.70158
通过	-9.70164
工人	-9.70165
的勇气	-9.70191
未来的	-9.70271
?’	-9.70276
的对象	-9.70325
走开了	-9.70365
克鲁瓦泽努瓦侯爵	-9.70388
依靠	-9.70469
严肃的	-9.70481
观	-9.70589
客人	-9.7059
水	-9.70595
几次	-9.70688
冲	-9.70758
贵	-9.70817
激	-9.70827
▁笑	-9.70858
审判	-9.70929
关系	-9.71009
改变了	-9.71064
发现他	-9.71152
却是	-9.71166
我的孩子	-9.71227
还算	-9.71247
见到了	-9.71409
已被	-9.71427
真正的	-9.7153
仇恨	-9.71624
难道我	-9.71639
模样	-9.71667
他很	-9.71679
收入	-9.71807
解	-9.71834
游	-9.71841
在场	-9.7185
是出于	-9.71889
几许	-9.71941
道德	-9.71961
巴黎人	-9.71974
即	-9.71985
一套	-9.72029
▁刻	-9.7211
我还	-9.7217
▁皮拉尔神父	-9.7255
的孩子	-9.72579
份	-9.72732
如果你	-9.72766
而已	-9.72815
般	-9.72938
多了	-9.73
的心情	-9.73001
是德	-9.73075
给于连	-9.73149
的计划	-9.73169
令	-9.7321
这份	-9.73338
有点儿	-9.73593
那就	-9.73708
么	-9.73793
他的朋友	-9.73804
弗朗	-9.73857
留在	-9.73865
注意到	-9.73947
他还是	-9.74001
神学	-9.74065
一顿	-9.74092
样子	-9.74126
造成	-9.74164
不愉快	-9.742
不像	-9.74413
了个	-9.74429
旁边	-9.74445
他不得不	-9.74456
要把	-9.74481
是一种	-9.74526
的日子里	-9.7453
好处	-9.74574
卖	-9.74607
当上	-9.74632
勇气	-9.74641
着他	-9.74748
去死	-9.74775
身旁	-9.74798
觉	-9.74835
地狱	-9.74951
▁您	-9.74966
后面	-9.74974
他用	-9.7501
他的妻子	-9.75119
简单	-9.75155
发现了	-9.7518
文	-9.75186
法官	-9.75225
上面	-9.75248
当着	-9.75346
把你	-9.75414
她在	-9.75446
接	-9.75457
▁前	-9.75501
距离	-9.75587
决心	-9.75697
去见	-9.75734
对您	-9.75734
恩	-9.75762
小小的	-9.75772
机会	-9.75829
越是	-9.75928
围	-9.76041
他走	-9.76051
遍	-9.7613
认	-9.76325
泪水	-9.76382
心中	-9.76417
床	-9.76458
地位	-9.76475
推	-9.76544
爱我	-9.76592
冷淡	-9.76686
票	-9.76729
含	-9.76753
厌恶	-9.76767
轻	-9.76799
的确	-9.76803
月	-9.76825
美丽的	-9.7683
置	-9.76847
傲慢	-9.76855
录	-9.76859
谋	-9.76869
为他	-9.76945
赏	-9.76987
深深	-9.77164
管	-9.7717
丽	-9.77236
勒	-9.77242
义	-9.7727
出现在	-9.77361
是他	-9.7749
又重新	-9.77496
自由	-9.77553
当德	-9.77566
喜	-9.77601
忽然	-9.7765
▁位	-9.77718
部分	-9.77772
不用	-9.77775
▁家	-9.77844
盘	-9.77849
我从	-9.77866
烦闷	-9.77893
独自	-9.77978
就在	-9.78023
丝毫	-9.78071
梦	-9.78073
”。	-9.78134
所有的人	-9.78242
老是	-9.78303
她觉得	-9.78318
▁面	-9.78363
真正	-9.78426
有勇气	-9.78442
容	-9.78486
拿出	-9.78533
他心想	-9.78604
也许会	-9.78626
阿	-9.78673
是她	-9.78686
询问	-9.7869
地说道	-9.78834
教育	-9.7891
情人	-9.79002
的野心	-9.79004
使您	-9.79065
这一天	-9.79082
看见了	-9.79104
身体	-9.79139
将来	-9.79195
殷勤	-9.7922
▁意	-9.79247
在那	-9.7936
的热情	-9.79384
不满	-9.79408
活下去	-9.79412
顺	-9.79416
▁小	-9.79423
主人	-9.79436
原谅	-9.79537
于连继续	-9.79589
上天	-9.79677
比较	-9.79709
在我	-9.79745
寄	-9.79748
叫人	-9.79749
一场	-9.79899
顶	-9.79909
偷	-9.80032
到底	-9.80063
▁什么	-9.80075
使他们	-9.80085
迅速	-9.80125
寻找	-9.80137
压	-9.80214
感动	-9.80258
▁望	-9.80376
区	-9.8045
带来的	-9.8046
不过他	-9.80464
回信	-9.80485
懂得	-9.80612
意见	-9.80663
麻烦	-9.80826
赞赏	-9.80923
封	-9.80943
活跃	-9.80949
改变	-9.81021
势	-9.81062
挨	-9.81097
炫耀	-9.81133
笔	-9.81141
坚	-9.81215
▁不过	-9.81232
讨	-9.81248
震	-9.81253
否则	-9.81376
看了	-9.81388
某些	-9.81388
供	-9.81396
胜过	-9.81453
弄得	-9.81483
专	-9.8159
及	-9.81606
有可能	-9.81622
颇为	-9.81719
进来	-9.81735
邀请	-9.81771
搞	-9.81776
曲	-9.81802
紧紧	-9.81875
熟	-9.81889
互相	-9.81896
私	-9.81969
帮	-9.81975
终	-9.82012
愈	-9.82051
坏蛋	-9.82058
忙着	-9.82065
阵	-9.8208
一笔	-9.82092
复	-9.82092
宴	-9.82095
残忍	-9.82106
渐渐	-9.82113
▁像	-9.82129
礼拜堂	-9.8217
一封	-9.82177
吉罗尼莫	-9.82179
奔	-9.82191
优雅	-9.82197
选择	-9.82212
平庸	-9.82213
碎	-9.82219
▁这种	-9.82229
旅行	-9.82234
博	-9.82253
有过	-9.82256
统统	-9.82258
堡	-9.82272
征	-9.82297
死刑	-9.82297
舌	-9.82299
柔情	-9.82303
挤	-9.82306
恼	-9.82307
滴	-9.82316
以致	-9.82317
锯木厂	-9.82319
反倒	-9.82319
污	-9.82319
折	-9.82321
仍	-9.82324
两个小时	-9.82325
困	-9.82332
按	-9.82332
卡	-9.82335
庄重	-9.82336
休息	-9.82338
权利	-9.82341
塞	-9.82347
洛	-9.82348
屈	-9.82353
快活	-9.82354
称之为	-9.82356
圣吉罗	-9.82356
鸣	-9.82357
云	-9.82357
俺	-9.82357
富丽堂皇	-9.82357
委	-9.82357
抱怨	-9.82358
憎恶	-9.82359
申请	-9.82359
▁耳夫人	-9.8236
憎恨	-9.82363
应答	-9.82368
略微	-9.82369
尊贵	-9.82371
笑容	-9.82377
敬意	-9.82388
逼	-9.82406
发表	-9.82414
看门人	-9.82414
抓住	-9.82419
消失了	-9.82434
我们的主人公	-9.82442
神学院的学生	-9.82446
一遍	-9.82468
一阵	-9.82475
读书	-9.8249
大教堂	-9.82495
平等	-9.82505
一分钟	-9.8253
像一个	-9.82606
无比	-9.82607
几位	-9.82628
镇静	-9.82636
不料	-9.82641
深刻	-9.8269
嫁给	-9.82711
说完	-9.82718
到贝桑松	-9.82752
补充说	-9.82771
感情	-9.82793
回来时	-9.82811
重复	-9.82813
来到贝桑松	-9.82832
说些什么	-9.82878
去吧	-9.82894
话题	-9.82897
死去	-9.82912
看起来	-9.82964
反而	-9.82973
接着说	-9.83085
的一个	-9.83094
对付	-9.83239
远远	-9.83257
一瞬间	-9.83288
歌	-9.83378
的名义	-9.83428
更多	-9.83436
是一位	-9.83546
不幸的	-9.83582
却又	-9.83583
开头	-9.83661
言辞	-9.83814
的印象	-9.83832
就可以	-9.83836
根本	-9.83847
不得	-9.83889
都要	-9.83938
每天都	-9.83959
大为	-9.84009
藏	-9.84152
他认为	-9.84169
的腔调	-9.84296
事务	-9.84301
受过	-9.8432
神态	-9.84459
男爵	-9.84542
她的丈夫	-9.84609
之时	-9.84738
母亲	-9.84791
做的	-9.84994
热烈	-9.85016
小说	-9.85033
走过	-9.85041
大大	-9.85253
也有	-9.85255
容易	-9.85298
的前程	-9.85308
现在我	-9.85365
他的自尊心	-9.85369
夏斯	-9.85387
不好	-9.85469
相貌	-9.85508
▁爵	-9.8551
桌子	-9.85626
的信件	-9.85648
的故事	-9.85705
两人	-9.85718
生活在	-9.85742
真相	-9.85808
脑	-9.85812
梦想	-9.85846
花园	-9.85868
混	-9.85874
雅	-9.85876
名字	-9.85932
的大	-9.86007
的需要	-9.86009
干什么	-9.86025
贫困	-9.86025
一名	-9.86058
▁作	-9.86079
之上	-9.8613
谈谈	-9.86132
错	-9.86143
我知道	-9.86167
▁也	-9.86169
写的	-9.86182
在这个	-9.86228
才智	-9.86232
▁切	-9.86237
什么都	-9.86251
你会	-9.8626
》,	-9.86345
第二天	-9.86353
但他	-9.8637
可爱	-9.86404
疑	-9.8651
的书籍	-9.86622
的回答	-9.86654
一封信	-9.86673
饶恕	-9.86675
大街	-9.86819
我的父亲	-9.87147
属于	-9.87156
乐趣	-9.872
雷纳耳先生的	-9.87506
过于	-9.87661
让你	-9.87664
晓得	-9.87831
倒是	-9.87923
▁他的	-9.88144
但是于连	-9.8815
的女儿	-9.88265
一听	-9.88471
回答道	-9.88517
身份	-9.88536
她那	-9.88686
不停	-9.88756
惊奇	-9.88836
▁次	-9.88854
▁尔	-9.88918
房	-9.88986
她已	-9.8912
▁中	-9.89138
替	-9.89348
世界	-9.89406
的时间	-9.89493
厚	-9.89553
王	-9.89711
天早晨	-9.89829
的牧师	-9.8985
他要	-9.89871
方才	-9.89925
的仆人	-9.89926
故	-9.89936
一小时	-9.8994
怀着	-9.90033
原来是	-9.9007
银	-9.90127
了一下	-9.90149
意志	-9.90151
许	-9.90188
三十	-9.90196
师	-9.90208
侍女	-9.90237
敌	-9.90255
的书	-9.9026
可笑	-9.90297
考	-9.90341
作用	-9.90515
疯了	-9.90651
苦恼	-9.907
这件	-9.90713
给德	-9.90733
一看	-9.90753
决不	-9.90818
他以为	-9.90862
切	-9.9089
花园里	-9.90982
平时	-9.91011
是那么	-9.91043
闷	-9.91096
怎	-9.9112
根本不	-9.9117
诺贝尔伯爵	-9.91174
荡	-9.91262
她的朋友	-9.91268
划	-9.91303
包	-9.9134
嚷	-9.91348
那天	-9.91432
泪	-9.91481
如果不是	-9.91497
线	-9.91564
本人	-9.91581
运	-9.91593
福	-9.91701
荣誉	-9.9178
▁者	-9.91785
奇怪的	-9.91818
而他却	-9.91836
友	-9.91941
判	-9.91943
改	-9.91973
他听见	-9.91992
一块儿	-9.92006
▁自	-9.92085
时代	-9.92122
自以为	-9.92174
了于连	-9.92298
到来	-9.92303
▁乎	-9.92393
一刻	-9.92405
越来越	-9.92462
铁	-9.92507
党派	-9.92534
忘记	-9.92539
的姓氏	-9.92541
或者是	-9.92563
会使	-9.92567
对于一个	-9.92588
看过	-9.92734
因此他	-9.92765
一辈子	-9.92772
年纪	-9.92934
他无法	-9.93003
采	-9.93056
唯一	-9.93069
奇特	-9.93098
不仅	-9.93161
▁然而	-9.9322
醒	-9.93222
的举动	-9.93248
羡慕	-9.93261
毫	-9.93287
得到的	-9.93323
掌握	-9.93328
节	-9.93345
向于连	-9.9337
头发	-9.93411
思索	-9.9355
主教的	-9.93716
手臂	-9.93843
二十	-9.93875
厉害	-9.93886
职位	-9.93951
兴奋	-9.94004
的悔恨	-9.94096
的丈夫	-9.94139
经验	-9.94281
的神态	-9.94305
预	-9.94396
迷	-9.94411
友好	-9.94478
唱	-9.94597
善良的	-9.94613
的语气	-9.94742
观察	-9.94884
可怜	-9.94955
缺少	-9.94973
可是他	-9.94977
博韦西骑士	-9.95097
请你	-9.95098
夜晚	-9.95116
变化	-9.95222
绝对	-9.9527
华丽的	-9.95301
我们的	-9.9531
当初	-9.95375
敬	-9.95385
贝	-9.95473
须	-9.95486
官	-9.95533
院	-9.95541
恳求	-9.95581
镜子	-9.95641
说过	-9.95652
大贵人	-9.95686
毒	-9.95694
尽力	-9.95695
非	-9.95704
天下	-9.95785
善良	-9.95829
免	-9.95859
现在她	-9.959
发觉	-9.95918
称	-9.95924
一年	-9.95927
蛋	-9.95937
恢复了	-9.95939
随即	-9.95977
的办法	-9.95999
随便	-9.96
会把	-9.9602
部长	-9.96031
开口	-9.96042
抬	-9.96058
且	-9.96085
事先	-9.96097
每当	-9.96118
草	-9.96119
官员	-9.96125
华	-9.96175
处于	-9.96198
争	-9.96245
▁动	-9.9625
比起	-9.96269
母	-9.96271
凭	-9.96283
狂热	-9.96289
欣赏	-9.96303
向您	-9.96321
责	-9.96347
十五年	-9.9636
扑	-9.96364
舞	-9.96373
投入	-9.96381
涌	-9.96388
干出	-9.96391
弥撒	-9.96407
坦率	-9.96413
幅	-9.96422
而且是	-9.96452
暴风雨	-9.96452
侍	-9.96456
租	-9.96478
媚	-9.96492
欢	-9.965
洁	-9.96505
战栗	-9.9651
实际	-9.96522
侯	-9.96532
椅	-9.96554
忏悔	-9.96558
左右	-9.96559
收到	-9.96562
遗	-9.9658
烦	-9.96585
厌	-9.96585
穆瓦罗先生	-9.96595
堆	-9.96598
累	-9.96603
探	-9.96604
普	-9.9661
壮	-9.96616
陪	-9.96621
筑	-9.96621
史	-9.96626
移	-9.96627
赐	-9.96627
哥特式	-9.96629
严格	-9.9663
纷	-9.96632
闭	-9.96634
牵	-9.96634
香	-9.96634
环	-9.96636
蒂	-9.96638
协	-9.96639
摸	-9.96639
欠	-9.96639
斯丹尼	-9.96639
担忧	-9.96642
现出	-9.96642
乘	-9.96642
归	-9.96642
诧异	-9.96642
躁	-9.96642
外科军医总监	-9.96643
遗憾	-9.96643
伪君子	-9.96643
怜悯	-9.96643
恭敬	-9.96643
这么一来	-9.96644
亲戚	-9.96644
这会儿	-9.96645
欢迎	-9.96647
十字勋章	-9.96647
居民	-9.96647
支配	-9.96649
暗示	-9.96649
在哪里	-9.96651
我亲爱的	-9.96658
足足	-9.96659
处理	-9.96672
外交家	-9.96673
惧怕	-9.96675
轻松	-9.96684
后悔	-9.9669
十足	-9.96694
伟大的天主	-9.96722
但是在	-9.9674
忘掉了	-9.96754
这副	-9.96755
遭受	-9.9676
察觉	-9.96762
诺贝尔说道	-9.96773
大家都	-9.96773
开门	-9.96776
止	-9.96786
对我来说	-9.96788
真情	-9.96828
▁———《	-9.96831
克服	-9.96831
▁路	-9.96841
拉莫尔夫人	-9.96854
温和	-9.96858
诗人	-9.96865
▁第十	-9.96898
慢慢地	-9.96906
去找	-9.96912
在花园里	-9.96918
玛斯隆神父	-9.96924
认真	-9.96926
用不着	-9.96936
几个小时	-9.9697
六个星期	-9.97014
在于连	-9.9703
接着说道	-9.97031
小城市	-9.97034
给您	-9.97039
牧师先生	-9.97062
靠近	-9.97066
赶走	-9.97079
惊异	-9.97091
和善	-9.97102
下面	-9.97103
的儿子	-9.97138
本地	-9.97142
另	-9.97144
楼	-9.97176
当场	-9.97191
醒了	-9.97198
▁头	-9.97226
那一会儿	-9.97262
增加了	-9.97263
▁大	-9.97292
一项	-9.97295
岁	-9.97314
的力量	-9.97372
一点儿也不	-9.97415
这正是	-9.97441
语言	-9.97491
的那位	-9.97549
我的天主	-9.97577
▁直	-9.9758
我的丈夫	-9.97609
让我们	-9.97656
个法郎	-9.9774
怎么样	-9.97777
不大	-9.97786
这条	-9.97787
带来了	-9.97868
有机会	-9.97993
事件	-9.98055
查	-9.98072
气氛	-9.98085
大大的	-9.98091
有一次	-9.981
窘迫	-9.98114
他们在	-9.98124
坏了	-9.98135
猜	-9.98151
一副	-9.98179
秘书	-9.983
实行	-9.98331
比我	-9.98392
很好	-9.9857
什么样的	-9.98669
引起了	-9.98743
摔	-9.98756
▁死	-9.98775
在哪儿	-9.98789
黑色	-9.9882
这张	-9.98844
对她说	-9.98875
那时	-9.98914
的情况	-9.98928
捧	-9.98941
被他	-9.98956
几个星期	-9.98985
的心目中	-9.99038
▁看	-9.9908
的欢乐	-9.99106
坚决	-9.99108
得多	-9.99137
▁把	-9.99182
的思想	-9.99202
说着	-9.99217
传说	-9.99234
睡	-9.99289
粗野	-9.99409
这不	-9.99416
而在	-9.99423
痛快	-9.99468
我从来没有	-9.99491
的人都	-9.995
发出	-9.99502
他们会	-9.99604
的消息	-9.99689
心头	-9.99702
我看	-9.99752
加以	-9.99843
),	-9.99848
他不再	-9.99888
她父亲	-9.99929
瞧着	-9.99985
禁	-9.99985
等待	-9.99986
他想道	-10.0002
跟一个	-10.0004
方面	-10.0009
他才	-10.0015
▁处	-10.0016
我对	-10.0034
的职位	-10.0043
如同	-10.0043
病了	-10.0053
这些话	-10.0065
一切的	-10.0069
骑马	-10.0069
颤抖	-10.007
忍	-10.007
他们都	-10.0078
▁个人	-10.0078
感到惊讶	-10.008
了下来	-10.008
我曾	-10.0083
一直在	-10.009
就这样	-10.0092
▁步	-10.0098
给我们	-10.0103
给了他	-10.0109
的机会	-10.0115
叫他	-10.0136
两三	-10.0138
▁福盖	-10.0142
忧郁	-10.0156
刷	-10.0163
不论	-10.0171
看见他	-10.0187
他自	-10.0193
显露出	-10.0196
作了	-10.0206
隐瞒	-10.0206
我还要	-10.0207
跨	-10.0208
明显的	-10.0231
信上	-10.025
第三天	-10.0265
阴谋	-10.0272
我的孩子们	-10.0275
▁经	-10.0278
骗	-10.0289
很快就	-10.029
?......	-10.0291
如果在	-10.0296
若	-10.0303
为什么不	-10.0309
不让	-10.0323
▁点	-10.0333
巧妙	-10.034
时期	-10.0347
的存在	-10.0352
监视	-10.036
理解	-10.0362
这两个	-10.0365
杜	-10.0368
雷纳耳夫人说	-10.0369
的马	-10.0376
五百法郎	-10.0381
外表	-10.0383
与我	-10.0388
一个大	-10.039
还得	-10.0393
回答说	-10.0399
断	-10.0408
毕竟	-10.0415
车夫	-10.0421
目的	-10.0426
到维鲤叶	-10.0432
喜爱	-10.0436
这是因为	-10.0439
登	-10.044
你想	-10.044
把于连	-10.0444
还有什么	-10.045
不过我	-10.0457
毕竟是	-10.0463
具	-10.0465
往下	-10.0468
。)	-10.0477
的那个	-10.0483
造	-10.0485
座	-10.0485
乡下人	-10.0487
报酬	-10.0495
倒霉	-10.0495
我的儿子	-10.0506
是不	-10.0518
保护	-10.0521
的律师	-10.0522
我却	-10.0523
坚定	-10.0523
和我	-10.0525
出来的	-10.0528
▁亲	-10.0528
以为他	-10.0538
她对	-10.0549
客厅	-10.056
的家庭	-10.0567
激烈	-10.0569
他希望	-10.0571
的不幸	-10.0584
▁服	-10.0589
音	-10.059
替我	-10.0596
纸片	-10.0599
最好	-10.0605
过分	-10.0616
野	-10.0628
感激	-10.063
跟于连	-10.063
溜	-10.0632
钱财	-10.0645
末	-10.0646
方法	-10.0646
▁度	-10.0646
就能	-10.0652
倍	-10.0661
味	-10.0677
付	-10.0683
景	-10.0683
他已经	-10.0689
的胳臂	-10.0691
瞧见	-10.0694
▁得到	-10.0696
似	-10.0701
事后	-10.0705
的乐趣	-10.0706
著名的	-10.0707
响	-10.0712
的傲慢	-10.0725
外省	-10.0735
鼓	-10.0736
他们是	-10.0741
精	-10.0747
那样的	-10.0753
愉快的	-10.0755
我决不	-10.0756
两个人	-10.076
程	-10.0765
席	-10.0766
指点	-10.0772
俗	-10.0774
于连从	-10.0776
不愿	-10.0778
亚	-10.0784
女儿	-10.0784
在于	-10.0791
安静	-10.0795
▁士	-10.0796
质	-10.0799
种	-10.08
指出	-10.0801
判决	-10.0804
脚步	-10.0809
牢房	-10.081
傲慢的	-10.0811
▁色	-10.0814
大约	-10.0814
心地	-10.0815
候	-10.0821
尺高	-10.0824
军官	-10.0825
用一种	-10.0825
深沉的	-10.0827
付给	-10.0832
这颗	-10.0841
圣会	-10.0845
的手段	-10.0845
手段	-10.0847
贴	-10.0864
姿态	-10.0869
哭了	-10.0881
幻	-10.0882
的姑娘	-10.0885
同学	-10.0892
暂时	-10.0911
在那些	-10.0917
,(	-10.0919
回去	-10.0926
冷漠	-10.0933
羞怯	-10.0943
详细	-10.0956
提供	-10.0968
叫我	-10.0969
▁神父	-10.0971
叫于连	-10.0975
希	-10.0977
所谓	-10.098
的胳膊	-10.0984
▁声	-10.0985
位置	-10.0989
远的	-10.0998
风流	-10.1001
摆脱	-10.1006
感受到	-10.1006
您将	-10.1008
封信	-10.101
较	-10.101
成为一个	-10.1011
片	-10.1013
除非	-10.1013
学问	-10.1025
这样说	-10.1027
他就会	-10.1035
基	-10.1047
欢乐	-10.1049
事儿	-10.105
性的	-10.1051
的烦恼	-10.1055
林	-10.1069
妇女	-10.1069
房间里	-10.107
有一种	-10.1072
大人	-10.1073
情形	-10.1075
今	-10.1079
高贵的	-10.1081
特意	-10.1082
奇	-10.1083
与德	-10.1083
的房子	-10.1093
于连看见	-10.1103
块	-10.1106
半个月	-10.1108
单独	-10.1114
赞美	-10.1118
注	-10.1123
生活的	-10.1124
印象	-10.113
显示	-10.113
▁方	-10.1134
世俗	-10.1137
页	-10.1156
愿	-10.1157
▁教	-10.1157
▁物	-10.1159
▁边	-10.1169
又是	-10.1172
占	-10.1172
穿过	-10.1172
规定	-10.1173
建	-10.1175
亲王	-10.1177
财富	-10.118
伤	-10.118
养	-10.1186
呆在	-10.1186
司	-10.1192
关怀	-10.1192
的时代	-10.1193
于连就	-10.1195
我相信	-10.1196
年轻姑娘	-10.1196
嘲弄	-10.1198
▁行	-10.12
佣人	-10.1203
高雅	-10.1204
变了	-10.121
他知道	-10.1217
诱惑	-10.1219
鞭	-10.122
拥	-10.1228
超过	-10.1232
给予	-10.1233
口袋里	-10.1233
透	-10.1234
一生中	-10.1235
的英雄	-10.1236
快地	-10.1238
诺	-10.1246
除	-10.1247
共	-10.1251
优势	-10.1253
卑鄙	-10.1254
▁活	-10.1255
稍	-10.1255
脾气	-10.1255
斥	-10.1256
借	-10.1257
意大利	-10.1258
每月	-10.126
木材	-10.1261
上来	-10.1262
着他的	-10.1267
就得	-10.127
增	-10.1272
猛	-10.1274
统治	-10.1274
呈	-10.1275
炮	-10.1276
展	-10.1278
败	-10.1279
再见	-10.1283
不免	-10.1283
我希望	-10.1284
镇	-10.1285
甚	-10.1286
抛	-10.1287
承	-10.1287
权	-10.1288
抱	-10.1288
价	-10.1288
欲	-10.1289
击	-10.129
欲望	-10.1292
这事	-10.1293
谁能	-10.1293
使人	-10.1294
保	-10.1295
稍稍	-10.1296
缓	-10.1296
海	-10.1297
锁	-10.1301
看见于连	-10.1301
温	-10.1302
听着	-10.1303
蜡烛	-10.1304
慷慨	-10.1304
底	-10.1305
傻瓜	-10.1306
死的	-10.1306
挺	-10.1306
找到一个	-10.1309
暗想	-10.1309
练	-10.131
添	-10.1311
期待	-10.1311
权势	-10.1311
腿	-10.1311
丧失	-10.1312
屋子里	-10.1314
聘	-10.1315
愉快地	-10.1315
玛	-10.1316
莫吉隆	-10.1317
第戎	-10.1318
得很	-10.1319
悲	-10.1319
昏	-10.132
选举	-10.1321
府上	-10.1321
有一张	-10.1321
冰	-10.1322
丁	-10.1323
习惯于	-10.1323
角	-10.1324
缩	-10.1324
古怪	-10.1325
帽	-10.1326
厌烦	-10.1326
柱	-10.1326
糟	-10.1327
春	-10.1327
鲁	-10.1327
他是一个	-10.1327
彼此	-10.1327
奥	-10.1327
匠	-10.1327
恐	-10.1328
磨	-10.1328
配	-10.1328
为人	-10.1328
贫	-10.1329
率	-10.1329
左	-10.1329
庸俗	-10.1329
纷纷	-10.1329
凉	-10.1329
荒唐	-10.133
巧	-10.133
戏	-10.133
劝	-10.133
烟	-10.133
治	-10.133
鸡	-10.133
颤	-10.133
遮	-10.1331
武	-10.1331
联	-10.1331
南	-10.1331
一棵	-10.1331
柜台	-10.1331
链	-10.1331
锋	-10.1331
谦恭	-10.1331
圣克雷芒	-10.1331
大多数	-10.1331
爆	-10.1331
使劲	-10.1331
册	-10.1331
卢梭	-10.1331
垫	-10.1331
拍	-10.1331
插	-10.1331
源	-10.1331
塔西陀	-10.1331
斯塔尼斯拉斯	-10.1331
履行	-10.1331
糊涂	-10.1331
诅咒	-10.1331
伦敦	-10.1331
泉	-10.1331
迪	-10.1331
咳	-10.1331
愚笨	-10.1331
嗳	-10.1331
羞涩	-10.1331
溪流	-10.1331
英俊	-10.1331
米拉波	-10.1331
毫无疑问	-10.1331
模仿	-10.1331
这可能吗	-10.1331
堕落	-10.1331
嫉恨	-10.1331
吐露	-10.1331
困惑	-10.1331
青春	-10.1331
赐予	-10.1331
烦扰	-10.1331
博尼	-10.1331
购买	-10.1331
步伐	-10.1331
风趣	-10.1332
▁纳耳夫人	-10.1332
犹如	-10.1332
猜疑	-10.1332
唱歌	-10.1332
乡野	-10.1332
迎合	-10.1332
分寸	-10.1332
精致	-10.1332
帮忙	-10.1332
古老	-10.1332
尽量	-10.1332
鞋子	-10.1332
站了起来	-10.1332
五分钟	-10.1333
二十岁	-10.1333
偶然	-10.1333
子弹	-10.1333
色彩	-10.1333
无聊	-10.1333
初次	-10.1333
动摇	-10.1333
词句	-10.1333
从此以后	-10.1333
证实	-10.1333
四周	-10.1334
了我	-10.1334
避开	-10.1334
失望	-10.1334
哭泣	-10.1334
反应	-10.1335
华盖	-10.1336
长沙发	-10.1337
享有	-10.1337
花钱	-10.1337
必要	-10.1337
长久	-10.1338
爱上	-10.1339
表面上	-10.1339
冒犯	-10.1339
今后	-10.134
不悦	-10.134
免得	-10.1341
数目	-10.1341
生性	-10.1341
称为	-10.1342
人人都	-10.1344
有必要	-10.1344
两眼	-10.1344
这两位先生	-10.1345
随后	-10.1346
了他	-10.1347
对于连说	-10.1348
一本书	-10.135
在这座	-10.1352
的话语	-10.1353
加入	-10.1353
今晚	-10.1354
读者	-10.1355
瓦尔诺夫人	-10.1356
怀有	-10.1356
的心思	-10.1356
当于连	-10.1357
十分高兴	-10.1358
▁!"#	-10.1358
主教府	-10.1363
往上	-10.1364
这笔钱	-10.1365
放心	-10.1366
做作	-10.1366
肖兰先生	-10.1366
运用	-10.1369
多少钱	-10.1372
在城里	-10.1376
▁第二天早晨	-10.1379
副本堂神父	-10.1379
这个词	-10.138
试用	-10.1382
我的罪行	-10.1382
羞	-10.1385
所长	-10.1386
自豪	-10.1388
增加	-10.1389
一根	-10.1389
可爱的	-10.1398
长期	-10.1399
有多少	-10.1399
这一层	-10.1404
礼物	-10.1406
早就	-10.1406
长得	-10.1408
平和	-10.1411
并不是	-10.1412
换了	-10.1413
出色	-10.1414
的利益	-10.142
对他们说	-10.1425
话头	-10.1425
这是一种	-10.1426
不止	-10.1427
幸好	-10.1429
她的孩子们	-10.1431
认为是	-10.1432
浑身	-10.1433
市政府	-10.1441
对自己说	-10.1441
这位先生	-10.1446
他对于连说	-10.1447
说实话	-10.1449
跳舞	-10.145
不然	-10.1451
轻快	-10.1451
的那个人	-10.1452
那套	-10.1453
议员	-10.1454
收到的	-10.1454
情况下	-10.1455
花了	-10.1458
一身	-10.1468
超出	-10.1471
我真	-10.1471
令我	-10.1472
不应该	-10.1477
写信给	-10.1478
我很	-10.1485
一章	-10.1496
什么都不	-10.15
乱了	-10.1501
见过	-10.1513
的女	-10.1513
爱上了	-10.1516
请他	-10.1518
和您	-10.1521
长长的	-10.1526
是那样地	-10.1536
可笑的	-10.1538
盒子	-10.1543
阴沉	-10.1548
我不会	-10.1549
的美丽	-10.1551
丈	-10.1554
一一	-10.1554
这般	-10.1557
的穷	-10.1564
唱了	-10.1568
原因	-10.1568
想去	-10.1577
们都	-10.1578
走开	-10.1578
到处	-10.1585
丧	-10.1586
杀死	-10.1586
智慧	-10.1596
迅速地	-10.1597
拜访	-10.1604
上当	-10.1609
不安了	-10.1609
有了一个	-10.1616
两天	-10.1617
他的思想	-10.1622
落在	-10.163
于连发现	-10.1631
来到这	-10.1634
同样的	-10.1638
▁这时	-10.1638
说是	-10.1645
出现了	-10.1649
的危险	-10.1658
的微笑	-10.1664
干的	-10.1667
放弃	-10.1676
▁幸	-10.1676
▁住	-10.1687
进神学院	-10.1688
住宅	-10.1688
使他感到	-10.1692
于连便	-10.1694
她对他说	-10.17
他是在	-10.1702
他却	-10.1702
的门	-10.1702
她曾经	-10.1703
▁民	-10.1708
▁答	-10.1711
不该	-10.1722
胡	-10.1725
▁地方	-10.173
是太	-10.173
他从来没有	-10.1731
感到厌倦	-10.1734
的那样	-10.1735
他曾	-10.1735
的教育	-10.1736
其他人	-10.1741
把梯子	-10.1742
的欢心	-10.1745
是一	-10.1759
四个	-10.1766
的职务	-10.1773
好几	-10.1775
通知	-10.1785
的才干	-10.1786
他一直	-10.1788
的眼神	-10.1791
眼睛里	-10.1797
黑牢里	-10.1805
量	-10.1827
在我们	-10.1828
显得很	-10.1831
笨拙	-10.1833
发迹	-10.1842
子上	-10.1844
士	-10.1844
耻辱的	-10.1844
有个	-10.1852
的角色	-10.1866
的一	-10.187
▁到了	-10.1874
虚假	-10.1883
很有	-10.1887
于连才	-10.1888
于连已经	-10.1889
些什么	-10.189
大量	-10.189
带走	-10.1891
的结果	-10.1893
阿尔	-10.1893
她只是	-10.1901
▁大的	-10.1902
感觉到	-10.1904
▁主教	-10.1912
大声说	-10.1916
在我的	-10.1921
那就是	-10.1921
创	-10.1925
为您	-10.1928
▁觉	-10.1931
存	-10.1942
一切全	-10.1945
总算	-10.1949
走到	-10.1961
不出	-10.1965
一部分	-10.1971
不但	-10.1972
▁约	-10.1972
而他	-10.1973
的程度	-10.1973
平日	-10.2006
带来	-10.2009
好象	-10.2019
也变得	-10.2028
度过的	-10.203
事业	-10.2033
▁只	-10.2034
所在	-10.2034
▁现	-10.2038
她却	-10.2042
七八	-10.2042
群	-10.2048
的天主	-10.2059
是如此	-10.2073
的建议	-10.2087
的行动	-10.2093
的表现	-10.2105
感谢	-10.2124
一连	-10.2131
,’	-10.2136
完了	-10.2141
整整	-10.2143
阔	-10.2145
想要	-10.2147
的场面	-10.2151
有几分	-10.2152
他的名字	-10.2155
效果	-10.2155
你就	-10.2159
阶级	-10.2172
双手	-10.2173
交往	-10.2178
和于连	-10.218
,)	-10.2184
何	-10.2186
窗子	-10.2202
▁尽管	-10.2211
慎重	-10.2215
并非	-10.2218
▁......”	-10.2219
于连的手	-10.2222
将他	-10.2227
气得	-10.2227
容忍	-10.2229
透了	-10.2232
看法	-10.2243
场合	-10.2244
据说	-10.2246
▁因为	-10.2249
把这个	-10.2254
巧妙的	-10.2255
一人	-10.226
▁代	-10.226
魂	-10.2261
发言	-10.2267
决不是	-10.2268
她对我	-10.227
虔诚的	-10.2272
▁诺先生	-10.2276
骄傲	-10.2276
她终于	-10.2285
更大的	-10.229
才华	-10.2292
▁晚上	-10.2293
头脑	-10.2296
)。	-10.2297
的虚荣心	-10.2302
近乎	-10.2303
长时间的	-10.2304
的友谊	-10.2311
直接	-10.2312
半年	-10.2317
刻	-10.2319
了他的	-10.2323
低声	-10.2323
审	-10.2328
的看法	-10.2329
▁所	-10.233
的财产	-10.2335
最大的	-10.234
就算	-10.2342
高声	-10.2353
我丈夫	-10.2355
摆	-10.2355
有一位	-10.2356
剩下的	-10.2359
易	-10.236
幸福的	-10.237
他自己的	-10.237
让步	-10.2373
我现在	-10.2376
人心	-10.2381
敢于	-10.2384
幸运	-10.2385
英勇	-10.2387
的马车	-10.2397
巨大	-10.24
屈尊	-10.2403
全家	-10.2411
▁分	-10.2416
祝贺	-10.2417
几分	-10.242
最初	-10.242
度过	-10.2424
把自己	-10.2427
士的	-10.2429
你是	-10.2432
场面	-10.2438
▁不是	-10.245
您不	-10.2455
摇	-10.2458
经历	-10.246
天气	-10.2461
还在	-10.2464
走出来	-10.2474
说我	-10.2493
嘲笑	-10.2493
▁在这	-10.2498
织	-10.2505
的人物	-10.2525
钟声	-10.253
的魅力	-10.2531
聪明人	-10.2542
▁你	-10.2552
礼服	-10.2552
城里	-10.2553
他心里	-10.2556
娶	-10.2557
权力	-10.256
阿尔塔米拉伯爵	-10.2563
设	-10.2566
我只	-10.2567
口气	-10.2572
▁由于	-10.2573
我曾经	-10.258
▁都	-10.2581
悲惨的	-10.2585
残酷的	-10.2596
每次	-10.2605
的生命	-10.2611
显露	-10.2614
他心中	-10.2621
刑	-10.2636
们的	-10.2646
缺	-10.2652
进了	-10.2658
亲吻	-10.2661
一半	-10.2663
幸	-10.2667
迹	-10.2668
一刻钟	-10.2671
▁就	-10.2671
充满了	-10.2672
都有	-10.2684
问道	-10.2686
了吗	-10.2687
限	-10.2694
还不	-10.2697
晚餐	-10.2702
▁坐在	-10.2708
否认	-10.2708
这一切都	-10.2716
他看到	-10.2731
佣人们	-10.2731
的希望	-10.2742
那座	-10.275
当地	-10.2769
脑袋	-10.2772
影	-10.2775
甚至是	-10.2782
树林	-10.2782
世纪	-10.2784
兹	-10.2784
赚	-10.2785
叹	-10.2791
这样的人	-10.2791
板	-10.2793
发生的事	-10.2796
计	-10.2797
这桩	-10.2797
性情	-10.2797
追	-10.2801
这句	-10.2802
耶稣会	-10.2805
▁诺	-10.2806
▁友	-10.2808
话来	-10.2816
永	-10.2819
一眼	-10.2819
兵	-10.2826
为于连	-10.2829
两位	-10.2839
正如	-10.2839
这是他	-10.2845
的客厅里	-10.2848
恨我	-10.2849
靠着	-10.2856
也都	-10.2857
真实	-10.2858
民	-10.2858
问他	-10.2859
要做	-10.2861
答	-10.2861
教堂的	-10.2863
以便	-10.2865
请求	-10.2865
堂	-10.2866
幽	-10.2867
那些人	-10.2869
▁当他	-10.2874
百	-10.2874
两点钟	-10.2876
们中间	-10.2881
一步	-10.2887
消息	-10.2908
允许我	-10.2908
可以用	-10.2916
架	-10.292
于连注意到	-10.2922
惊恐	-10.293
这个可怜的	-10.2933
靴子	-10.2934
的所有	-10.2934
唯有	-10.2937
六年	-10.2942
为此	-10.2948
中的一个	-10.2951
卑贱	-10.2952
他便	-10.2954
假使	-10.2962
这种情况	-10.2972
的农民	-10.2974
他为	-10.2975
招来	-10.2979
错了	-10.2979
差点儿	-10.2987
藉	-10.2987
找不到	-10.2991
晚饭	-10.2993
在这次	-10.2997
柔和	-10.3001
人士	-10.3002
为她	-10.3006
风度	-10.3007
思考	-10.3013
严重	-10.3014
促	-10.3016
的时刻	-10.302
着一个	-10.302
虚伪的	-10.3025
女子	-10.3027
去想	-10.3029
片刻	-10.3035
结束了	-10.3037
乌	-10.3049
▁纳耳先生	-10.3056
脸色苍白	-10.3071
为什么要	-10.3072
于连又	-10.3072
地步	-10.3081
动身	-10.3082
这话	-10.3096
的秘书	-10.3096
写过	-10.3099
获得了	-10.3103
例外	-10.3106
实在的	-10.3108
不断地	-10.3111
站起来	-10.3115
上去	-10.3116
但在	-10.3126
屋顶	-10.3126
有幸	-10.3127
看到他	-10.3128
▁确实	-10.3132
老婆	-10.3134
心境	-10.3134
天真	-10.3136
威	-10.3139
古	-10.3142
西班牙	-10.3147
有一	-10.3151
明智	-10.3153
突	-10.3153
术	-10.3158
感到十分	-10.316
称赞	-10.3161
这笔	-10.3167
名誉	-10.3168
甘愿	-10.317
嘴唇	-10.3175
烦恼	-10.3177
毁	-10.3177
献	-10.3181
记忆	-10.3183
心灵的	-10.3183
看到我	-10.3183
深处	-10.3187
婚	-10.3188
跪	-10.3189
党	-10.319
彻底	-10.3195
公众	-10.3195
神圣	-10.3195
装饰	-10.3196
打断	-10.3197
反感	-10.3198
自言自语	-10.3199
把她	-10.3204
小时	-10.3206
比她	-10.3207
高尚	-10.3208
的方式	-10.3211
千	-10.3213
签	-10.3216
杀	-10.322
消	-10.3221
衣	-10.3221
有钱的	-10.3226
懦弱	-10.3228
拉丁	-10.3229
这种情形	-10.323
卑	-10.3235
公正	-10.3239
几分钟	-10.3239
探监	-10.3242
手枪	-10.3245
送到	-10.3245
一致	-10.3246
变成	-10.3246
虽	-10.3248
服装	-10.3249
一个像	-10.3249
事物	-10.3251
他被	-10.3253
永远不会	-10.3254
走过来	-10.3255
▁难	-10.3257
露面	-10.3259
跪倒在	-10.3262
扮演	-10.3263
需	-10.3269
您就	-10.3274
自觉	-10.3278
卧室	-10.3278
津加勒利	-10.3281
值	-10.3281
熟悉	-10.3282
隔	-10.3283
闹	-10.3285
遇	-10.3286
可耻	-10.3286
尚	-10.3287
清早	-10.3287
刺激	-10.3287
优秀	-10.3287
唤	-10.3287
园	-10.3289
注目	-10.3289
坐下	-10.3289
神气	-10.3292
牢	-10.3292
有理由	-10.3293
诉说	-10.3299
宁	-10.3301
邻	-10.3302
铃	-10.3302
▁间	-10.3302
羞辱	-10.3303
掩	-10.3305
肯	-10.3306
吉	-10.3307
修道院	-10.3309
助	-10.3309
在他们	-10.3309
皮拉尔	-10.3309
无论	-10.3309
精力	-10.3309
抖	-10.331
恋	-10.3312
属	-10.3313
给自己	-10.3313
风雅	-10.3313
抄	-10.3315
河	-10.3317
逢	-10.3319
肉	-10.3319
充	-10.332
雨	-10.332
犹豫	-10.332
圈	-10.3321
玩笑	-10.3321
往往	-10.3321
午夜	-10.3322
未曾	-10.3323
波纳拜忒	-10.3323
平常	-10.3324
状	-10.3324
签字	-10.3325
废	-10.3325
蠢	-10.3325
射	-10.3326
避	-10.3326
房里	-10.3326
自尊	-10.3326
延	-10.3326
宣	-10.3326
看成是	-10.3326
迎	-10.3327
详	-10.3327
谈及	-10.3327
黄	-10.3327
感兴趣	-10.3327
奉	-10.3328
兰	-10.3328
淡	-10.3328
劳	-10.3328
哀	-10.3328
东	-10.3328
望见	-10.3329
欣	-10.3329
都不会	-10.3329
济	-10.3329
灾	-10.3329
塔	-10.3329
凑	-10.3329
宗	-10.3329
抗	-10.3329
呼	-10.3329
仗	-10.3329
寒	-10.3329
驻	-10.3329
颂	-10.3329
苔	-10.333
劣	-10.333
指望	-10.333
辞职	-10.333
诡计	-10.333
菜	-10.333
皮拉尔神	-10.333
龙	-10.333
掌	-10.333
姑	-10.333
寂	-10.333
组	-10.333
软	-10.333
涉	-10.333
缘	-10.333
帐	-10.333
副行政长官	-10.333
悟	-10.333
辛	-10.333
波拿巴	-10.333
聚	-10.333
尖	-10.3331
健	-10.3331
湿	-10.3331
葡萄酒	-10.3331
垒	-10.3331
雪	-10.3331
食	-10.3331
寡	-10.3331
揣	-10.3331
绯红	-10.3331
涂	-10.3331
丰	-10.3331
主考人	-10.3331
沾	-10.3331
洗	-10.3331
纠缠	-10.3331
销	-10.3331
饱	-10.3331
忠义大道	-10.3331
描绘	-10.3331
聆听	-10.3331
畔	-10.3331
习俗	-10.3331
伊	-10.3331
佳	-10.3331
的私生子	-10.3331
躬	-10.3331
倘使	-10.3331
寒暄	-10.3331
愤愤不平	-10.3331
肆	-10.3331
陶醉在	-10.3331
不妨	-10.3331
乔瓦诺纳	-10.3331
哟	-10.3331
喘	-10.3331
妨碍	-10.3331
砌	-10.3331
忙碌	-10.3331
灼	-10.3331
炽热	-10.3331
牌	-10.3331
瞧不起	-10.3331
颠	-10.3331
哎	-10.3331
学习	-10.3331
弯	-10.3331
收拾	-10.3331
机智	-10.3331
杰作	-10.3331
淌	-10.3331
贯	-10.3331
闯	-10.3331
嘲讽	-10.3331
导致	-10.3331
阻碍	-10.3331
牢狱	-10.3331
俸	-10.3331
状况	-10.3331
评论	-10.3331
二十四小时	-10.3331
武器	-10.3331
羞耻	-10.3331
压抑	-10.3331
乡村	-10.3331
联系	-10.3331
连续	-10.3331
参观	-10.3331
激怒	-10.3331
鲜花	-10.3331
本堂区	-10.3331
剪刀	-10.3331
争吵	-10.3332
投标	-10.3332
贝尔纳神父	-10.3332
建造	-10.3332
担任	-10.3332
战斗	-10.3332
闪耀	-10.3332
毛病	-10.3332
山脉	-10.3332
享乐	-10.3332
太阳	-10.3332
乡镇	-10.3332
瑞士	-10.3332
谎言	-10.3332
音乐	-10.3332
工匠	-10.3332
逃避	-10.3332
平息	-10.3332
剧烈	-10.3332
成绩	-10.3332
减少	-10.3332
轻轻	-10.3332
例如	-10.3332
目标	-10.3332
讨论	-10.3332
表明	-10.3332
计谋	-10.3332
混乱	-10.3332
征服	-10.3333
了不起	-10.3333
品行	-10.3333
道歉	-10.3333
公证人	-10.3333
可惜	-10.3333
见鬼	-10.3333
军服	-10.3333
田地	-10.3333
满脸	-10.3333
工夫	-10.3334
开枪	-10.3334
恶毒	-10.3334
本省	-10.3334
鄙视	-10.3334
光荣	-10.3334
预先	-10.3334
定居	-10.3334
服丧	-10.3335
参与	-10.3335
侧	-10.3335
恐怕要	-10.3335
被判处死刑	-10.3335
绅士	-10.3336
侍者	-10.3336
圣职	-10.3336
打量	-10.3336
主管	-10.3336
更糟	-10.3336
看不见	-10.3336
神学院院长	-10.3336
博韦西先生	-10.3337
可恶的	-10.3337
差别	-10.3337
台阶	-10.3337
耳光	-10.3338
少女	-10.3338
发财	-10.3338
区长	-10.3338
披着	-10.3338
今天晚上	-10.3338
好奇心	-10.3338
好奇	-10.3338
几件	-10.3339
新闻	-10.3339
一点钟	-10.3339
轻视	-10.3339
痛恨	-10.334
无数	-10.334
这些先生们	-10.334
远处	-10.334
下流的	-10.334
那位院士	-10.3341
侯爷	-10.3341
带领	-10.3341
皮拉尔先生	-10.3341
远离	-10.3341
难受	-10.3341
办事	-10.3342
荣幸地	-10.3342
每逢	-10.3342
逐渐地	-10.3342
教区里	-10.3343
留神	-10.3343
再度	-10.3343
打发	-10.3343
迷人	-10.3343
▁—"	-10.3343
这可怜	-10.3343
真理	-10.3344
莫吉隆先生	-10.3344
她的哥哥	-10.3344
得知	-10.3344
老天	-10.3344
口吻	-10.3345
来吧	-10.3345
一百法郎	-10.3345
注定要	-10.3346
挽着	-10.3346
分手	-10.3346
头痛	-10.3346
对一个	-10.3346
这是她	-10.3347
伤心	-10.3347
信赖	-10.3348
正直的人	-10.3348
不肯	-10.3349
丢掉	-10.3349
清醒过来	-10.3351
的回忆	-10.3351
五法郎	-10.3351
箱子	-10.3352
的关系	-10.3353
做个	-10.3353
动手	-10.3353
拉莫尔侯爵夫人	-10.3354
等到	-10.3354
凯吕斯伯爵	-10.3357
笑话	-10.3358
确信	-10.3359
坐着	-10.3359
太多	-10.3361
一枪	-10.3365
甚至连	-10.3366
地区	-10.3366
行走	-10.3368
这些事情	-10.337
▁孔泰	-10.3371
夺走	-10.3372
有时候	-10.3373
吻着	-10.3373
这场	-10.3374
怪物	-10.3374
一边说	-10.3374
报纸上	-10.3376
▁自己	-10.3378
相处	-10.3378
快要	-10.3379
不晓得	-10.3381
这倒	-10.3384
的只是	-10.3384
十年来	-10.3385
不顾	-10.3385
找着	-10.3385
年轻的伯爵	-10.3386
的神气	-10.3387
绝对不	-10.3388
此人	-10.339
这方面	-10.339
▁黎	-10.3391
但她	-10.3395
圣体	-10.3395
问问	-10.3398
她的情人	-10.34
用手	-10.3403
狭窄的	-10.3405
却没有	-10.3405
精心	-10.3407
一部	-10.3408
的罪行	-10.3409
理想	-10.341
作家	-10.3414
在这间	-10.3416
山区	-10.3417
我哥哥	-10.3419
更使	-10.342
一本	-10.3421
雷纳耳夫人的手	-10.3423
长大	-10.3427
与她	-10.3429
再也无法	-10.3429
力气	-10.343
引用	-10.343
的时节	-10.3432
向后	-10.3432
从巴黎	-10.3435
▁啊	-10.3435
向她丈夫	-10.3436
笑着说	-10.3437
上等	-10.3438
一笑	-10.3438
有这么	-10.3441
这就是说	-10.3444
放弃了	-10.3444
右	-10.3446
向他说道	-10.3448
而我	-10.3451
遗骨	-10.3451
他远远地	-10.3453
着她	-10.3453
万法郎	-10.3464
只会	-10.347
供给	-10.3472
天夜里	-10.3474
比他	-10.3476
是完全	-10.3479
坦	-10.3484
当时我	-10.3487
执行	-10.3487
打断了	-10.3489
结了	-10.349
为着	-10.3496
的语言	-10.3497
留下了	-10.3497
生意	-10.3498
的神色	-10.3498
她怕	-10.3499
家族	-10.3502
说什么	-10.3504
▁易	-10.3504
用来	-10.3505
如果我们	-10.3505
我看见	-10.3507
手上	-10.351
的面孔	-10.3512
成就	-10.3512
寄给	-10.3528
我不得不	-10.3537
▁吧	-10.3538
来自	-10.3549
我本	-10.3552
▁掉	-10.3556
▁夫人	-10.3557
家去	-10.3557
的兴趣	-10.3557
有头脑	-10.3559
我给	-10.3561
同时也	-10.3566
▁她的	-10.3568
但又	-10.3579
的诗	-10.3583
美的	-10.3585
见到你	-10.3589
不同意	-10.3589
怎么能	-10.359
他老是	-10.3591
他应该	-10.3591
空气	-10.3592
的男子	-10.3596
的责任	-10.3601
的情况下	-10.3602
向你	-10.3603
老索黑尔	-10.3604
回来了	-10.361
其他的	-10.3614
等着	-10.3614
花费	-10.3617
跟你	-10.3617
手中	-10.362
这位主教	-10.362
的位置	-10.3624
形成	-10.3625
未来	-10.3633
惩罚我	-10.3634
地方	-10.3635
他内心	-10.3637
显示出	-10.3641
谈了	-10.3642
怀疑了	-10.3646
去看看	-10.3646
让您	-10.3649
把我从	-10.365
这个问题	-10.3651
抓	-10.3652
柔	-10.3656
的轻蔑	-10.3657
的朋友们	-10.3663
拒绝了	-10.3664
最漂亮的	-10.3664
家庭教师	-10.3666
每个	-10.3668
他能	-10.3675
个人	-10.3676
我的心	-10.3681
崇高	-10.3683
她认为	-10.3684
可以看出	-10.3685
的相貌	-10.3687
十八岁	-10.3688
▁外	-10.3694
即使是	-10.3696
▁貌	-10.3701
要好	-10.3704
老头	-10.3705
的那一天	-10.3709
不已	-10.3719
知道了	-10.3723
就这么	-10.3724
的嘴	-10.3726
是这样的	-10.3728
感慨	-10.3729
相同	-10.3731
他都	-10.3732
看你	-10.3734
的恐怖	-10.3746
中午	-10.3749
的事儿	-10.375
我觉得	-10.375
了不少	-10.3758
好的	-10.376
明白了	-10.3763
罗马	-10.3763
的欢快	-10.3763
!......”	-10.3765
她竟	-10.3766
的接待	-10.3773
▁于连从	-10.3783
美人	-10.3784
▁堂	-10.379
告诉您	-10.3797
告诉了	-10.3801
照料	-10.3801
路易	-10.3811
可耻的	-10.3811
你可以	-10.3812
掩盖	-10.3816
独自一人	-10.3821
向前	-10.3826
她正	-10.3842
即使在	-10.3844
自信	-10.3853
这女人	-10.3855
的命令	-10.3857
于连突然	-10.386
只好	-10.3862
怒火	-10.3867
城里的	-10.3867
去做	-10.3873
我一定要	-10.3875
的心肠	-10.3878
之间的	-10.3879
我还是	-10.3883
姓氏	-10.3885
走出	-10.3888
她一	-10.389
▁对	-10.3903
友谊	-10.3906
这两	-10.3916
看到于连	-10.3918
▁《	-10.3919
他只	-10.3927
对着	-10.3933
我得	-10.3938
得这么	-10.3943
可怜的孩子	-10.3944
的新	-10.3947
赢得	-10.3961
他儿子	-10.3967
名声	-10.397
他跟	-10.3972
合适	-10.3972
于连感到	-10.3979
▁苔维尔夫人	-10.398
▁看到	-10.4
的答复	-10.4001
人生	-10.4017
跪在	-10.4018
了她的	-10.4018
▁门	-10.402
穿上	-10.402
的轻	-10.4028
了很久	-10.4034
▁口	-10.4034
的才能	-10.4039
做法	-10.405
是很	-10.4054
会让你	-10.4054
乌黑	-10.4055
已有	-10.4056
是那样	-10.4057
单纯	-10.4071
▁理	-10.4071
的荣誉	-10.4076
推开	-10.4077
他得	-10.4079
维鲤叶的人	-10.4085
既不	-10.4086
见到的	-10.4088
的权力	-10.4091
不准	-10.4109
天空	-10.4119
手里	-10.4122
▁认	-10.4132
无可	-10.4136
的职责	-10.4136
停	-10.4148
▁这一天	-10.4151
观看	-10.4154
对比	-10.4158
瞧见他	-10.4162
说他	-10.4162
阴郁的	-10.4165
他曾经	-10.4174
客气	-10.4174
教堂里	-10.4175
成功了	-10.4176
六百法郎	-10.4179
的家	-10.418
▁于连没有	-10.4183
的侮辱	-10.4183
宁静	-10.4184
于连认为	-10.4186
出来了	-10.4201
审判官	-10.4202
把他们	-10.4206
▁那些	-10.4206
重大的	-10.4207
上午	-10.4215
他对于	-10.4219
但却	-10.422
头上	-10.4227
也很	-10.4228
▁经过	-10.4229
他有	-10.4235
没有人	-10.4238
地上	-10.4242
原是	-10.4259
的影响	-10.426
于连已	-10.4262
露出	-10.4266
把它们	-10.4269
在法国	-10.427
我的天	-10.4276
演	-10.4279
极度的	-10.4283
这个小	-10.4287
在一块儿	-10.4289
有这样	-10.4293
您能	-10.4299
▁谈	-10.4302
不快	-10.4314
你现在	-10.4325
▁巴黎	-10.4326
我才	-10.4326
但是她	-10.4327
说得	-10.4331
是因为	-10.4334
的银	-10.4337
匹	-10.4353
▁静	-10.4355
成的	-10.4364
有足够的	-10.437
拜	-10.4385
有人说	-10.4394
我明白了	-10.4404
只剩下	-10.4406
写了	-10.4409
房门	-10.4412
一个朋友	-10.4414
现在他	-10.4435
回忆起	-10.4435
他立刻	-10.4437
难过	-10.4441
以为	-10.4444
的努力	-10.4445
说起	-10.4446
的高傲	-10.4451
的秘密	-10.446
打击	-10.4464
的言辞	-10.4464
长时间	-10.4467
的愤怒	-10.4471
自己说	-10.4477
了起来	-10.4478
人都	-10.4484
贝桑松的	-10.4499
当我	-10.4504
冷酷	-10.451
障碍	-10.4517
这使他	-10.4521
▁论	-10.4529
惨	-10.4533
登上	-10.4536
▁爱	-10.4537
亲密	-10.4539
荣耀	-10.4547
愁	-10.4557
▁回	-10.4559
她说	-10.4569
的姿态	-10.4579
▁恶	-10.4589
正直	-10.4591
的山	-10.4596
▁苦	-10.46
她和	-10.4604
笨拙的	-10.4605
勋章	-10.4608
家中	-10.4611
不是个	-10.4613
▁字	-10.4619
层	-10.4624
或者说	-10.4629
她问	-10.4638
他们把	-10.4649
有多大	-10.4666
我不再	-10.4667
▁国	-10.4667
信件	-10.468
观念	-10.4682
甚至在	-10.4694
窗户	-10.47
息	-10.4702
要是我	-10.4702
卑鄙的	-10.4704
燃烧	-10.4718
的表	-10.4719
响声	-10.4732
肮脏的	-10.4733
百叶窗	-10.4734
每隔	-10.4738
明显	-10.475
个大	-10.4762
于连用	-10.4765
的妻子	-10.4766
的衣服	-10.4768
跟前	-10.478
但我	-10.4782
一个小	-10.4788
是谁	-10.4788
的工作	-10.4795
父亲的	-10.4797
我的话	-10.4798
段	-10.4799
在这种	-10.48
见解	-10.4805
的怀里	-10.4807
会对我	-10.4811
一件事	-10.4814
的决定	-10.4819
▁这次	-10.4822
光彩	-10.4823
▁时候	-10.4825
▁当晚	-10.4826
于连听见	-10.4839
爱你	-10.485
类	-10.4868
犯下	-10.4869
的成功	-10.4874
不爱	-10.4875
而您	-10.4882
阴	-10.4883
职责	-10.4886
有一点	-10.4887
弗	-10.4899
齐	-10.4899
的语	-10.49
派人	-10.4904
代理检察长	-10.4906
回头	-10.4918
于连正	-10.4924
的忧郁	-10.4927
跟她	-10.493
看守人	-10.4943
瞧瞧	-10.4944
因为在	-10.4945
有罪	-10.4968
她就	-10.4973
玛斯隆	-10.4984
仪表	-10.499
婚礼	-10.4993
高大	-10.4996
顶点	-10.4997
▁手	-10.5
过他	-10.5009
您去	-10.5016
特殊	-10.5017
的钟声	-10.5021
发疯	-10.5023
他与	-10.5027
答复	-10.5033
不了解	-10.504
的蔑视	-10.5043
不时	-10.5044
细节	-10.505
得救	-10.5059
的疯狂	-10.5059
辱	-10.5059
是怎样	-10.5062
的对比	-10.5071
一点也不	-10.5078
和他的	-10.5082
很容易	-10.5084
▁睛	-10.5086
起来的	-10.509
贫困的	-10.5092
街上	-10.5095
会被	-10.5103
地想	-10.5106
离开维鲤叶	-10.5113
老板	-10.5124
了两	-10.5129
问到	-10.5132
说一句话	-10.5134
主宰	-10.5134
扰乱	-10.5143
我必须	-10.5146
也被	-10.5148
高尚的	-10.5154
▁儿子	-10.5156
使用	-10.5169
不过是个	-10.5172
太太	-10.5175
耀	-10.5176
有力	-10.5178
斗争	-10.5181
主人的	-10.5181
剧	-10.5182
市	-10.5187
达到了	-10.5188
灯光	-10.5189
残酷	-10.5189
色的	-10.5191
舞会上	-10.5195
凝视着	-10.5207
您看	-10.5209
好心	-10.5217
▁长	-10.5225
都在	-10.5226
是由	-10.5234
意思	-10.5235
您对我	-10.5249
这跟	-10.5252
的习惯	-10.5253
那封	-10.5255
的事件	-10.5256
悔	-10.526
法郎	-10.5261
愿望	-10.5261
的爱	-10.5262
乡间	-10.5263
提出了	-10.5264
清晰	-10.5265
一个星期	-10.5265
▁最	-10.5268
避免	-10.5269
慈	-10.527
示	-10.5271
险	-10.5276
严酷	-10.5276
从维鲤叶	-10.5277
忽	-10.528
笨	-10.5282
天知道	-10.5282
孔	-10.5283
责任感	-10.5287
讲究	-10.5288
制造	-10.5289
诚	-10.529
斗	-10.5291
傲	-10.5296
中去	-10.5297
围墙	-10.5299
这番	-10.5303
敲响	-10.5303
受了	-10.5304
到的	-10.5304
她要	-10.5307
躲	-10.5311
快点	-10.5311
午餐	-10.5311
主意	-10.5312
去过	-10.5314
不见	-10.532
恐怖	-10.5323
沉浸在	-10.5334
良	-10.5339
气恼	-10.534
积蓄	-10.5343
动了	-10.5344
接下来	-10.5347
实现	-10.5351
荣	-10.5355
貌	-10.5358
走廊里	-10.5361
薪金	-10.5362
里的	-10.5363
满足	-10.5366
尊	-10.5371
发生的	-10.5379
太大	-10.538
视作	-10.5383
走进来	-10.5396
舞会	-10.54
预料	-10.5401
陷	-10.5411
朴素	-10.5412
▁对于	-10.5413
她把	-10.5415
脸红	-10.5423
痛苦的	-10.5425
▁大家	-10.543
恋爱	-10.5434
它们的	-10.5435
▁书	-10.5436
十二	-10.5436
就不会	-10.5439
确	-10.5443
坦白	-10.5443
激情	-10.5446
▁来的	-10.545
▁法郎	-10.5457
的长	-10.5465
能有	-10.5468
在她的	-10.5472
不想	-10.5475
陪审团的	-10.5475
的阴谋	-10.5477
拥抱	-10.5483
▁在于连	-10.5486
街	-10.5486
升	-10.5495
陌生人	-10.5499
他只有	-10.5509
华丽	-10.551
乡下	-10.5512
句子	-10.5519
的空气	-10.5521
有许多	-10.5537
宴会	-10.5538
才好	-10.5539
分钟	-10.554
因为你	-10.555
项	-10.5554
争论	-10.5557
高兴得	-10.5559
%	-10.5561
注视着他	-10.5561
很重	-10.557
你去	-10.5571
还给我	-10.5572
余	-10.5575
究竟	-10.5575
▁(	-10.5581
惩罚	-10.5583
我没有	-10.5584
气愤	-10.5587
在神学院	-10.5591
大门	-10.5591
听出	-10.5591
看作是	-10.5592
些时候	-10.5593
面孔	-10.5597
米	-10.5602
员	-10.5604
阶层	-10.5606
的美	-10.5606
个月	-10.5608
宫	-10.5611
农	-10.5617
无论如何	-10.5617
人说道	-10.5618
看着	-10.562
伟	-10.5622
赞叹	-10.5622
在您	-10.5625
没法	-10.5627
很轻	-10.563
分开	-10.5631
神色	-10.5634
足以	-10.5635
城堡	-10.5636
毁了	-10.5638
控制	-10.5638
又说	-10.5638
盯着	-10.5639
绕	-10.5643
护	-10.5649
碰到	-10.5649
严	-10.565
▁眼	-10.5652
绿	-10.566
跟着	-10.5662
问起	-10.5665
驿车	-10.5666
衣裳	-10.5669
是我的	-10.567
寡妇	-10.5672
▁那样	-10.5676
天蓝色	-10.5676
消磨	-10.5677
庄严	-10.5677
信中	-10.568
打听	-10.5682
自负	-10.5682
▁年轻	-10.5684
不在乎	-10.5684
本领	-10.5686
革命	-10.5687
焦急	-10.5687
决不会	-10.569
吃晚饭的时候	-10.569
玛蒂尔	-10.5694
愤怒的	-10.5695
情景	-10.5695
楼梯	-10.5699
方向	-10.57
身子	-10.5702
被告	-10.5703
强迫	-10.5708
向自己说	-10.5709
前一天	-10.5711
的身份	-10.5716
并把	-10.5716
使得	-10.5718
递给	-10.572
迫	-10.572
在你	-10.5722
宠	-10.5728
试	-10.5729
枪	-10.573
加倍	-10.573
于连对她	-10.5733
胜	-10.5735
自个儿	-10.5736
的保护	-10.5741
搬	-10.5741
没有想到	-10.5742
充满着	-10.5743
台	-10.5743
很不	-10.5749
疏忽	-10.575
▁师	-10.5751
碰	-10.5753
女性	-10.5754
符合	-10.5754
▁现在	-10.5756
享用	-10.5756
扰	-10.5757
礼拜	-10.576
的日常	-10.5762
之所以	-10.5765
埋	-10.5766
的眼里	-10.5767
两三次	-10.5771
的说法	-10.5772
通红	-10.5774
暗中	-10.5776
闲	-10.5776
超	-10.5777
蓄	-10.5778
年金	-10.5778
押	-10.5779
发泄	-10.5779
借口	-10.5781
桌	-10.5781
勇	-10.5781
都得	-10.5782
热爱	-10.5782
贝尔	-10.5783
他突然	-10.5783
尼	-10.5783
陌生	-10.5784
漂	-10.5784
战争	-10.5785
佩	-10.5786
没有别的	-10.5787
在想	-10.5788
主持	-10.5789
以为是	-10.5791
慌	-10.5791
偏	-10.5793
喜悦	-10.5793
币	-10.5794
教养	-10.5795
杯	-10.5796
瓶	-10.5797
爵位	-10.5798
看不到	-10.5798
祖	-10.5799
军队	-10.5799
绞死	-10.58
束	-10.58
素	-10.5801
背书	-10.5801
愤	-10.5802
足够	-10.5802
这段	-10.5803
琐	-10.5803
那间	-10.5804
箱	-10.5804
甜	-10.5804
这封	-10.5805
越过	-10.5806
轮	-10.5806
玩	-10.5806
佣	-10.5807
妥	-10.5807
默默	-10.5807
违	-10.5807
皇	-10.5808
简	-10.5809
雅各宾党	-10.581
不慎	-10.581
信仰	-10.581
恰	-10.5812
库	-10.5812
耶稣	-10.5813
局	-10.5813
防	-10.5815
衷	-10.5816
聘请	-10.5816
瞪	-10.5816
第一个	-10.5816
院子	-10.5816
领导	-10.5816
丑	-10.5817
残	-10.5817
沿	-10.5817
订	-10.5818
伴	-10.5819
爱的	-10.5819
妄	-10.5819
妹	-10.582
培养	-10.582
陈	-10.582
上断头台	-10.582
言谈	-10.5821
婚姻	-10.5822
卡斯塔内德	-10.5822
骨	-10.5823
赠	-10.5823
灯	-10.5824
秘	-10.5824
兴高采烈	-10.5824
亡	-10.5824
惧	-10.5824
科	-10.5825
埃	-10.5825
撞	-10.5825
擦	-10.5825
任命	-10.5825
眉	-10.5825
脑子	-10.5825
管理	-10.5825
鼻	-10.5826
楚	-10.5826
授	-10.5826
蔑	-10.5826
包括	-10.5826
薄	-10.5826
策	-10.5826
弹	-10.5826
的真实	-10.5827
清晨	-10.5827
唇	-10.5828
释	-10.5828
际	-10.5828
逐	-10.5828
词儿	-10.5828
鬼	-10.5828
哲学	-10.5828
净	-10.5828
阅	-10.5828
漫	-10.5828
辩	-10.5828
纵	-10.5828
役	-10.5828
攀	-10.5829
惑	-10.5829
怨	-10.5829
沮丧	-10.5829
统	-10.5829
繁	-10.5829
印	-10.5829
奋	-10.5829
岩	-10.5829
趁	-10.5829
测	-10.583
遗产	-10.583
扉	-10.583
指定	-10.583
乏	-10.583
焦	-10.583
班	-10.583
祭台	-10.583
撤	-10.583
七点钟	-10.583
枝	-10.583
卫	-10.583
覆	-10.583
剑	-10.583
捉	-10.583
祝	-10.583
吹	-10.583
粉	-10.583
喧	-10.583
曼	-10.583
森	-10.583
敏锐	-10.583
货	-10.583
辣	-10.5831
撒	-10.5831
检	-10.5831
妖	-10.5831
熄灭	-10.5831
虔	-10.5831
羊	-10.5831
撤职	-10.5831
痛风病	-10.5831
狡	-10.5831
医生	-10.5831
缝	-10.5831
裂	-10.5831
型	-10.5831
锯机	-10.5831
牙	-10.5831
丛	-10.5831
索雷尔	-10.5831
猥	-10.5831
的地址	-10.5831
肤	-10.5831
垮	-10.5831
夏泽尔	-10.5831
幼稚的	-10.5831
的愉快	-10.5831
睁	-10.5831
税务官	-10.5831
肺	-10.5831
腐	-10.5831
危害	-10.5831
袜子	-10.5831
踩	-10.5831
亨利三世	-10.5831
他们俩	-10.5831
抚	-10.5831
教养有素	-10.5831
汇报	-10.5831
津津有味	-10.5831
烦忧	-10.5831
精神失常	-10.5831
膝	-10.5831
茀乐煦	-10.5831
鞠	-10.5831
蹙	-10.5831
之辈	-10.5831
人皆知	-10.5831
俄国	-10.5831
傍晚	-10.5831
弥补	-10.5831
心不在焉	-10.5831
忖	-10.5831
戈	-10.5831
搜	-10.5831
旨	-10.5831
枯	-10.5831
的一举一动	-10.5831
的房屋	-10.5831
一言不发	-10.5831
伙计	-10.5831
侄儿	-10.5831
填	-10.5831
外科大夫	-10.5831
夸奖	-10.5831
寻觅	-10.5831
扫	-10.5831
描述	-10.5831
无动于衷	-10.5831
潇洒	-10.5831
烟消云散	-10.5831
狱吏	-10.5831
睁开眼睛	-10.5831
硕	-10.5831
科科纳索	-10.5831
绵	-10.5831
哑	-10.5831
妩媚	-10.5831
希腊	-10.5831
总而言之	-10.5831
掏	-10.5831
罗伯斯庇尔	-10.5831
茅	-10.5831
尖锐	-10.5831
侥幸	-10.5831
哼	-10.5831
大着胆子	-10.5831
摩	-10.5831
殿堂	-10.5831
邮戳	-10.5831
钦佩	-10.5831
割	-10.5831
圣赫勒拿岛	-10.5831
幼	-10.5831
必需的	-10.5831
手帕	-10.5831
构	-10.5831
玛格丽特	-10.5831
红衣主教	-10.5831
绮	-10.5831
置身于	-10.5831
教务会	-10.5831
汤	-10.5831
玉	-10.5831
监督	-10.5831
十四个月	-10.5831
厮守	-10.5831
欣喜若狂	-10.5831
攻击	-10.5831
痕迹	-10.5831
除此之外	-10.5831
▁丽莎	-10.5831
复杂	-10.5831
提出上诉	-10.5831
索黑尔老公公	-10.5831
振	-10.5831
胆怯	-10.5831
迫害	-10.5831
撒谎	-10.5831
他对玛蒂尔德说	-10.5831
监禁	-10.5831
祭披	-10.5831
配得上	-10.5831
疲劳	-10.5831
相互	-10.5831
专横	-10.5831
仇敌	-10.5831
树荫	-10.5831
贫民收容所所长	-10.5831
年老的	-10.5831
恰恰相反	-10.5831
复仇	-10.5831
跪在地上	-10.5831
降临	-10.5831
组织	-10.5831
果断	-10.5831
火焰殿	-10.5831
疑虑	-10.5831
挤满了	-10.5831
年薪	-10.5831
我命令你	-10.5832
奇迹	-10.5832
欢欣	-10.5832
表亲	-10.5832
颂歌	-10.5832
首席助理	-10.5832
保存	-10.5832
砍掉	-10.5832
六千法郎	-10.5832
手腕	-10.5832
短暂	-10.5832
讨人喜欢	-10.5832
放在心上	-10.5832
音乐学院	-10.5832
案件	-10.5832
草率	-10.5832
纠正	-10.5832
侍候	-10.5832
邻居	-10.5832
悲观	-10.5832
埃尔	-10.5832
恩典	-10.5832
老外科医生	-10.5832
冒险	-10.5832
无耻	-10.5832
的喊声	-10.5832
支蜡烛	-10.5832
老木匠	-10.5832
轻浮	-10.5832
索黑尔老头儿	-10.5832
一颗子弹	-10.5832
柱子	-10.5832
粗暴的	-10.5832
劝告	-10.5832
到了极点	-10.5832
打定主意	-10.5833
查理	-10.5833
二十分钟	-10.5833
缩短	-10.5833
藉此	-10.5833
巴朗先生	-10.5833
大亨	-10.5833
致敬	-10.5833
压制	-10.5833
觉察到	-10.5833
类似的	-10.5833
很深	-10.5833
客套	-10.5833
流泪	-10.5833
上校	-10.5833
关注	-10.5833
今夜	-10.5833
外貌	-10.5833
充分	-10.5833
布置	-10.5834
供应	-10.5834
文件	-10.5834
算计	-10.5834
转移	-10.5834
的苦难	-10.5834
维鲤叶的	-10.5834
工厂	-10.5834
我的死	-10.5834
傲气	-10.5834
在这个世界上	-10.5834
热泪	-10.5834
他相信自己	-10.5834
难免	-10.5834
高贵的出身	-10.5834
震惊	-10.5834
案子	-10.5834
餐厅里	-10.5835
城墙	-10.5835
体格	-10.5835
老百姓	-10.5835
一笔钱	-10.5835
理论	-10.5835
一方面	-10.5835
暴露	-10.5835
伤口	-10.5835
难以忍受	-10.5835
宠爱	-10.5835
具备	-10.5835
卖弄	-10.5835
直立	-10.5836
辞职书	-10.5836
整理	-10.5836
扬言	-10.5836
进展	-10.5836
三点钟	-10.5836
走了进来	-10.5836
北	-10.5836
开玩笑	-10.5836
破产	-10.5836
行列	-10.5836
形式	-10.5836
反而更加	-10.5836
华美	-10.5837
什么两样	-10.5837
撞见	-10.5837
颗脑袋	-10.5837
假装	-10.5837
双方	-10.5837
卡斯塔内德神父	-10.5837
卓越	-10.5837
热望	-10.5837
施行	-10.5837
某位	-10.5837
承受	-10.5837
接连	-10.5837
黑夜	-10.5837
这种事	-10.5838
设法	-10.5838
占有	-10.5838
重要的是	-10.5838
在我看来	-10.5838
我一定得	-10.5838
演出	-10.5838
五次	-10.5838
自思道	-10.5839
以至	-10.5839
外交	-10.5839
街心	-10.5839
原本	-10.5839
凶恶	-10.5839
冉森派教士	-10.5839
死掉	-10.5839
三十年	-10.584
往外	-10.584
的地产	-10.584
步远	-10.584
的婚姻	-10.584
提醒您	-10.584
躺在	-10.584
说不定	-10.5841
骑上	-10.5841
穿戴	-10.5841
这件事的	-10.5841
洋洋得意	-10.5841
全部财产	-10.5841
偏偏	-10.5841
这双眼睛	-10.5841
法语	-10.5842
原先	-10.5842
将军	-10.5842
闹得	-10.5842
走运	-10.5842
卖掉	-10.5842
又有	-10.5842
买来的	-10.5843
歌唱家	-10.5843
至多	-10.5843
离开这儿	-10.5843
目前	-10.5844
算得上	-10.5844
叫喊	-10.5844
令人厌倦	-10.5844
衷心	-10.5844
整日	-10.5845
立身	-10.5845
夺去了	-10.5845
证人	-10.5845
一路上	-10.5845
置于	-10.5846
嚷道	-10.5846
不得已	-10.5846
逼得	-10.5847
雷纳耳先	-10.5847
取笑	-10.5847
同行	-10.5847
的光芒	-10.5847
维护	-10.5847
私下	-10.5847
非得	-10.5847
过程	-10.5847
这是怎么回事	-10.5847
室里	-10.5848
向他提出	-10.5848
大声嚷道	-10.5848
影子	-10.5848
体面	-10.5848
停住了	-10.5849
被迫	-10.5849
给了我	-10.5849
博得	-10.585
所具有的	-10.585
带点	-10.585
皱眉	-10.585
抄写	-10.585
在他身上	-10.5851
脸上流露出	-10.5851
指给我	-10.5852
到巴黎去	-10.5853
面色	-10.5853
不舒服	-10.5854
还不够	-10.5854
转向	-10.5854
做不到	-10.5854
违背	-10.5855
的房子里	-10.5855
对丈夫的	-10.5855
所有人	-10.5856
动不动	-10.5856
恶心	-10.5856
有多么	-10.5857
不宁	-10.5857
和他说话	-10.5857
说过话	-10.5857
转动	-10.5858
生动	-10.5858
当众	-10.5858
面目	-10.5859
相见	-10.5859
这位院士	-10.5859
有几位	-10.586
便服	-10.586
琐碎	-10.586
重重	-10.5861
不时地	-10.5861
什么时候	-10.5862
感到高兴	-10.5862
有什么关系	-10.5863
生怕	-10.5864
王后	-10.5864
贵族院议员	-10.5864
一辆	-10.5864
落入	-10.5864
呆上	-10.5865
肩膀	-10.5865
停止了	-10.5865
都不	-10.5865
果然	-10.5866
这位教士	-10.5866
五万法郎	-10.5866
维尔	-10.5866
文明	-10.5868
每个人都	-10.5868
五六个	-10.5868
谢阆牧师	-10.5868
看成	-10.5869
我就完了	-10.5869
这种心情	-10.587
过往	-10.587
过度	-10.5871
有一点儿	-10.5871
漂亮的小	-10.5871
这个人就是	-10.5872
长相	-10.5872
当作	-10.5872
发狂	-10.5873
沉醉在	-10.5873
很高兴	-10.5874
没有勇气	-10.5874
坦率地	-10.5874
犯人	-10.5875
不懂	-10.5875
而引起的	-10.5875
那一头	-10.5876
信函	-10.5876
错处	-10.5876
要么	-10.5877
我应当	-10.5877
贴在	-10.5877
得太	-10.5878
他们两人	-10.5878
懂得了	-10.588
你一定	-10.5881
客厅里的	-10.5882
到了维鲤叶	-10.5884
大厅里	-10.5884
一体	-10.5885
当儿	-10.5886
并无	-10.5887
和情人	-10.5887
惹他	-10.5888
揪住	-10.5888
而我却	-10.5889
迫使	-10.5889
祖先	-10.5889
甜蜜的	-10.5889
三个	-10.589
无疑是	-10.589
吃饭时	-10.5891
随时	-10.5893
来客	-10.5895
有两三次	-10.5895
愚蠢地	-10.5896
展开	-10.5897
适当	-10.5898
的宝	-10.5898
被介绍给	-10.5899
可以肯定	-10.59
了几句	-10.59
冷静地	-10.59
她坚持	-10.5901
有一座	-10.5903
和解	-10.5903
于连暗想	-10.5903
世人	-10.5904
床上	-10.5904
不谨慎	-10.5905
追求的	-10.5905
你的丈夫	-10.5906
那一	-10.5908
肯定会	-10.5908
那仆人	-10.591
因为这	-10.591
我为你	-10.5912
不幸的是	-10.5913
您就可以	-10.5914
是靠	-10.5915
道理	-10.5915
跑进	-10.5916
便开始	-10.5916
不存在	-10.5917
拉莫尔小姐说道	-10.5918
无能	-10.5922
变成了一个	-10.5926
这个想法	-10.5926
所说的	-10.5927
露出了	-10.5927
方便	-10.5928
我给你	-10.5929
顶上	-10.5931
乐意	-10.5934
幸而	-10.5936
的头发	-10.5939
跟那个	-10.594
枚勋章	-10.5941
您在这儿	-10.5942
把他从	-10.5942
就在这	-10.5943
那个仆人	-10.5944
我不是	-10.5945
不对	-10.5947
发脾气	-10.595
她的美丽	-10.595
选中	-10.5952
在门口	-10.5954
这个不幸的	-10.5954
所爱	-10.5955
代理	-10.5955
滚蛋	-10.5955
这倒是	-10.5955
那时我	-10.5956
后者	-10.5957
说服	-10.5961
写给	-10.5961
不清	-10.5964
很少	-10.5965
谛听	-10.5966
的注意力	-10.5967
一个年轻人	-10.5967
而言	-10.5967
拉过	-10.5968
一把椅子	-10.5969
相对	-10.5969
不信	-10.5972
▁黑尔	-10.5976
一丝	-10.598
就成了	-10.598
人家说	-10.5981
使他很	-10.5981
留下来	-10.5983
令他	-10.5983
十岁	-10.5983
只得	-10.5984
有一件事	-10.5984
专心	-10.5987
的热狂	-10.5987
喊叫	-10.5992
把他的	-10.5993
你知道	-10.5994
黑衣裳	-10.5995
的严	-10.5997
她爱我	-10.5997
得很好	-10.5998
出口	-10.6004
是最	-10.6005
小偷	-10.6009
她来说	-10.6009
▁己的	-10.6011
最后的	-10.6011
巴黎来的	-10.6016
时分	-10.6017
大主教	-10.6017
一头	-10.6018
的街道	-10.6019
在花园	-10.6019
心中想道	-10.602
声响	-10.6022
但是他觉得	-10.6022
死于	-10.6022
求求	-10.6023
认出了	-10.6023
我决不会	-10.6025
的同学	-10.6026
结果是	-10.6028
遣	-10.6029
养成	-10.603
捧着	-10.603
甘	-10.6032
他的胳膊	-10.6032
卖给	-10.6036
动情	-10.6036
办了	-10.6038
告诉她	-10.6039
形成了	-10.6039
当上了	-10.604
没想到	-10.604
▁誉	-10.6041
在为	-10.6042
都能	-10.6043
▁起初	-10.6043
确切的	-10.6046
为了不	-10.6047
竟使他	-10.6048
无论如何也	-10.6051
发作	-10.6051
发生了	-10.6052
来日	-10.6052
还是那样	-10.6054
我要去	-10.6056
又能	-10.606
请允许我	-10.6064
他家	-10.6066
寻求	-10.6066
她心想	-10.6067
▁神	-10.6072
他刚	-10.6073
多么不同啊	-10.6075
在他面前	-10.6079
的崇高	-10.6081
他气得	-10.6085
又那么	-10.6085
地看着	-10.6086
在身边	-10.6089
的高	-10.6094
头脑里	-10.6095
这一次	-10.6101
设想	-10.6102
持有	-10.6103
后的	-10.6105
雷纳耳先生说道	-10.6106
一个月	-10.6106
请求您	-10.6108
我一定会	-10.6111
蠢事	-10.6114
接着又	-10.6117
的想象中	-10.6117
哥哥	-10.6118
紧紧搂在	-10.612
花园的	-10.6121
还有点	-10.6123
的舞会	-10.6125
的卧房里	-10.6126
有一些	-10.6127
交给了	-10.6132
重视	-10.6139
的人群	-10.614
经历过	-10.614
该死的	-10.6142
天真的	-10.6145
地点	-10.6145
至今	-10.6149
我唯一的	-10.615
的情怀	-10.6155
▁说道	-10.6156
那些小	-10.6158
的眼泪	-10.6159
应该承认	-10.6162
十九	-10.6165
怎样才能	-10.617
▁该	-10.6171
......“	-10.6175
不相	-10.6176
就立刻	-10.6177
▁图	-10.6178
天生	-10.6178
▁午	-10.6179
▁他把	-10.618
对他来说	-10.6182
而出	-10.6185
盘问	-10.6185
我发现	-10.6191
的卧室里	-10.6193
丑恶	-10.6193
的理由	-10.6196
的著作	-10.6202
不算	-10.6206
在维尔吉	-10.6207
我该	-10.6211
法国最	-10.6212
我再	-10.6214
来临	-10.6218
▁虽然	-10.6218
付出	-10.622
来着	-10.6224
时节	-10.6224
了片刻	-10.6226
般的	-10.6228
不去	-10.6232
饶恕我	-10.6234
从事	-10.6234
的地步	-10.6235
他仍然	-10.6239
不在	-10.6239
当中	-10.6245
最好的	-10.6247
好啊	-10.6248
大吃一惊	-10.6249
望着于连	-10.6249
你不	-10.6252
罪过	-10.6253
了一会儿	-10.6253
感到惊奇	-10.6256
拿着	-10.6256
要想	-10.6257
那位先生	-10.6259
都知道	-10.6264
▁哭	-10.6265
马上把	-10.6271
▁内	-10.6274
往后	-10.6279
会有什么	-10.6281
中心	-10.6285
馆	-10.6287
奇异	-10.6289
多问	-10.629
更是	-10.6293
她不能	-10.6296
他的目光	-10.6301
这一下	-10.6306
信徒	-10.6318
的主意	-10.6318
于连曾	-10.6319
就已经	-10.6323
平民	-10.6323
▁好	-10.6331
好好	-10.6335
下的	-10.6339
细小的	-10.6339
你们的	-10.6339
尤其	-10.6342
他挑选	-10.6352
的尊敬	-10.6353
向前走	-10.6354
几步	-10.6354
行的	-10.6355
胆大	-10.6358
的礼貌	-10.6358
不放	-10.6359
很快的	-10.636
见到于连	-10.6364
在英国	-10.6365
用在	-10.6367
的那个小	-10.6369
神学士	-10.6372
采用	-10.6375
明了	-10.6381
是残酷的	-10.6383
果	-10.6383
下去了	-10.6384
送他	-10.6386
水平	-10.6388
的心意	-10.6391
一个可怜的	-10.6391
▁明	-10.6397
我喜欢	-10.6399
的内心	-10.6399
的场合	-10.6408
的恐惧	-10.6409
▁拜	-10.6413
这天	-10.6415
把皮拉尔神父	-10.6421
和皮拉尔神父	-10.6421
拜祭	-10.6422
拉丁文的	-10.6424
品德	-10.6427
已不	-10.6429
是公正的	-10.643
不上	-10.6434
是属于	-10.6437
她所	-10.6439
亲	-10.6439
壑	-10.644
我没	-10.6441
她不敢	-10.6444
这不是	-10.6445
不明白	-10.6446
他毫不	-10.6447
阴谋家	-10.6449
的头脑	-10.6463
极大的	-10.6466
他打算	-10.6469
每一个	-10.6472
传来	-10.6472
逃走	-10.6476
▁第二天一	-10.6478
发问	-10.6484
买了	-10.6485
▁重的	-10.6487
人类的	-10.6505
长的	-10.6511
▁响	-10.6519
的斗争	-10.6526
心魂	-10.653
过去的	-10.6532
得了	-10.6537
的妇人	-10.6539
情夫的	-10.6543
邪恶	-10.6552
这是真的	-10.6554
▁念	-10.6565
的衣	-10.6566
的外表	-10.6573
意乱	-10.6575
听说	-10.6577
一个念头	-10.6587
著名	-10.6588
尊敬的	-10.6594
的圣	-10.6596
不高兴	-10.66
允许他	-10.6607
对面	-10.661
▁片	-10.6613
那么漂亮	-10.6614
他感	-10.6618
肩	-10.662
深沉	-10.662
一般人	-10.663
来时	-10.6633
有人在	-10.6634
▁问	-10.6643
得目瞪口呆	-10.6643
多次	-10.6649
不便	-10.6652
和福盖	-10.6654
而且在	-10.6656
承认了	-10.6658
雷纳耳夫人没有	-10.666
有力的	-10.666
层楼	-10.666
一个年轻的	-10.6664
▁几	-10.667
某个	-10.6674
你愿意	-10.6683
使我们	-10.6685
但于连	-10.6687
心爱的	-10.669
的决心	-10.6694
流下	-10.6698
不了	-10.6699
写下了	-10.6703
于他	-10.6706
小心	-10.6708
用了	-10.6709
我认为	-10.671
▁做	-10.6717
根本没有	-10.672
▁运	-10.6721
假如他	-10.6727
模糊	-10.6729
看她	-10.6735
雷纳耳夫人也	-10.6736
感到不快	-10.6737
丝毫不	-10.6738
会怎样	-10.6741
的气	-10.6746
稳	-10.6746
好像是	-10.6748
你丈夫	-10.6751
存在着	-10.6756
▁福	-10.6765
去看	-10.6769
的狂喜	-10.6772
的要求	-10.6775
他的灵魂	-10.6775
地问道	-10.678
到他	-10.6781
的突然	-10.6785
才干	-10.6787
默	-10.6789
曾是	-10.6794
▁才	-10.6798
的骄傲	-10.6799
的是一个	-10.6803
在内	-10.6804
的进步	-10.6805
我在这儿	-10.6807
退了	-10.6808
这位年轻的	-10.681
会用	-10.6813
跟在	-10.6814
他似乎	-10.6821
一向	-10.6822
▁可能	-10.6824
整齐	-10.6831
而去	-10.6833
至于我	-10.6833
的忠诚	-10.6833
▁男爵	-10.6835
大名鼎鼎的	-10.6842
哭	-10.6843
您要	-10.6854
不允许	-10.6854
和一个	-10.6856
他这份	-10.6864
抓住了	-10.6864
求你	-10.6873
于连还	-10.6873
不能再	-10.6889
的自由	-10.6896
看上去	-10.6896
诺贝尔先生	-10.6897
他真的	-10.6899
罪行的	-10.6904
闪烁着	-10.6905
全城	-10.6906
工业	-10.6908
伤感	-10.6922
有二十	-10.6925
粗俗的	-10.6929
骤	-10.6933
的敌人	-10.6933
句话	-10.6934
▁冷	-10.6938
同一	-10.6939
窗	-10.694
的婚礼	-10.6943
有三	-10.6945
深深的	-10.6949
趁机	-10.6956
不合适	-10.6957
的动作	-10.6957
着的	-10.696
远远地	-10.6962
他注意到	-10.6964
那里面	-10.6966
不是一个	-10.6979
▁于连已经	-10.699
从而	-10.6993
做成	-10.6999
前程	-10.7001
而要	-10.7009
绝不是	-10.7017
爱他	-10.7027
让它	-10.7028
不公正	-10.7033
在客厅里	-10.7034
而且他	-10.7035
大笑	-10.7038
三年	-10.7039
▁小姐	-10.7048
带有	-10.705
这也	-10.7051
的自由党人	-10.7053
那些精明	-10.7056
千万别	-10.7063
▁松	-10.7067
您说	-10.7068
▁匿名信	-10.7078
》。”	-10.708
园子	-10.7086
的窗户	-10.7087
他可能	-10.7087
要是您	-10.7094
就把	-10.7104
她对他的	-10.7104
见了	-10.7108
满了	-10.7115
大发	-10.712
我的于连	-10.7125
几个钱	-10.7125
侯爵的	-10.713
怀里	-10.7141
可以把	-10.7151
社交	-10.7157
是因为我的	-10.7172
从这	-10.7175
一双	-10.7182
活着	-10.7182
和瓦尔诺先生	-10.7183
▁象	-10.7193
又说道	-10.7194
我忘了	-10.7196
诚实的	-10.7201
虑	-10.7201
▁守	-10.721
牢房里	-10.7221
的罪过	-10.7227
要知道	-10.723
头衔	-10.723
小小	-10.7237
望着她	-10.7264
过一次	-10.7266
说出来	-10.7266
▁都会	-10.7274
战役	-10.7277
应该让	-10.728
真诚	-10.7281
被她	-10.7284
的人了	-10.7287
奇异的	-10.7291
的新奇	-10.7293
本地人	-10.7294
他几乎	-10.73
钱给	-10.7314
背上	-10.7317
脚下	-10.7319
跟在后	-10.732
▁用	-10.7331
姑娘们	-10.7336
顾	-10.7337
▁告	-10.7337
看到你	-10.734
最富有	-10.7342
的障碍	-10.7343
▁阿芒达	-10.7344
推进	-10.7345
神学院的	-10.7358
▁们的	-10.7369
地对	-10.7376
很好的	-10.7376
所能	-10.7378
▁可以	-10.7381
尽快	-10.7385
君	-10.7385
他更	-10.7389
尺	-10.7395
认为自己	-10.7396
分外	-10.7399
会使我	-10.74
他太	-10.7411
▁假如	-10.7418
回答着	-10.742
他身边	-10.7436
要到	-10.744
留着	-10.7443
为了使	-10.7443
的战役	-10.7445
▁别	-10.7446
染	-10.7447
必定	-10.7451
在拉	-10.7453
讲起	-10.7456
谈的	-10.7461
主塔楼	-10.7465
发的	-10.7465
▁命	-10.7465
凡	-10.7472
却不	-10.7476
的梦幻	-10.7478
停留	-10.7485
已经有	-10.7487
唇边	-10.749
所得的	-10.7493
趣味	-10.7494
进入	-10.7499
她还	-10.7502
诚实	-10.7525
▁为他	-10.7529
福盖的	-10.7538
是想	-10.7539
▁幸运	-10.7545
要去	-10.755
▁此时	-10.7561
的精神	-10.7562
他能够	-10.7563
我来	-10.7568
私心	-10.7568
能像	-10.7568
功课	-10.7569
就是在	-10.7572
宁静的	-10.7583
中有	-10.7594
有用	-10.7594
只是在	-10.76
忍不住	-10.7601
女人的	-10.7609
▁思	-10.7612
因此她	-10.7618
的那些人	-10.7626
▁不到	-10.7636
的情形	-10.7637
折磨	-10.7645
还想	-10.7647
你怎么	-10.7647
教他	-10.7649
又在	-10.7649
上楼	-10.766
有两个	-10.7664
不曾	-10.7681
方面的	-10.7687
英雄的	-10.7689
于连看到	-10.769
爱着	-10.7692
牺牲了	-10.7694
朝向	-10.7696
附	-10.7696
串	-10.7701
快走	-10.7707
可以使	-10.7707
的情	-10.7713
我了解	-10.7721
职务	-10.7725
苔维尔夫	-10.7726
▁国王	-10.7727
的舆论	-10.773
另外	-10.7736
他不能	-10.7742
他想到了	-10.7747
公爵的	-10.7756
的家庭教师	-10.7757
一扇	-10.776
是无法	-10.776
因此而	-10.7789
她发现	-10.7791
重大	-10.7798
▁人说	-10.7822
二十法郎	-10.7823
这股	-10.7829
五六	-10.7831
前天	-10.7831
▁很快	-10.7841
名门子	-10.7847
客店里	-10.7851
有用的	-10.7852
孩	-10.7858
的声调	-10.7867
仿佛在	-10.7867
我的生命	-10.7873
这是我的	-10.7878
▁件	-10.7878
小孩	-10.7878
正人君子	-10.7882
公众的	-10.7885
她向她	-10.7888
就不	-10.7891
她没有	-10.7893
畏惧	-10.7894
文章	-10.7894
程度	-10.7895
几封	-10.7903
发达	-10.7914
仪	-10.7948
甚至还	-10.795
过我	-10.7959
进步	-10.7962
应该说	-10.7963
夜里	-10.7965
▁尔德	-10.7982
一定要	-10.7986
她看见	-10.7988
他刚刚	-10.8008
她说道	-10.8008
狂喜	-10.801
府邸	-10.8011
▁强	-10.8016
▁式	-10.8026
只有在	-10.8031
考试	-10.8035
坚持	-10.8035
出去了	-10.8035
中最	-10.8041
尽管他	-10.8043
十一	-10.8046
来的时候	-10.8051
的青年	-10.8051
阿格德	-10.806
不把	-10.8061
很久	-10.8063
也在	-10.8073
先生们	-10.8076
通常	-10.808
心的	-10.8082
再也不	-10.8083
我一定	-10.8092
人所	-10.8096
女仆	-10.8098
却发现	-10.8099
身材高大	-10.8104
胆	-10.8108
▁女	-10.8113
绝不会	-10.8119
的话来	-10.8128
高傲的	-10.8131
他有一	-10.8135
把你的	-10.814
听了	-10.814
▁金	-10.8149
想不到	-10.815
寂静	-10.8154
他心情	-10.8156
旅店	-10.8157
不过这是	-10.8159
例子	-10.8163
再过	-10.817
她心	-10.8177
重复说	-10.8178
那么多	-10.8186
杀人	-10.8186
可不	-10.8192
灰	-10.8192
它的	-10.8205
否则我	-10.8205
倒下	-10.8207
▁他用	-10.821
回答他	-10.8216
就被	-10.8221
诡	-10.8224
你应该	-10.8225
走进维鲤叶	-10.8228
你不要	-10.8229
人把	-10.823
人们还	-10.8234
深厚	-10.8234
把这	-10.8236
文雅	-10.8237
皮拉尔神父的	-10.8241
节日	-10.8243
名的	-10.8248
心肠	-10.8249
那么他	-10.8257
而你	-10.8259
通报	-10.8274
还不如	-10.8274
我对你	-10.8279
并且还	-10.8279
增长	-10.8279
你为什么	-10.8279
她的话	-10.8281
怯懦	-10.8293
贺拉斯	-10.8296
里去了	-10.83
拖	-10.83
是由于	-10.8301
代表	-10.8313
三四	-10.8317
▁的眼睛	-10.832
好几个	-10.832
▁决定	-10.832
的真正	-10.8321
侯爵夫人的	-10.8324
会是	-10.8333
生来就	-10.8336
欢心	-10.8337
的活动	-10.8339
内容	-10.8341
发现她	-10.8347
听到了	-10.8347
臂	-10.8355
当晚	-10.8357
青年牧师	-10.8366
说不出	-10.8366
穿黑	-10.837
木匠	-10.8384
良心	-10.8392
幸运的	-10.84
健康	-10.8401
猎	-10.8405
不说	-10.8412
绝了	-10.8418
他并不	-10.8419
人说	-10.8426
里所有的	-10.8436
▁难道	-10.8437
更有	-10.8439
方式	-10.8441
信心	-10.8446
新奇的	-10.8446
一通	-10.8455
告诉于连	-10.846
心灵	-10.846
▁郎	-10.8461
迫切	-10.8462
扔	-10.8463
的面	-10.8469
游人	-10.8469
俏皮话	-10.8471
责任	-10.8471
挑选	-10.8484
店	-10.849
着自己	-10.8491
快乐的	-10.8496
趣	-10.8503
那件	-10.8505
容貌	-10.8508
▁当她	-10.8512
她自	-10.8513
的机器	-10.8517
最后一次	-10.8519
出什么	-10.852
认识他	-10.8524
列	-10.8525
凝视	-10.8527
滑	-10.8529
副	-10.8531
我和	-10.8533
就此	-10.8538
脑子里	-10.8547
和于连的	-10.8547
是爱丽莎	-10.8547
总会	-10.8549
一个个	-10.8554
她的目光	-10.8556
的信徒	-10.8557
落下来	-10.856
还能	-10.8561
地回答	-10.8561
也许她	-10.8564
最小的	-10.8564
众人的	-10.8569
了自己	-10.8572
天上午	-10.8572
账	-10.8573
取得	-10.8579
告别	-10.8581
境	-10.8581
的模样	-10.8582
一间	-10.859
愤慨	-10.859
著	-10.859
寄来	-10.8591
白色	-10.8591
室	-10.8594
向侯爵	-10.8595
硬	-10.8595
谈吐	-10.8598
午	-10.8601
产生的	-10.8606
的房间里	-10.861
发展	-10.8612
一个坏	-10.8615
美好	-10.8615
▁第三	-10.8615
径	-10.8617
哥	-10.8619
挥	-10.862
系	-10.862
都是些	-10.8621
季	-10.8621
谷	-10.8622
频	-10.8622
整天	-10.8625
过去了	-10.8625
聊天	-10.8627
慢	-10.8629
胡桃树	-10.8634
压低声音	-10.8637
不容	-10.8641
过了一会儿	-10.8642
人们在	-10.8643
著作	-10.8646
图	-10.8647
十点钟	-10.8652
法庭	-10.8654
背后	-10.8661
都没有	-10.8664
▁场	-10.8665
的丈	-10.8671
律	-10.8674
百里	-10.8674
道路	-10.8678
的原因	-10.868
于世	-10.8682
对您的	-10.8683
能见到	-10.8684
了一番	-10.8686
听从	-10.8686
感谢上苍	-10.8706
效	-10.871
土地	-10.8712
一个傻瓜	-10.8714
在这场	-10.8716
这个念头	-10.8718
那身	-10.8718
看到的	-10.872
上面的	-10.8721
从来不	-10.8724
男子	-10.8724
匆忙	-10.8725
于连很	-10.8733
禁止	-10.8733
她为	-10.8734
得多了	-10.8735
窘迫的	-10.8744
雅致	-10.8744
持	-10.8746
跑去	-10.8757
开去	-10.8758
在此	-10.876
由他	-10.8762
离开这里	-10.8764
迟	-10.8767
阳光	-10.8771
空中	-10.8782
犯了	-10.8784
机器的	-10.8788
人类	-10.8789
提到了	-10.8796
该怎样	-10.8801
的气氛	-10.8802
认出	-10.8805
怎样的	-10.8806
前途	-10.8808
斯特拉斯堡	-10.8817
杰出的	-10.8821
▁厅	-10.8823
要比	-10.8825
骄	-10.8828
考验	-10.8828
去把	-10.883
有哪	-10.8831
激励	-10.8834
瞬间	-10.8839
他心里想	-10.8841
那个时代	-10.8842
正当	-10.8842
行事	-10.8843
一点儿也	-10.8844
▁就是	-10.8857
内阁	-10.8858
的厌倦	-10.8859
▁蒂尔德	-10.886
原来的	-10.886
怒	-10.8868
处在	-10.8872
优美	-10.8873
名片	-10.8874
就说	-10.8877
换上	-10.8882
任何事	-10.8884
潮湿	-10.8885
害	-10.8887
不喜欢	-10.8888
大钟	-10.8896
推荐	-10.8904
那可	-10.8907
门前	-10.8907
敬重	-10.8909
▁兴	-10.891
得罪	-10.8911
▁定	-10.892
而于连	-10.8922
纯	-10.8923
祭坛	-10.8925
否	-10.8926
赠与	-10.8927
嫌	-10.893
最初的	-10.8933
篇	-10.8933
八个	-10.8934
又回到	-10.8935
等候	-10.8942
的虔诚	-10.8944
势力	-10.8948
得不到	-10.895
他最	-10.895
派来的	-10.8954
集中	-10.8955
热狂	-10.8956
者的	-10.8956
信教	-10.8957
山上	-10.8957
市长的	-10.8959
代理人	-10.8959
泥	-10.8961
亲笔	-10.8962
于连终于	-10.8963
▁这是	-10.8966
冷冷地	-10.8968
对她说道	-10.8968
不成	-10.897
利益	-10.8972
颗	-10.8977
的竞争	-10.8978
解释的	-10.8979
多年	-10.8979
骑	-10.8982
的年轻	-10.8982
抵	-10.8994
教区	-10.8997
一个最	-10.9001
的行	-10.9003
拯救	-10.9004
担	-10.9004
要在	-10.9006
大理石	-10.9006
机灵	-10.9006
一则	-10.9007
一事	-10.9009
流氓	-10.9011
剧院	-10.9011
功夫	-10.9012
怪异	-10.9012
乏味	-10.9012
沉闷	-10.9012
一趟	-10.9012
历史	-10.9014
另一	-10.9016
村里	-10.9016
的口	-10.9019
热闹	-10.9021
义务	-10.9022
看清	-10.9022
提问	-10.9024
占据	-10.9024
美妙	-10.9026
丢脸	-10.9026
唯	-10.9027
风景	-10.9027
这边	-10.9028
顺利	-10.903
醉心于	-10.903
遭	-10.9031
赴	-10.9033
狭窄	-10.9034
使命	-10.9034
恨不得	-10.9034
继承	-10.9036
丢	-10.9037
向自己说道	-10.904
世界上最	-10.904
永不	-10.9041
于连并没有	-10.9041
破坏	-10.9042
柔甜	-10.9045
看上去好像	-10.9046
谦逊	-10.9046
能力	-10.9048
聪慧	-10.905
寻到	-10.905
本能	-10.9051
显贵	-10.9051
诉	-10.9052
予	-10.9053
优	-10.9056
这位年轻	-10.9056
好些	-10.9058
▁时间	-10.9058
▁近	-10.9058
伸	-10.9059
嫁	-10.906
对于他的	-10.906
想到了	-10.9061
过道	-10.9063
夺	-10.9064
有好处	-10.9065
对象	-10.9065
不要说	-10.9066
惊醒了	-10.9066
介绍给	-10.9067
知道的	-10.9068
无情	-10.9072
逝	-10.9075
晕	-10.9075
猜透	-10.9075
谢阆	-10.9076
假使我	-10.9076
人们都	-10.9081
图书馆	-10.9083
。(	-10.9083
打发走	-10.9086
转变	-10.9086
爬	-10.9086
肖兰	-10.9088
怯	-10.9092
控告	-10.9093
愧	-10.9095
长了	-10.9095
十五天	-10.9095
过失	-10.9096
英	-10.9099
砍	-10.9099
出卖	-10.91
提议	-10.91
察	-10.9101
番	-10.9102
外省人的	-10.9102
凯吕斯	-10.9108
阶	-10.9108
如果我还	-10.911
咖啡馆里	-10.9111
这个家庭的	-10.9112
大人物	-10.9112
餐桌	-10.9112
您知道	-10.9115
悠	-10.9117
编	-10.9117
脏	-10.9117
路易十四	-10.9119
注视	-10.9119
我们将	-10.9119
姓	-10.9122
距	-10.9122
耐心	-10.9123
阅读	-10.9124
咱	-10.9125
荒谬	-10.9125
偶	-10.9125
懒	-10.9126
事迹	-10.9127
享	-10.9127
打扰	-10.9129
赖	-10.9129
速	-10.913
荒	-10.9131
赞颂	-10.9132
辉煌的	-10.9133
垂	-10.9133
屋子	-10.9134
途	-10.9134
悦	-10.9134
议	-10.9134
酸	-10.9135
集	-10.9135
休	-10.9136
什么也没有	-10.9136
枚	-10.9137
挽	-10.9138
大胆地	-10.9138
仇	-10.9138
慎	-10.914
再不	-10.9141
高级	-10.9141
不知不觉	-10.9141
暂	-10.9141
千万	-10.9141
譬如	-10.9143
握住	-10.9143
罩	-10.9144
逐渐	-10.9144
谋杀	-10.9144
驱	-10.9145
我犯了	-10.9145
眉头	-10.9145
泄露	-10.9146
贵妇	-10.9147
米什莱夫人	-10.9147
应当	-10.9147
黑牢	-10.9147
山洞	-10.9148
诱	-10.9148
森林	-10.9148
世上	-10.9148
祭	-10.9148
概	-10.9149
昂	-10.9149
看了看	-10.9149
玛蒂	-10.9149
正确	-10.9149
夹	-10.9149
披	-10.9149
例	-10.915
敏	-10.915
十万法郎	-10.915
费力	-10.915
围绕	-10.915
脱下	-10.9151
渐	-10.9151
广	-10.9151
爬上	-10.9151
施	-10.9152
志	-10.9152
教冠	-10.9152
腹	-10.9153
扩	-10.9153
博韦西	-10.9153
两位先生	-10.9154
元帅	-10.9154
夸	-10.9154
别的地方	-10.9155
案	-10.9155
参	-10.9155
踪	-10.9155
动身到	-10.9155
代价	-10.9156
聊	-10.9156
狠	-10.9156
回到客厅里	-10.9156
判处死刑	-10.9156
挂着	-10.9157
北面	-10.9157
表面	-10.9157
反正	-10.9157
涨	-10.9157
虚荣	-10.9157
始终	-10.9158
朗	-10.9158
二十五	-10.9158
扮	-10.9158
已经得到	-10.9158
久了	-10.9158
壁	-10.9158
伏	-10.9159
恭维	-10.9159
棍	-10.9159
一再	-10.9159
隆	-10.9159
仁	-10.9159
崇	-10.916
降	-10.916
妻	-10.916
科学院	-10.916
吃晚饭	-10.916
规	-10.916
少尉	-10.916
奸	-10.916
尘	-10.916
挚	-10.9161
豪	-10.9161
无愧	-10.9161
不由得	-10.9161
到三	-10.9161
慰	-10.9161
赛	-10.9161
冠	-10.9161
视线	-10.9161
衣裙	-10.9161
罪孽	-10.9161
殉	-10.9161
搅	-10.9161
拼	-10.9161
劈	-10.9162
仰	-10.9162
挪	-10.9162
流水	-10.9162
替代	-10.9162
耗	-10.9162
的作品	-10.9162
尤	-10.9162
宵	-10.9162
锯	-10.9162
赦	-10.9162
庸	-10.9162
毛	-10.9162
富裕	-10.9162
绣	-10.9162
苍	-10.9162
鱼	-10.9162
厨娘	-10.9162
进来了	-10.9162
旋	-10.9163
十六岁	-10.9163
网	-10.9163
娱乐	-10.9163
浪费	-10.9163
谎	-10.9163
版	-10.9163
盲	-10.9163
肖	-10.9163
栗	-10.9163
器	-10.9163
浅	-10.9163
艳	-10.9163
范	-10.9163
警	-10.9163
孽	-10.9163
勃艮第	-10.9163
拢	-10.9163
矮	-10.9163
踏	-10.9163
继	-10.9163
征求	-10.9163
腔	-10.9163
赎	-10.9163
陆	-10.9163
驰	-10.9163
秽	-10.9163
横	-10.9163
固	-10.9163
畏	-10.9163
唐	-10.9163
电	-10.9163
珠	-10.9163
宾	-10.9163
夏尔	-10.9163
码	-10.9163
邮	-10.9163
克鲁瓦泽努	-10.9163
奈	-10.9163
谨	-10.9163
巡	-10.9163
眠	-10.9163
盗	-10.9164
钉	-10.9164
吕	-10.9164
实实在在的	-10.9164
峻	-10.9164
窃	-10.9164
棒	-10.9164
烛	-10.9164
无法忍受	-10.9164
疲	-10.9164
有生以来	-10.9164
腮	-10.9164
雕	-10.9164
肃	-10.9164
牧	-10.9164
估	-10.9164
贺	-10.9164
十五岁	-10.9164
雷斯	-10.9164
台球	-10.9164
矩	-10.9164
启	-10.9164
贝桑	-10.9164
晴	-10.9164
汪	-10.9164
惩	-10.9164
廉	-10.9164
珍	-10.9164
嗓子	-10.9164
版本	-10.9164
诋毁	-10.9164
齿	-10.9164
瘦	-10.9164
娇嫩	-10.9164
揉	-10.9164
俊	-10.9164
盟	-10.9164
一心一意	-10.9164
幕	-10.9164
憩息	-10.9164
掠	-10.9164
掺	-10.9164
框	-10.9164
梢	-10.9164
疲倦	-10.9164
疼	-10.9164
羽毛花球	-10.9164
诉讼案	-10.9164
魁	-10.9164
接上去说	-10.9164
逊	-10.9164
从第一天起	-10.9164
以此为代价	-10.9164
售	-10.9164
嗓音	-10.9164
嘘	-10.9164
坚贞	-10.9164
忧愁	-10.9164
桑卡利诺	-10.9164
虎	-10.9164
轶事	-10.9164
隐隐约约	-10.9164
四月三十日	-10.9164
捐	-10.9164
草垫椅	-10.9164
亩	-10.9164
侣伴	-10.9164
兑现	-10.9164
勾	-10.9164
医院	-10.9164
可怖的	-10.9164
喜出望外	-10.9164
四组舞	-10.9164
坎	-10.9164
庆幸自己	-10.9164
循规蹈	-10.9164
悬殊的	-10.9164
戒	-10.9164
敞开	-10.9164
斧	-10.9164
普罗旺斯	-10.9164
暖	-10.9164
桔	-10.9164
榜样	-10.9164
欢娱	-10.9164
歹	-10.9164
每时每刻都	-10.9164
沟	-10.9164
深思熟虑	-10.9164
的吩咐	-10.9164
的洞察力	-10.9164
的难堪	-10.9164
筱悬木	-10.9164
簇	-10.9164
肥	-10.9164
菲利普	-10.9164
贫民	-10.9164
追溯到	-10.9164
醋	-10.9164
陡	-10.9164
卑躬屈膝	-10.9164
巴东男爵	-10.9164
不合时宜	-10.9164
乡下佬	-10.9164
从现在起	-10.9164
关键	-10.9164
判他死刑	-10.9164
吹着口哨	-10.9164
囊	-10.9164
堞栏	-10.9164
尴尬	-10.9164
届	-10.9164
异乎寻常的	-10.9164
弗尔的年金	-10.9164
心血来潮	-10.9164
我以名誉担保	-10.9164
扯	-10.9164
批评	-10.9164
斤	-10.9164
暴发户	-10.9164
服务	-10.9164
机械地	-10.9164
泛滥	-10.9164
渊博	-10.9164
漏	-10.9164
的汇票	-10.9164
的热忱	-10.9164
的贞节	-10.9164
税	-10.9164
脖子	-10.9164
裹	-10.9164
贤	-10.9164
鉴	-10.9164
钻石	-10.9164
阿尼巴尔	-10.9164
叛	-10.9164
旺	-10.9164
狮	-10.9164
逗	-10.9164
/	-10.9164
一刹那	-10.9164
与众不同	-10.9164
专区区长	-10.9164
井	-10.9164
亨利四世	-10.9164
俱乐部	-10.9164
公墓	-10.9164
凌晨一点	-10.9164
刽子手	-10.9164
削	-10.9164
剥夺	-10.9164
包厢	-10.9164
匆促	-10.9164
吊	-10.9164
咽	-10.9164
喷	-10.9164
嗜	-10.9164
困境中	-10.9164
奏	-10.9164
奢侈	-10.9164
好兆头	-10.9164
宪政	-10.9164
帝王	-10.9164
怪癖	-10.9164
愉悦	-10.9164
感到愉快	-10.9164
扎	-10.9164
扭	-10.9164
拐	-10.9164
拦	-10.9164
捷	-10.9164
援	-10.9164
斟酌	-10.9164
映	-10.9164
是这么回事	-10.9164
晃	-10.9164
杨	-10.9164
标新立异	-10.9164
沉溺在	-10.9164
温馨	-10.9164
狼	-10.9164
的含义	-10.9164
瞬息	-10.9164
窥	-10.9164
糕	-10.9164
莱比锡	-10.9164
融	-10.9164
褶	-10.9164
议事司铎	-10.9164
轻微的	-10.9164
返	-10.9164
霆	-10.9164
马尔梅松	-10.9164
驶	-10.9164
骚动	-10.9164
烂	-10.9164
乔治四世	-10.9164
冷若冰霜	-10.9164
叹了一口气	-10.9164
呸	-10.9164
增强了	-10.9164
搜刮来的	-10.9164
早晚会	-10.9164
朽	-10.9164
核	-10.9164
每日新闻	-10.9164
沉默寡言	-10.9164
热泪盈眶	-10.9164
聋	-10.9164
聪颖	-10.9164
蛮横无礼	-10.9164
衬衣	-10.9164
赘述	-10.9164
",#""	-10.9164
合乎	-10.9164
急忙	-10.9164
一八一六年	-10.9164
凌晨两点	-10.9164
午夜十二点	-10.9164
哗	-10.9164
地看待	-10.9164
孱	-10.9164
尝试	-10.9164
损坏了	-10.9164
摧	-10.9164
时时刻刻	-10.9164
有朝一日	-10.9164
株	-10.9164
消灭	-10.9164
消耗尽了	-10.9164
瘫	-10.9164
的暗号	-10.9164
的镀金	-10.9164
矜持	-10.9164
窘困	-10.9164
耍	-10.9164
荷	-10.9164
许许多多	-10.9164
踱来踱	-10.9164
蹑	-10.9164
飘	-10.9164
取决于	-10.9164
棋	-10.9164
腐蚀	-10.9164
是我母亲的	-10.9164
二百五十法郎	-10.9164
勤奋	-10.9164
得要死	-10.9164
忧虑	-10.9164
抗拒	-10.9164
损失	-10.9164
措施	-10.9164
无非是	-10.9164
查理九世	-10.9164
浮华	-10.9164
的女婿	-10.9164
的尊严	-10.9164
资产阶级	-10.9164
遗嘱	-10.9164
针	-10.9164
铁石心肠	-10.9164
凄凉	-10.9164
塑	-10.9164
境况	-10.9164
完全摆脱了	-10.9164
山麓	-10.9164
幸亏	-10.9164
惶恐不安	-10.9164
抹	-10.9164
捕捉	-10.9164
束缚	-10.9164
的空白处	-10.9164
补偿	-10.9164
这怎么可能	-10.9164
食品	-10.9164
学校	-10.9164
皆	-10.9164
年轻的外交家	-10.9164
恩惠	-10.9164
晴朗	-10.9164
秀丽的	-10.9164
魔鬼	-10.9164
令人难堪	-10.9164
儒	-10.9164
惊慌失措	-10.9164
托利男爵	-10.9164
持续	-10.9164
摄	-10.9164
汉堡	-10.9164
的箴言	-10.9164
的许可	-10.9164
罕见	-10.9164
裁缝	-10.9164
骇异	-10.9164
骑术	-10.9164
眉毛	-10.9164
有利可图	-10.9164
三十六法郎	-10.9164
何况	-10.9164
修剪	-10.9164
的粗暴	-10.9164
的钟声响了	-10.9164
耶尔	-10.9164
镀金的	-10.9164
难以置信的	-10.9164
频频	-10.9164
夏尔维伯爵	-10.9165
有出息的	-10.9165
林荫	-10.9165
献身圣职	-10.9165
退休的	-10.9165
包含着	-10.9165
塔莱伯爵	-10.9165
披肩	-10.9165
艰苦	-10.9165
转过身去	-10.9165
频繁	-10.9165
慰藉	-10.9165
启示	-10.9165
阴险	-10.9165
法官和律师	-10.9165
的公共	-10.9165
请相信我	-10.9165
阳台	-10.9165
谈正题	-10.9165
克鲁	-10.9165
容颜	-10.9165
焦虑	-10.9165
签订	-10.9165
保守秘密	-10.9165
囚犯	-10.9165
痛风病发作	-10.9165
争夺	-10.9165
今宵	-10.9165
尸体	-10.9165
恼怒	-10.9165
按门铃	-10.9165
的性质	-10.9165
订阅	-10.9165
试试	-10.9165
说了一遍	-10.9165
贴布告	-10.9165
抽签	-10.9165
到那时	-10.9165
十字架	-10.9165
施展	-10.9165
神智	-10.9165
羞愧	-10.9165
坦诚	-10.9165
印刷	-10.9165
共同	-10.9165
剑术	-10.9165
盯住	-10.9165
信奉宗教	-10.9165
五点钟	-10.9165
恐慌	-10.9165
无所畏惧	-10.9165
十全十美	-10.9165
宁肯	-10.9165
崇敬	-10.9165
枪响	-10.9165
漫长的	-10.9165
神情忧郁地	-10.9165
空洞	-10.9165
迎圣体	-10.9165
顶帽子	-10.9165
检察长	-10.9165
二十二岁	-10.9165
恰巧	-10.9165
昔日	-10.9165
的问话	-10.9165
周遭	-10.9165
持久	-10.9165
措词	-10.9165
猜测	-10.9165
迷惑	-10.9165
防止	-10.9165
争辩	-10.9165
仇视	-10.9165
昨夜	-10.9165
简洁	-10.9165
遮掩	-10.9165
闪电	-10.9165
收容所所长	-10.9165
卑劣	-10.9165
我倒要	-10.9165
数码	-10.9165
祝福	-10.9165
急驰	-10.9165
十九世纪	-10.9165
射击	-10.9165
懂拉丁文	-10.9165
多亏	-10.9165
奉承他	-10.9165
御前	-10.9165
狂妄	-10.9165
粉碎	-10.9165
遥远	-10.9165
失踪	-10.9165
抵制	-10.9165
谋杀罪	-10.9165
深受感动	-10.9165
把我当成	-10.9165
孤傲	-10.9165
浑身颤抖	-10.9165
补充一句	-10.9165
抄录	-10.9165
举凡	-10.9165
排列	-10.9165
短外套	-10.9165
迷恋	-10.9165
眼眶	-10.9165
血统	-10.9165
了上风	-10.9165
涉及	-10.9165
严守	-10.9165
出租马车	-10.9165
墙壁	-10.9165
贫民收容所	-10.9165
迎接	-10.9165
献殷勤	-10.9166
挨揍	-10.9166
勃艮第公爵	-10.9166
忘乎所以	-10.9166
重负	-10.9166
闹翻	-10.9166
一时冲动	-10.9166
怒气冲冲地	-10.9166
▁第二天早上	-10.9166
的女友	-10.9166
被撤职了	-10.9166
颜色	-10.9166
两只手	-10.9166
死囚	-10.9166
的面容	-10.9166
鲜明	-10.9166
三个小时	-10.9166
实施	-10.9166
忠于	-10.9166
简短	-10.9166
助学	-10.9166
死刑判决	-10.9166
▁耳先生	-10.9166
胆敢	-10.9166
门户	-10.9166
饭菜	-10.9166
安闲	-10.9166
圣心派	-10.9166
功利	-10.9166
三天之内	-10.9166
柔弱	-10.9166
混蛋	-10.9166
一长串	-10.9166
精彩	-10.9166
仅此而已	-10.9166
倾注	-10.9166
操心	-10.9166
费尔瓦克夫人	-10.9166
慌张	-10.9166
所讲的一切	-10.9166
有心计	-10.9166
像他这样	-10.9166
欢狂	-10.9166
和她说话	-10.9166
几条狗	-10.9166
是什么意思	-10.9166
铁丝	-10.9166
摔下马	-10.9166
约束	-10.9166
晚宴	-10.9166
赞叹不已	-10.9166
内室	-10.9166
被斩首的	-10.9166
报仇	-10.9167
怒气	-10.9167
了于连一眼	-10.9167
退缩	-10.9167
风险	-10.9167
反抗	-10.9167
袍子	-10.9167
计算	-10.9167
把他介绍给	-10.9167
像今天这样	-10.9167
拆开	-10.9167
塔莱先生	-10.9167
交际	-10.9167
吕兹先生	-10.9167
总得有	-10.9167
挪动	-10.9167
五六次	-10.9167
设计	-10.9167
寒冷的	-10.9167
整洁	-10.9167
前夕	-10.9167
婚约	-10.9167
字迹	-10.9167
商量	-10.9167
在沙滩广场	-10.9167
专制	-10.9167
悲痛	-10.9167
推论	-10.9167
全集	-10.9167
拼写	-10.9167
结识	-10.9167
提升	-10.9167
一大段	-10.9167
迹象	-10.9167
四轮	-10.9167
气概	-10.9167
苦闷	-10.9167
上了年纪	-10.9167
放纵	-10.9167
洋溢	-10.9167
特权	-10.9167
老早就	-10.9167
拉维尔内先生	-10.9167
结论	-10.9167
心情平静	-10.9167
有用处	-10.9167
娇美	-10.9167
握手	-10.9167
凉爽	-10.9168
松木	-10.9168
有谁能	-10.9168
稍加	-10.9168
纯朴	-10.9168
四十岁	-10.9168
宗教仪式	-10.9168
微妙	-10.9168
明确	-10.9168
礼节	-10.9168
遵守	-10.9168
发挥	-10.9168
这份礼物	-10.9168
称呼他	-10.9168
强壮	-10.9168
公民	-10.9168
受辱	-10.9168
真挚	-10.9168
利埃	-10.9168
抱在怀里	-10.9168
窗口	-10.9168
假设	-10.9168
中尉	-10.9168
惨白	-10.9168
金线	-10.9168
惊慌	-10.9168
三次	-10.9168
一群人	-10.9168
到牧师家里	-10.9168
预言	-10.9168
开朗	-10.9168
的金发	-10.9168
性格的力量	-10.9168
宝贵	-10.9168
低垂	-10.9168
把他推开	-10.9169
失礼	-10.9169
注入	-10.9169
的墙上	-10.9169
司法	-10.9169
按理	-10.9169
无话可说	-10.9169
出庭	-10.9169
志向	-10.9169
深信不	-10.9169
正处在	-10.9169
议论纷纷	-10.9169
做买卖	-10.9169
制服	-10.9169
牢门	-10.9169
微微	-10.9169
布告	-10.9169
亲手	-10.9169
人人都知道	-10.9169
劳动	-10.9169
我的处境	-10.9169
皇家	-10.9169
所吸引	-10.9169
阿芒达小姐	-10.9169
肖纳公爵	-10.9169
所获得的	-10.9169
心胸	-10.9169
饿死	-10.9169
三个孩子	-10.9169
棍子	-10.9169
法院	-10.9169
拒斥	-10.9169
没有人知道	-10.9169
陪同	-10.9169
失掉	-10.9169
详详细细地	-10.9169
起伏	-10.9169
相遇	-10.917
久远	-10.917
那只手	-10.917
发愁	-10.917
在她的心目中	-10.917
高超	-10.917
知觉	-10.917
躲进	-10.917
一个小孩子	-10.917
瓦尔诺男爵	-10.917
门打开了	-10.917
这一夜	-10.917
如愿	-10.917
彼此间	-10.917
最大的不幸	-10.917
赏脸	-10.917
地叫了起来	-10.917
幢房子	-10.917
这样大的	-10.917
解释清楚	-10.917
挨近	-10.917
感到痛心	-10.917
往前走	-10.917
本城	-10.917
不堪忍受	-10.917
恢复过来	-10.917
偏爱	-10.917
致词	-10.917
关照	-10.917
进一步	-10.917
吃完	-10.9171
间接	-10.9171
她家里的	-10.9171
弗里莱尔代理主教	-10.9171
驱使	-10.9171
阿格德主教	-10.9171
很有礼貌	-10.9171
逃跑	-10.9171
何等	-10.9171
意志力	-10.9171
甚至包括	-10.9171
失色	-10.9171
流水道	-10.9171
馆子	-10.9171
面貌	-10.9171
泪如	-10.9171
快步	-10.9171
第六	-10.9171
杯子	-10.9171
琐事	-10.9171
假期	-10.9171
谋取	-10.9171
表妹	-10.9171
此时此刻	-10.9171
独立	-10.9171
抱吻	-10.9172
饭吃	-10.9172
不讲理	-10.9172
这趟	-10.9172
捏着	-10.9172
心智	-10.9172
沉重	-10.9172
格拉	-10.9172
阁楼	-10.9172
开口说话	-10.9172
延长	-10.9172
斯特	-10.9172
光线	-10.9172
快走开	-10.9172
冲动	-10.9172
这个无赖	-10.9172
狠心	-10.9172
小窗	-10.9172
卖力	-10.9172
拉莫	-10.9173
最富	-10.9173
办不到	-10.9173
情节	-10.9173
罪状	-10.9173
不顾一切	-10.9173
水力	-10.9173
爱恋	-10.9173
品质	-10.9173
患有	-10.9173
赶快	-10.9173
地位显赫	-10.9173
确认	-10.9173
像您这样	-10.9173
负有	-10.9173
难怪	-10.9173
公道	-10.9173
花掉	-10.9173
展现	-10.9173
年轻的学生	-10.9173
情绪激动	-10.9173
自责	-10.9173
害得	-10.9174
晚间	-10.9174
被人爱着	-10.9174
主义	-10.9174
女郎	-10.9174
出丑	-10.9174
见识	-10.9174
另一种	-10.9174
信守	-10.9174
到来之前	-10.9174
成熟	-10.9174
爱过我	-10.9174
圣水	-10.9174
▁有些	-10.9174
出主意	-10.9174
他的记忆力	-10.9175
出卖过	-10.9175
居住	-10.9175
帽子	-10.9175
穿黑衣	-10.9175
伴送	-10.9175
现出一种	-10.9175
凯吕斯先生	-10.9175
脸涨得通红	-10.9175
随身	-10.9175
二字	-10.9175
得很清楚	-10.9175
歌剧院	-10.9175
之类	-10.9175
嚷着	-10.9175
离开客厅	-10.9176
一大堆	-10.9176
商谈	-10.9176
很喜欢	-10.9176
一页	-10.9176
于连问自己	-10.9176
赶路	-10.9176
甘心	-10.9176
敲门	-10.9176
感恩	-10.9177
公然	-10.9177
由此	-10.9177
贫民养育院院长瓦尔诺先生	-10.9177
约定	-10.9177
每星期	-10.9177
顶多	-10.9177
我想知道	-10.9177
后果	-10.9177
灰色	-10.9177
不由地	-10.9177
站立起来	-10.9177
教理	-10.9177
病倒	-10.9177
刚强	-10.9177
回到维尔吉	-10.9178
充当	-10.9178
硬纸板	-10.9178
限于	-10.9178
悄悄地	-10.9178
眼色	-10.9178
学家	-10.9178
占据着	-10.9178
全省	-10.9178
陈述	-10.9178
这样的牺牲	-10.9178
竟敢	-10.9178
面临	-10.9178
雨下	-10.9178
仪仗队员	-10.9178
倾听	-10.9178
胖女人	-10.9178
野心家	-10.9178
打他一顿	-10.9178
进城	-10.9179
高声说道	-10.9179
付钱	-10.9179
处世	-10.9179
’(	-10.9179
转眼	-10.9179
很快就能	-10.9179
随意	-10.9179
我这辈子	-10.9179
显要的	-10.918
里昂	-10.918
指明	-10.918
差异	-10.918
绿色	-10.918
冷酷的	-10.918
往前	-10.918
我的情敌	-10.918
良好	-10.918
搬到	-10.9181
会把您	-10.9181
失声	-10.9181
一间屋子	-10.9181
假定	-10.9181
出租	-10.9181
这位大贵人	-10.9181
回到客厅里去	-10.9181
未能	-10.9181
据我看	-10.9182
一小时之后	-10.9182
活像一个	-10.9182
的好朋友	-10.9182
显得多么	-10.9182
致意	-10.9182
之流的	-10.9183
自制	-10.9183
可怕的目光	-10.9183
沿着	-10.9183
我将离开	-10.9183
老公爵	-10.9183
产生了一种	-10.9183
光亮	-10.9184
没有人会	-10.9184
▁于连试图	-10.9184
▁他们的谈话	-10.9184
在此之前	-10.9184
大树林	-10.9185
声称	-10.9185
租下	-10.9185
驱走了	-10.9185
自言自语地说道	-10.9185
的人来说	-10.9185
跳下去	-10.9185
外套	-10.9185
肉体	-10.9185
轻易地	-10.9186
你这个坏蛋	-10.9186
转身	-10.9186
掉下来	-10.9186
这仿佛是	-10.9186
幽会	-10.9186
窗户上	-10.9186
比刚才	-10.9187
轮到	-10.9187
疑心	-10.9187
境地	-10.9187
这位小姐	-10.9187
丝毫没有	-10.9187
大块	-10.9187
外科医生	-10.9187
为止	-10.9187
这个词儿	-10.9187
伸出手	-10.9188
他觉得自己	-10.9188
全靠	-10.9188
高达	-10.9188
干活	-10.9188
突然间	-10.9188
步态	-10.9189
正式	-10.9189
仪态	-10.9189
信纸上	-10.9189
救我的	-10.919
庭长	-10.919
任职	-10.919
深感	-10.919
那迷人的	-10.919
重行	-10.919
真诚地	-10.919
视着	-10.9191
每个人	-10.9191
收到过	-10.9191
长达	-10.9191
热血	-10.9191
在公共	-10.9191
完全恢复了	-10.9191
佩尔	-10.9191
他对福盖说	-10.9192
硬币	-10.9192
大年纪	-10.9192
自从拿破仑	-10.9192
这个主意	-10.9192
谁知道	-10.9192
自语	-10.9192
误	-10.9193
天性	-10.9193
该有多么	-10.9193
无言	-10.9193
但愿	-10.9193
最高贵的	-10.9193
贵妇人	-10.9193
感到奇怪	-10.9194
惯了	-10.9194
声望	-10.9194
统治着	-10.9194
还要多	-10.9194
长老	-10.9194
他的想像力	-10.9194
惹恼了	-10.9195
木头	-10.9195
贺拉斯是	-10.9195
倾心	-10.9195
不愉快的事	-10.9195
自满	-10.9195
焦急地	-10.9195
的辉煌	-10.9195
抱有	-10.9196
的角落里	-10.9196
的环境	-10.9196
的酬	-10.9196
有一半	-10.9196
热恋着	-10.9196
地凝视着	-10.9197
他对于连说道	-10.9197
第一天	-10.9197
大权	-10.9197
两个月后	-10.9197
本事	-10.9197
▁孔泰人	-10.9197
多么可怕	-10.9197
向市长先生	-10.9197
的古堡	-10.9198
极力	-10.9198
人民	-10.9198
有好多	-10.9198
的头颅	-10.9198
▁是真的	-10.9198
前额	-10.9199
多种	-10.9199
一切谨慎	-10.9199
很快便	-10.9199
贵夫人	-10.9199
学者	-10.9199
是罪有应得	-10.9199
战栗着	-10.9199
引起了于连的	-10.92
这个世界	-10.92
能胜任	-10.92
突出	-10.92
更增加了她	-10.92
意味	-10.9201
在意大利	-10.9201
阴暗	-10.9201
化为	-10.9202
派头	-10.9202
地板	-10.9202
谁能想到	-10.9202
责备自己	-10.9202
地对于连说道	-10.9203
这种举动	-10.9203
直言	-10.9203
瓦尔诺先生家	-10.9203
如果我能	-10.9203
我在恋爱	-10.9204
当地人	-10.9204
老师	-10.9204
刚才已经	-10.9205
无关	-10.9205
我宁可	-10.9205
一两次	-10.9205
是个笨蛋	-10.9205
拉莫尔小	-10.9206
正好可以	-10.9206
雷纳耳家	-10.9206
小包袱	-10.9207
穿着十分	-10.9207
苦笑	-10.9207
刺伤	-10.9207
高明	-10.9208
有不少	-10.9208
好极了	-10.9208
他想起了	-10.9208
随从	-10.9209
自言自语地说	-10.9209
能看出	-10.9209
以求	-10.9209
上下来	-10.921
您说得	-10.921
怎么知道	-10.921
我先	-10.921
离别	-10.9211
追随	-10.9211
呆着	-10.9211
最后时刻	-10.9211
这群	-10.9212
于连叫道	-10.9212
这个故事	-10.9212
痛心	-10.9213
大部分	-10.9213
跟爱丽莎	-10.9214
无论是	-10.9214
这种轻蔑	-10.9214
今天是	-10.9215
显得非常	-10.9215
请求你	-10.9216
引为	-10.9216
不痛快	-10.9217
这并不是	-10.9218
伯爵先生	-10.9218
给他们	-10.9219
显得如此	-10.9219
是否会	-10.9219
最值得	-10.9219
这桩事	-10.922
某些人	-10.922
手伸	-10.922
都不知道	-10.922
情意	-10.9222
那么好吧	-10.9223
近于	-10.9224
拉莫尔侯爵先生	-10.9224
艺术家	-10.9224
向台球桌	-10.9225
他注视着	-10.9225
的形象	-10.9225
转过身来	-10.9225
败坏	-10.9225
的手势	-10.9225
流行	-10.9225
清楚地	-10.9226
主动	-10.9226
嘴里	-10.9226
坚决地	-10.9227
思想的	-10.9227
只需	-10.9228
走下来	-10.9229
我所有的	-10.923
于连对	-10.923
世事	-10.923
一封匿名信	-10.923
有失	-10.9231
惊讶不已	-10.9231
出门	-10.9232
高度	-10.9232
假若	-10.9232
更好	-10.9232
我觉得很	-10.9233
共和	-10.9233
醒来	-10.9233
对她说来	-10.9233
不到一个月	-10.9233
这些信	-10.9233
当年	-10.9234
一位师傅	-10.9234
两朋友	-10.9235
讨好	-10.9235
取得了	-10.9235
她对自己	-10.9235
控告我	-10.9236
向您承认	-10.9236
的名誉	-10.9236
我很喜欢	-10.9236
解除	-10.9237
百个路易	-10.9237
解了	-10.9237
牧师说道	-10.9237
吃得	-10.9238
兄弟	-10.9239
抛弃他	-10.9239
这种想法	-10.924
仿佛是一个	-10.924
地大喊	-10.924
▁发现于连	-10.9241
这个位置	-10.9242
脸盘	-10.9242
▁高兴	-10.9242
本来是	-10.9242
剪下	-10.9242
为难	-10.9243
理会	-10.9243
如果是	-10.9243
告诉他们	-10.9244
看到丈夫	-10.9244
看信	-10.9244
这个时代	-10.9244
富有的人	-10.9244
优美的	-10.9244
跑着	-10.9245
差不多就	-10.9245
她的身边	-10.9245
动心	-10.9245
离去后	-10.9246
的耳	-10.9246
我的名誉	-10.9246
十法里	-10.9246
以往	-10.9246
气派	-10.9247
有教养	-10.9248
的兴致	-10.9248
得来的	-10.9249
最后决定	-10.925
只希望	-10.925
壮丽的	-10.925
不至于	-10.9251
想及	-10.9251
其中有	-10.9251
就好了	-10.9251
看见一位	-10.9253
的椅子	-10.9253
逝去	-10.9253
善良的神父	-10.9254
浮现	-10.9254
任凭	-10.9254
手下的	-10.9254
上层社会的	-10.9255
借给	-10.9255
出身高贵的人	-10.9255
怪事	-10.9256
碰上	-10.9256
她从来未曾	-10.9257
没有一个朋友	-10.9258
露面了	-10.9258
向他们	-10.9258
一家人	-10.9258
天才的	-10.9259
风光	-10.9259
我们曾经	-10.9259
有位	-10.9259
关上	-10.9259
就在这里	-10.9259
他那股	-10.926
人目	-10.926
总有一	-10.926
都不能	-10.926
的条件	-10.9261
什么也	-10.9261
为了得到	-10.9262
多大的	-10.9262
促使他	-10.9262
可能的	-10.9262
它会	-10.9263
三百三十	-10.9264
了解到	-10.9264
他的父亲	-10.9265
自如	-10.9265
那儿去	-10.9266
认识你	-10.9266
完全不同	-10.9266
人世	-10.9266
端来	-10.9267
一本正经地	-10.9267
山顶	-10.9268
拿到	-10.9268
▁过是	-10.9268
我们不能	-10.9268
之情	-10.9269
小事情	-10.9269
我死后	-10.9269
这种爱	-10.9269
这对于一个	-10.9269
出生	-10.9269
大清早	-10.927
叫道	-10.9271
伤了	-10.9271
我向您	-10.9271
马上又	-10.9271
有几次	-10.9271
您可以	-10.9272
战胜了	-10.9273
成长	-10.9273
道别	-10.9274
来找	-10.9275
不掉	-10.9275
落地	-10.9275
的观念是	-10.9276
九十六团的	-10.9276
出自	-10.9276
▁咒	-10.9276
▁翌日	-10.9276
一个名字	-10.9277
于是便	-10.9277
▁这几句话	-10.9277
拿出来	-10.9277
德库利先生	-10.9277
就好像	-10.9278
为的是	-10.9278
疏忽了	-10.9279
得流出	-10.9279
还不能	-10.928
从此	-10.928
竟会	-10.9282
去考虑	-10.9282
店主人	-10.9282
有责任	-10.9282
一个木匠的儿子	-10.9283
刚从	-10.9283
很平静	-10.9283
可爱的人	-10.9284
准是	-10.9284
响过	-10.9284
▁伙	-10.9285
这位神父	-10.9286
也不想	-10.9286
▁连想	-10.9286
和他的朋友	-10.9287
我以为	-10.9288
等了一个	-10.9289
之后再	-10.9289
围着	-10.9289
意义	-10.9289
这是于连	-10.9289
他的眼睛里	-10.929
房子的	-10.929
赞赏他的	-10.929
明显了	-10.9291
感到自己	-10.9291
照耀	-10.9292
的荣	-10.9292
火焰	-10.9293
杀害	-10.9293
跪在了	-10.9294
还不了解	-10.9294
热的	-10.9294
在监狱里	-10.9296
的举止	-10.9298
或许会	-10.9298
他的情人	-10.9298
一味	-10.93
的另一头	-10.93
很清楚	-10.9302
美妙的	-10.9303
衣服的人	-10.9303
而今	-10.9304
能使	-10.9305
下定	-10.9305
绞着	-10.9306
丢脸的	-10.9306
哪一位	-10.9306
的大路上	-10.9307
重又	-10.9307
的风景	-10.9307
写好	-10.9307
还从来没	-10.9308
的义务	-10.9309
从城里	-10.9309
变成了	-10.9311
的学识	-10.9311
虽说	-10.9311
用过的	-10.9311
▁这位	-10.9312
的本能	-10.9312
使得他	-10.9313
全城的	-10.9314
睡觉了	-10.9316
压在	-10.9316
说一句	-10.9317
见到过	-10.9318
心里想	-10.9318
被一种	-10.9321
无心	-10.9321
目的是	-10.9322
的提问	-10.9323
说句话	-10.9331
让我丈夫	-10.9332
会为此	-10.9334
顺着	-10.9334
是谁呢	-10.9335
没有受到	-10.9336
几乎没有	-10.9336
写着	-10.9337
正因为	-10.9337
让大家	-10.9338
套衣服	-10.9338
递给他	-10.9339
翻开	-10.934
以前曾	-10.9341
是非常	-10.9341
▁来看	-10.9342
像你	-10.9342
在暗中	-10.9343
的眼睛中	-10.9343
的大门	-10.9343
离开贝桑松	-10.9343
把每一	-10.9344
这个索黑尔	-10.9344
他向自己说	-10.9345
丹东在	-10.9345
我的人	-10.9346
我并不是	-10.9346
吐出	-10.9346
他们敢于	-10.9346
是如何	-10.9347
玛蒂尔德的爱情	-10.9347
愿为	-10.9347
想想	-10.9348
对爱情	-10.935
中唤醒	-10.9351
刚一	-10.9351
过多	-10.9351
于它	-10.9352
确实地	-10.9353
发了	-10.9353
就不会再	-10.9353
我方才	-10.9355
算是	-10.9355
到手	-10.9355
外界	-10.9355
不承认	-10.9355
我的妻子	-10.9357
看清了	-10.9359
开心	-10.9359
在一间	-10.9362
单是	-10.9362
就走了	-10.9362
的情景	-10.9364
跟她们	-10.9365
富有而	-10.9366
的宴会	-10.9367
纯洁	-10.9368
女性的	-10.9368
这种感情	-10.9369
正打算	-10.9372
无名	-10.9373
来说是	-10.9373
这本	-10.9373
▁子们	-10.9378
就让	-10.9378
要向他	-10.9378
像这样	-10.9379
虚伪和	-10.938
的自负	-10.938
傲慢和	-10.9382
大叫	-10.9383
没有比	-10.9384
!’	-10.9385
这种幸福	-10.9385
这么说的	-10.9386
已把他	-10.9386
的友情	-10.9388
得以	-10.9389
三四十	-10.9389
说这话	-10.9389
一大	-10.939
挨着	-10.9393
死不	-10.9393
把手枪	-10.9394
万一我	-10.9396
名列第一	-10.9396
超过了	-10.9397
这位夫人	-10.9398
的驿车	-10.9398
晓得你	-10.9401
让他做	-10.9403
靠在	-10.9403
她对他	-10.9404
的小事	-10.9406
因为他们	-10.9407
她曾	-10.9408
在同	-10.9409
他的情敌	-10.941
是一件	-10.9412
领地	-10.9414
很久以	-10.9417
只是个	-10.9417
反感的	-10.9418
荣幸	-10.9418
什么也没	-10.9418
还是被	-10.9419
惩罚我的	-10.942
一个不幸	-10.9421
骗了	-10.9422
他们中间	-10.9423
有资格	-10.9424
由您	-10.9425
得到我的	-10.9426
送给您	-10.9426
▁庭	-10.9427
打死	-10.9428
敢说	-10.9429
不会有这种	-10.9429
百倍	-10.943
在乎	-10.9431
对待于连	-10.9431
便都	-10.9432
她也	-10.9432
说下去	-10.9432
于心	-10.9432
震动	-10.9432
这也是	-10.9433
每一个人	-10.9433
被处	-10.9434
当日	-10.9435
便以为	-10.9438
取来	-10.9438
这个女人	-10.944
这真是	-10.944
▁至于	-10.9441
长着	-10.9442
的笨拙	-10.9442
不怕	-10.9442
在神学院的	-10.9444
到达了	-10.9445
他的心思	-10.9445
▁即使	-10.9446
中得到	-10.9448
十二年	-10.9448
岁月	-10.9449
答应我	-10.945
的精	-10.945
▁妇	-10.945
述一遍	-10.945
打开了	-10.9451
追求她	-10.9452
昨天我	-10.9453
然自若	-10.9453
很老练	-10.9454
最近	-10.9455
对维鲤叶	-10.9457
一边儿	-10.9458
圣日耳曼区	-10.9459
她的眼睛	-10.9461
他用一种	-10.9462
自己的手	-10.9463
的内容	-10.9463
都十分	-10.9464
跳动	-10.9465
之余	-10.9467
▁于连听了	-10.9468
的夏季	-10.947
▁这就是	-10.947
让维鲤叶	-10.9471
面子	-10.9471
轻易	-10.9471
行为的	-10.9473
他羡慕	-10.9473
得这样	-10.9473
侯爵先生	-10.9475
的手术	-10.9478
雅各宾党人的	-10.9479
的关怀	-10.9479
的价值	-10.948
陷入了	-10.948
形的	-10.9481
把握	-10.9483
的牺牲	-10.9485
未必	-10.9487
她甚至	-10.9487
所受	-10.9488
我为	-10.949
人儿	-10.9491
也不再	-10.9492
一个极	-10.9492
他对她说	-10.9493
监狱看守	-10.9494
合作	-10.9495
着头	-10.9495
弱点	-10.9496
从那以	-10.9497
奇怪的是	-10.9497
地主	-10.9497
人群	-10.9497
也知道	-10.9498
尊重我	-10.9501
您和这个	-10.9502
他绝对不	-10.9502
▁题	-10.9503
谈话中	-10.9505
用这种	-10.9506
把孩子	-10.9506
圣心	-10.9506
会相信	-10.9507
之大	-10.9507
心中充满	-10.9511
▁于他	-10.9512
▁于连的自尊心	-10.9514
的通信	-10.9515
帮助他	-10.9516
飞快	-10.9516
于连的胳膊	-10.9516
可以当	-10.9517
的方法	-10.9518
当心	-10.9518
顿饭	-10.9519
他的学生	-10.952
永远不要	-10.9523
的第一个	-10.9525
至于德	-10.9529
为了感谢	-10.9532
她发现他	-10.9533
的脸色	-10.9534
的国王	-10.9536
他开始	-10.9538
地面	-10.9538
所见的	-10.9539
您对	-10.954
他花了	-10.9542
的趣闻	-10.9544
人间	-10.9545
这回	-10.9545
两步远	-10.9547
的门口	-10.955
微笑着	-10.955
他也许会	-10.9552
的灵性	-10.9555
在任何	-10.9555
到贝桑松来	-10.9559
集中在	-10.956
于连想道	-10.956
十分钟	-10.956
下人	-10.9561
他来这儿	-10.9561
我首先	-10.9561
也不管	-10.9564
一连串的	-10.9564
四十	-10.9564
每人	-10.9566
思索着	-10.9567
的称呼	-10.9567
叫来	-10.9571
她竟然	-10.9571
郁	-10.9572
犯的罪	-10.9574
迟到	-10.9577
叫你	-10.958
粗俗	-10.9581
这里是	-10.9581
靠我	-10.9583
安排好	-10.9586
只知道	-10.9588
神父说	-10.9588
的一笔	-10.959
她用一种	-10.9592
请求她	-10.9594
那些最	-10.9594
都能见到	-10.9595
外省的	-10.9595
自由党的	-10.9596
就是为了	-10.9597
让这个	-10.9602
世俗的虚荣	-10.9603
三百法郎	-10.9606
送了	-10.9608
老年	-10.9609
我竟然	-10.961
得比	-10.9611
服从了	-10.9611
见面了	-10.9611
缺点	-10.9612
贵的	-10.9612
视他	-10.9614
禁止我	-10.9616
她一边	-10.9622
我对您	-10.9622
那里的	-10.9622
我总是	-10.9622
坐在于连	-10.9624
了一半	-10.9628
在四	-10.9631
是维鲤叶	-10.9636
买卖	-10.9637
一走	-10.9639
的审判	-10.9639
个办法	-10.964
而生的	-10.964
这个可爱的	-10.9644
有趣的	-10.9645
的社会地位	-10.9645
的喜	-10.9646
不起来	-10.9649
才把	-10.965
我不可能	-10.9651
了回来	-10.9651
可要	-10.9652
是怎么	-10.9653
的妇女	-10.9653
他将要	-10.9654
入了	-10.9655
进行了	-10.9656
两三位	-10.9656
星期天	-10.9657
现出一股	-10.9657
跑了	-10.9658
一开始	-10.966
在监狱门	-10.9665
给你写	-10.9665
着了	-10.9667
成为笑柄	-10.9668
的赞美	-10.967
所产生的	-10.9671
贴着	-10.9675
更为有趣	-10.9675
他们之间	-10.9679
动身去	-10.9681
陪审团	-10.9681
把他抛	-10.9682
没有成功	-10.9682
▁这个念头	-10.9683
勃勃	-10.9685
当他们	-10.9686
天国	-10.9687
但是没有	-10.9687
他便会	-10.9689
的眼中	-10.9691
府邸里	-10.9691
▁趣	-10.9692
得到的幸福	-10.9692
写上	-10.9694
我太	-10.9695
▁副	-10.9698
他一生中	-10.9699
尽了	-10.9702
更令	-10.9705
我的手	-10.9706
年前	-10.9708
找他	-10.971
详情	-10.9713
▁子里	-10.9715
他怀着	-10.9715
竭力想	-10.9717
邀请他	-10.9718
于连不禁	-10.9718
转来	-10.9719
修道院里	-10.9721
曾经向	-10.9722
于连问	-10.9724
这些就是	-10.9727
的推理	-10.9727
爱情和	-10.973
▁正当	-10.9733
写在	-10.9735
▁受	-10.9736
他为自己	-10.9736
看得出	-10.9736
嫉妒他	-10.9737
与人	-10.9739
报复的	-10.9739
使于连觉得	-10.974
他变得	-10.9741
的乡下人	-10.9741
现实的	-10.9741
的同情	-10.9743
我确实	-10.9746
把信	-10.9749
的猎	-10.9755
的发展	-10.9755
错误的	-10.9757
他一眼	-10.9758
一团	-10.9761
肯定能	-10.9761
的谈吐	-10.9767
您说话	-10.9768
他忽然	-10.9772
他的同学	-10.9775
运气	-10.9776
接到一封	-10.9779
的文	-10.9791
的装	-10.9793
可以在	-10.9797
一处	-10.9799
侯爵对	-10.9799
这个新	-10.9801
于连从未	-10.9801
他说道	-10.9802
我一直	-10.9803
砍头	-10.9804
基督	-10.9804
他的野心	-10.9805
府的	-10.9806
的薪金	-10.981
在生	-10.9811
于连身	-10.9813
像德	-10.9815
西班牙人	-10.9818
她总是	-10.9818
三者	-10.9819
他全部	-10.9819
在第一	-10.9819
为了让	-10.9819
他的心灵	-10.982
我要您	-10.9825
又是一个	-10.9826
扔了	-10.9826
她一定	-10.9831
肮脏	-10.9832
她听见	-10.9834
自己已	-10.9834
我害怕	-10.9835
连看	-10.9835
我并不	-10.9835
于此	-10.9837
办的	-10.9841
不太	-10.9841
年轻牧师	-10.9846
他对此	-10.985
万事	-10.9852
他一边	-10.9853
的对手	-10.9854
他的头发	-10.9854
想想看	-10.9858
他那双	-10.9858
子和	-10.9859
谈论政治	-10.986
教给	-10.9862
二百	-10.9865
到维鲤叶去	-10.9866
与您	-10.9867
为了您	-10.9869
一带	-10.9871
的积蓄	-10.9871
这原是	-10.9872
跟他说话	-10.9872
我过去	-10.9872
过果园	-10.9872
去巴黎	-10.9876
友情	-10.9879
她立刻	-10.9879
▁白	-10.9879
这只	-10.9884
▁接下来	-10.9889
除非他	-10.9894
但还	-10.9898
气恼地	-10.9899
的府邸	-10.9899
脚边的	-10.99
约有	-10.9903
他看出	-10.9904
对于这种	-10.9908
丈夫的	-10.9909
我的家庭	-10.9911
害怕了	-10.9911
的一句话	-10.9912
侯爵说	-10.9913
的服饰	-10.9918
平淡无奇的	-10.992
将来会	-10.992
在宫廷里	-10.9921
▁慢	-10.9923
你这样	-10.9924
他沉思	-10.9925
把爱丽莎	-10.9928
▁辱	-10.9929
她真的	-10.9929
这一位	-10.993
的风流	-10.9931
自从他	-10.9932
▁信件	-10.9934
仍然是	-10.9941
浪漫	-10.9946
要求您	-10.9949
这便是	-10.9951
的才智	-10.9951
完美的	-10.9954
架梯子	-10.9958
围墙的	-10.9958
看到自己	-10.9965
的恶	-10.9966
又开始	-10.9969
嘲笑他	-10.9975
穷人的	-10.998
我爱	-10.9981
产业	-10.9988
的健康	-10.999
的愿望	-11.0019
找到了	-11.0019
也要	-11.0024
不会忘记	-11.0027
给她	-11.0031
他们用	-11.0031
握	-11.0042
给她的	-11.0046
不久前	-11.0048
位君王	-11.0048
以后会	-11.0051
会说出	-11.0052
在吃	-11.0053
▁自己说	-11.0056
周身	-11.0057
有一双	-11.0059
的小小的	-11.0059
暗的	-11.0061
灵的	-11.0067
开始了	-11.0073
敬爱	-11.0078
我今天	-11.008
的职业	-11.0081
就是说	-11.0086
他从来	-11.0086
冷漠地	-11.009
然而这	-11.0091
家的	-11.0093
位置上	-11.0093
从马上	-11.0096
他对她	-11.0097
普通	-11.0099
于连还是	-11.01
和于	-11.0101
此刻他	-11.0106
▁兵	-11.0108
他马上	-11.0111
的礼服	-11.0116
想到她	-11.0121
对于于连	-11.0122
不提及	-11.0124
铁锤	-11.0124
苍白了	-11.0126
将所有	-11.0127
▁世纪	-11.0131
要走	-11.0138
了决心	-11.0138
十七	-11.014
人决斗	-11.0142
那时他	-11.0143
不过您	-11.0144
贺拉斯的诗	-11.0148
▁于连注意到	-11.0149
可怜人	-11.0151
▁晚饭	-11.0153
▁不会	-11.0158
的平	-11.0158
的走廊	-11.0158
▁动了	-11.0159
感谢您	-11.0159
死在	-11.0162
▁这话	-11.0165
于连的爱情	-11.0166
这妇人	-11.0171
增长了	-11.0173
而现在	-11.0173
在这位	-11.0176
实地	-11.0198
他真是	-11.0204
家里去	-11.0205
的灰	-11.0211
我的生活	-11.0211
博学的	-11.0212
使夫人	-11.0217
落了	-11.0219
一个儿子	-11.0223
我发	-11.0225
把一切	-11.0234
一天的	-11.0234
虚荣心	-11.0236
他朝	-11.0239
见我	-11.024
高山的	-11.0245
一会	-11.0246
他身体	-11.025
▁而于连	-11.0251
上下	-11.0252
我们就	-11.0255
也许将来	-11.0256
的少	-11.0257
她是个	-11.0259
于连的眼神	-11.026
不那么	-11.0263
现在是	-11.0263
于连心中	-11.0266
他拿	-11.0266
为了避免	-11.0268
的风	-11.0269
机器	-11.0275
没能	-11.0277
贫穷	-11.0277
你已经	-11.0278
什么坏	-11.028
他这	-11.0284
▁晚	-11.0284
事的	-11.0285
;“	-11.0287
走向	-11.0288
分给	-11.0293
我原以为	-11.0295
的杀人犯	-11.0297
在每	-11.0301
▁愉快	-11.0304
实在是	-11.0306
主教在	-11.0308
的阴	-11.0309
从自己	-11.0312
▁圣	-11.0313
的父亲是	-11.0315
他们也	-11.0317
这个办法	-11.0323
才明白	-11.0323
那个阶级	-11.0327
▁质	-11.0328
▁所谓	-11.0329
他一定会	-11.0333
你如果	-11.0335
如今他	-11.0336
的钟声敲响	-11.034
东西的	-11.0346
能得到	-11.0347
没有看见	-11.035
人们对	-11.0351
只因为	-11.0359
不耐烦地	-11.0364
的想象	-11.0365
激起的	-11.0365
他的母亲	-11.0368
没有你	-11.0372
▁性的	-11.0376
于连也	-11.0376
胳臂	-11.0381
路易十	-11.0384
宏	-11.0385
▁音	-11.0385
作他的	-11.0385
您也	-11.0392
九十	-11.0395
看见过	-11.0399
为人所	-11.04
难道她	-11.0405
第三	-11.041
心上	-11.041
独处	-11.0417
只是因为	-11.0419
一个非常	-11.0421
想来	-11.0423
这点	-11.0426
亲眼	-11.0427
的经历	-11.0441
的光景	-11.0443
级	-11.0443
他竟	-11.0447
有钱	-11.0453
把钱	-11.0456
力图	-11.0456
应有的	-11.0458
而没有	-11.046
到了顶点	-11.0463
的仪表	-11.0468
在图书室里	-11.0469
▁随便	-11.0469
要离开	-11.047
他整个	-11.0471
出八百法郎	-11.048
▁了自己	-11.0484
日子里	-11.0485
猜不	-11.0486
▁无	-11.0488
要和他	-11.0495
拉斯	-11.0497
在一	-11.0497
▁盖	-11.0498
的仪	-11.0499
如果这	-11.0502
送来的	-11.0504
一大群人	-11.0504
得上	-11.0518
很想	-11.0519
像开	-11.0525
她现在	-11.0526
和玛蒂尔德	-11.0526
的热	-11.0536
那么于连	-11.0537
己	-11.0541
的床	-11.0541
他稍微	-11.0551
▁受到	-11.0552
留了	-11.0553
▁线	-11.0555
▁母亲	-11.056
▁可笑	-11.0568
两次	-11.0569
尤其是当	-11.0574
有学问	-11.0576
可疑的	-11.0576
有权势的人	-11.0577
法郎的	-11.0581
和爱	-11.0584
肯定	-11.0584
▁泪	-11.0585
地提出	-11.0589
恨他	-11.0591
▁王	-11.0596
在他眼前	-11.0599
▁一切的	-11.06
惊恐地	-11.0607
她不	-11.0614
只要他	-11.0617
英雄	-11.0623
他们对	-11.0623
主教向	-11.0631
是毫无	-11.0631
通往	-11.0639
显著	-11.064
的见解	-11.065
的好心	-11.0654
而且还	-11.0654
▁丽	-11.0661
▁女人	-11.0662
▁成	-11.0669
纸片上	-11.067
但是您	-11.0678
▁所有	-11.0681
谴责	-11.0683
子弟	-11.0685
情夫	-11.0694
对金钱的	-11.0708
的水	-11.0712
于连走过	-11.0722
的岩石	-11.0724
他也无法	-11.0725
▁主人	-11.0726
不离开	-11.0731
总要	-11.0734
▁光	-11.0738
里了	-11.0739
▁比较	-11.074
的钱	-11.0741
我的一切	-11.0744
▁管	-11.0748
是啊	-11.0752
声誉	-11.0754
要我	-11.0769
那张	-11.0769
魅力	-11.0771
无礼的	-11.0777
▁成了	-11.078
这使	-11.0781
▁遍	-11.0788
带进	-11.0789
▁般	-11.079
▁所有的人	-11.0795
饶恕了他	-11.0796
圣洁	-11.0797
的名	-11.0797
的阶级	-11.0801
▁玛蒂尔德小姐	-11.081
尽管她	-11.0812
于连立刻	-11.0813
他凝视	-11.0813
起了作	-11.0817
就应该	-11.082
▁月	-11.082
能够在	-11.0822
小事	-11.0824
但是他们	-11.0825
的天气	-11.0825
她的爱情	-11.0825
为他们	-11.0828
的语调说	-11.0829
里等	-11.0829
以她	-11.084
附有	-11.085
能看到	-11.085
在某	-11.0858
教士们的	-11.0859
这个坏蛋	-11.0861
于连继续说	-11.0865
是什么样的	-11.0865
▁至	-11.0868
的跟前	-11.0873
侯爵在	-11.0874
▁啦	-11.0874
像个	-11.0875
回到自己	-11.0879
▁众人	-11.088
几句	-11.0885
▁未来的	-11.0887
一匹	-11.089
感动了	-11.0895
▁鲤叶	-11.0897
于连经过	-11.0898
它是	-11.0899
文雅的	-11.0901
的考	-11.0912
▁已	-11.0913
桌上	-11.0916
▁钟	-11.0917
▁份	-11.0921
的折磨	-11.0924
责备我	-11.0927
送我	-11.0929
的响声	-11.0935
▁之外	-11.0939
还不知道	-11.0941
侯爵又	-11.0943
早已把	-11.0945
马上离开	-11.0954
抬起眼睛	-11.0959
▁勇气	-11.096
▁沉	-11.0961
▁犯	-11.0963
▁几天	-11.0966
理的	-11.0967
你的于连	-11.0969
是白费	-11.0981
▁为着	-11.0982
神父又	-11.0989
我便	-11.0994
就从	-11.0997
了一件	-11.0999
落下	-11.1
十个苏	-11.101
前来	-11.1018
着自己的	-11.1018
有这样的	-11.102
祝贺他	-11.1034
▁很大	-11.1039
没有什么可	-11.1039
特的	-11.1045
两三个	-11.1049
芒	-11.1052
他的眼睛	-11.1055
要疯	-11.1068
是你	-11.107
四年	-11.1072
他向自己	-11.1076
就等于	-11.1078
合适的	-11.1079
摆出	-11.1083
非常高兴	-11.1087
他会对	-11.109
重新开始	-11.1091
上流社会的	-11.1092
于连有	-11.1102
英勇的	-11.1105
她有着	-11.1106
不安的	-11.1108
河岸	-11.1109
出名的	-11.1112
几个月	-11.1113
他们从	-11.1119
的确是	-11.1127
人的眼神	-11.113
▁巴	-11.1133
可言	-11.114
他去	-11.1147
接待	-11.1154
和这个	-11.116
儿的	-11.1168
引人	-11.1173
会得到	-11.1175
猜想	-11.1177
赴宴	-11.1179
▁早上	-11.118
他的头	-11.1182
他承认	-11.1182
外出	-11.1186
的才华	-11.1186
感到了	-11.1195
最大	-11.1197
下贱	-11.1199
▁宗教	-11.1199
要当	-11.1209
我走	-11.121
出声	-11.1216
▁的事	-11.1221
并对	-11.1221
▁走进	-11.1224
▁为了	-11.1228
可是她	-11.1235
了一声	-11.1246
不愁	-11.1248
得体	-11.1249
给您送来	-11.1252
饶	-11.1256
▁端	-11.1263
讲的	-11.1264
保护者	-11.1264
的政治	-11.1265
一位老	-11.127
的力气	-11.1275
是以	-11.1277
幻觉	-11.1279
▁身	-11.1287
着眼泪	-11.1288
▁张	-11.1299
▁举	-11.1301
他常	-11.1303
亲密的	-11.1305
监狱里	-11.1307
的荣耀	-11.1308
用的是	-11.1308
没有一个	-11.1309
他脸上	-11.1313
给人	-11.1313
在他的脸上	-11.1317
为什么他	-11.1322
他方才	-11.1323
▁不愿意	-11.1329
他虽然	-11.1332
的学生	-11.1333
出一副	-11.1335
的薪	-11.1335
五尺	-11.1349
恶魔	-11.136
的目	-11.1362
呈现出	-11.1372
她十分	-11.1372
▁如果	-11.1375
他这时	-11.1377
▁数	-11.1378
你有	-11.1381
其后	-11.1383
入神学院	-11.1383
▁瓦	-11.1395
要执行	-11.1399
我们要	-11.1402
他就是	-11.141
我们可以	-11.141
一想到	-11.1411
无力	-11.1413
到这里	-11.1415
机警	-11.1419
▁已经	-11.1422
亲吻她的手	-11.1425
于连让他	-11.1426
她还是	-11.1433
过时	-11.1442
过来的	-11.1443
弟	-11.1449
别了	-11.145
▁骂	-11.1455
本地的	-11.1456
痛哭	-11.1457
想起了	-11.1461
钱包	-11.1468
的院士	-11.1474
▁选	-11.1477
是怎样的一种	-11.1478
人通报	-11.148
拿来	-11.1481
然后再	-11.1483
年以前	-11.1488
软弱的	-11.149
▁他走	-11.1494
▁的种种	-11.1495
我甚至	-11.15
掉他	-11.1502
简单的	-11.1508
但是你	-11.1513
晓得他	-11.1526
有条	-11.1527
得体的	-11.1528
当您	-11.1529
得非常	-11.153
▁不多	-11.1534
冷淡地	-11.1538
下贱的	-11.1538
他自己也	-11.1557
考虑到	-11.1562
放下	-11.1582
的状态	-11.1583
▁孩子们	-11.1587
说说话	-11.1589
慎重的	-11.159
我还能	-11.1592
地看到了	-11.1593
的客人	-11.1596
我以	-11.1596
是有	-11.1603
雷纳耳夫人会	-11.1603
同时又	-11.1603
的蠢事	-11.1625
走近他	-11.1627
什么东西	-11.163
会说	-11.1639
的母亲	-11.1642
才对	-11.1645
祷告	-11.1648
▁侯爵夫人	-11.1655
▁亮	-11.1662
▁直到	-11.1674
▁刚才	-11.1676
侯爵用	-11.1678
事情的	-11.1681
一点也	-11.1686
们不	-11.1691
野心勃勃	-11.1692
▁朋友	-11.1711
▁具有	-11.1713
▁会被	-11.1717
我为什么不	-11.1726
娶她	-11.1726
▁等	-11.1727
打动	-11.173
已不能	-11.1733
人所谓	-11.1743
快结束	-11.1747
没有去	-11.1747
觉得十分	-11.1748
没有把	-11.175
过的	-11.1761
觉得很	-11.1766
写下	-11.177
受人尊敬的	-11.1771
让别人	-11.1776
现出一副	-11.178
再去	-11.1783
来到了	-11.1785
活着不	-11.1788
甚至可以	-11.179
住了他	-11.1792
一个字	-11.1798
▁她的手	-11.1802
的可怕的	-11.1807
▁仍然	-11.1812
▁此	-11.1818
并且他	-11.1819
她身旁	-11.1828
您一定	-11.1837
难道不	-11.1842
▁跳	-11.1843
巴黎来	-11.1851
看见一个	-11.1858
他全	-11.1865
来给我	-11.1876
没有丝毫	-11.1878
的人都在	-11.188
穷人	-11.1884
视作是	-11.1887
躯	-11.1888
我同意	-11.1892
致命的	-11.1903
我所	-11.1908
小心谨慎	-11.1911
对我们的	-11.1913
在这样	-11.1926
如果于连	-11.1934
于连一直	-11.1942
教士们	-11.1943
在餐桌	-11.1948
▁妻子	-11.1949
断我的	-11.1954
钟头	-11.1956
点儿	-11.1961
不过于连	-11.1967
抬起	-11.1968
去世	-11.1969
也不能	-11.197
期的	-11.1975
深深地	-11.1978
二十年	-11.198
他的哥哥	-11.1987
自豪的	-11.1991
的窗	-11.1993
被一个	-11.1999
▁的目光	-11.2006
腔调	-11.2007
是够	-11.2008
正像	-11.2014
那么我	-11.2019
使玛蒂尔德	-11.202
要用	-11.2022
下了	-11.2023
信是	-11.2028
死后	-11.2029
做丈夫	-11.203
告诉你	-11.203
他经过	-11.203
人看了	-11.2036
稀	-11.2045
封信给	-11.2047
他非常	-11.2061
说话时	-11.2066
受伤	-11.2068
天使	-11.207
爱情的	-11.2073
制的	-11.2076
公正地	-11.2079
在果园	-11.2085
他的儿子	-11.2086
谴责的	-11.2087
存的	-11.2102
于连将	-11.2102
的母亲在	-11.2104
他得到	-11.2105
微不足道的	-11.2108
雇佣	-11.2113
二十四	-11.2114
听得	-11.2117
按照他	-11.212
▁自从	-11.2128
跳到	-11.2129
天两次	-11.2138
什么人	-11.2138
显著的	-11.2138
▁它	-11.2139
她被	-11.2139
你的心	-11.2153
能使人	-11.2158
找到的	-11.2162
的清	-11.2162
誓言	-11.2165
八百法郎	-11.2171
他恨	-11.2176
最后一	-11.2178
如果他们	-11.2179
诺言	-11.2179
▁这儿	-11.2183
因此在	-11.2188
个农民	-11.2189
远没有	-11.2191
接着他	-11.2193
▁姑娘	-11.2193
雷纳耳夫人觉得	-11.2194
送去	-11.2195
个儿的	-11.2195
忠诚	-11.2197
▁对于连	-11.2199
小人	-11.2208
鼻子	-11.2212
▁绝	-11.2215
▁条	-11.2216
的皮拉尔神父	-11.2217
时时	-11.2222
事实是	-11.2222
职业	-11.2228
极少	-11.2235
确实是	-11.224
雷纳耳先生家	-11.224
图书室里	-11.2241
他完全	-11.2249
责备他	-11.2251
的容貌	-11.2252
是可	-11.2261
使于连感到	-11.2269
扮演一个	-11.2271
精明的人	-11.2282
于连像	-11.2284
▁显然	-11.2287
小子	-11.2289
一大群	-11.2296
第四	-11.2297
就有	-11.2299
是极	-11.2306
感到痛苦	-11.2315
的微	-11.2329
不愉快的	-11.2339
这枚十字勋章	-11.2339
在她看	-11.2342
这片	-11.2342
她的女儿	-11.2343
奸细	-11.2347
颇有	-11.235
自命不凡	-11.235
事已	-11.2352
因为于连	-11.2354
▁请	-11.2357
▁礼	-11.2359
信的	-11.2362
模	-11.2366
坚强的	-11.2368
的做法	-11.2372
如果她	-11.2377
的愚蠢	-11.238
▁任	-11.2383
惊讶地	-11.2384
的光彩	-11.2389
冷酷的心	-11.2405
监	-11.2409
夫人的	-11.2415
▁如果您	-11.2419
▁表	-11.242
跨进	-11.2425
▁诺贝尔	-11.2426
尔诺	-11.2427
他们要	-11.2428
派的	-11.2433
▁娘	-11.2436
全般	-11.2436
留意	-11.2436
五年	-11.2448
的报纸	-11.2449
▁实	-11.2451
快乐得	-11.2458
危险的	-11.246
朴素的	-11.2492
他们认为	-11.25
▁低	-11.2511
二层楼	-11.2512
全部思想	-11.2523
几个孩子	-11.2524
目瞪口呆	-11.2529
贫穷的	-11.2536
只怕	-11.2536
露了	-11.254
第九	-11.2545
钱的	-11.2548
我比	-11.256
得那么	-11.256
先生是	-11.2562
阶级的人	-11.2565
做到	-11.2569
于连的身上	-11.2571
看见她	-11.2577
人要	-11.258
我正在	-11.2584
会给人	-11.2593
我一样	-11.2595
他从来不	-11.2603
低沉	-11.2613
后来他	-11.2621
下眼泪	-11.2621
概念	-11.2623
然而在	-11.2626
眼睛都	-11.2627
却不能	-11.2632
成功的	-11.2634
的脚	-11.2641
出名	-11.2647
不相信	-11.2656
隐藏	-11.266
明天我	-11.2666
黑牢里的	-11.2666
▁便	-11.2669
心目中	-11.2677
年轻女子	-11.268
关切	-11.2684
▁散	-11.2689
这个地方	-11.269
您应该	-11.269
崇高的	-11.2691
把他叫	-11.2691
邪恶的	-11.2694
是那	-11.2702
他不是	-11.2703
▁常的	-11.2711
▁特	-11.2712
同学们	-11.2716
弃儿	-11.2735
认为您	-11.2737
肩膀上	-11.2737
可以看见	-11.2738
见不到	-11.2742
是我们	-11.2746
您就是	-11.2747
▁爵的	-11.2755
▁这时候	-11.2757
▁一起	-11.2758
对那些	-11.2761
不能够	-11.2768
的铁锤	-11.2768
看到这	-11.2769
惊讶的是	-11.277
也没	-11.2781
到另一	-11.2791
因为我们	-11.2793
住到	-11.2793
了那	-11.2796
住在六层楼上	-11.28
拎	-11.2803
干了	-11.2805
乡人	-11.2806
就足以	-11.2813
回答她	-11.282
地离开	-11.282
十五	-11.282
会让	-11.2822
也感到	-11.2827
的卧室	-11.2827
从中	-11.2828
想象着	-11.2833
独自一人在	-11.2834
他并没有	-11.2837
地注意到	-11.2839
您相信	-11.2843
我与	-11.285
座高山	-11.2851
能当	-11.2851
甚至对	-11.2853
的平民	-11.2855
于连性格	-11.2861
▁叫	-11.2863
二十来	-11.2864
▁比	-11.2867
之间有	-11.287
适当的	-11.2878
是听	-11.2889
▁应	-11.2891
手放在	-11.2894
也只有	-11.2896
假如我	-11.2898
都无法	-11.29
的冷酷	-11.2904
要抓	-11.2905
普通的	-11.2907
极大	-11.2911
就远远	-11.2917
他们一定	-11.2918
就到	-11.2926
因为我的	-11.2927
了一副	-11.2928
和其他	-11.2934
乌黑的	-11.2937
的俏皮话	-11.2939
▁听见	-11.2942
个苏	-11.2946
▁发现	-11.2947
她知道	-11.2954
位夫人	-11.2959
不再是	-11.296
着脸	-11.2969
去自杀	-11.2973
的语调	-11.2978
我这儿	-11.298
将是	-11.2986
的住宅	-11.2988
会给	-11.2988
一架梯子	-11.2992
笑了起来	-11.2994
他们可以	-11.2997
竟然不	-11.2999
侯爵感到	-11.3001
语调	-11.3002
浪漫的	-11.3004
在巴	-11.3006
九年	-11.3015
杀死我	-11.3015
的水平	-11.3017
路上	-11.3018
在罗马	-11.3021
▁言	-11.3033
的神学士	-11.3034
男子汉	-11.3036
是别人	-11.3041
上空	-11.3046
服饰	-11.3048
耻辱	-11.3055
使自己	-11.3056
太好了	-11.3058
多少有点	-11.3061
促使	-11.3066
不关心	-11.3068
几乎每天	-11.3068
看着他	-11.3072
细小	-11.3079
了所有的	-11.309
口才	-11.3099
却有	-11.3099
不合适的	-11.3109
人认为	-11.3111
给你的	-11.3112
一个年轻	-11.3114
大包	-11.3115
恰当	-11.3117
▁府	-11.3118
它们在	-11.3122
▁玛蒂尔德对	-11.3123
但也	-11.313
的大臣	-11.3135
给孩子们	-11.3145
没有什么不	-11.3145
教义	-11.3146
引起的	-11.3147
▁有什么	-11.3147
能给他	-11.3154
讲道	-11.3154
那么容易	-11.3155
一定有	-11.3162
接到	-11.3169
了他自己	-11.317
古罗马	-11.3172
使馆	-11.3186
的仇恨	-11.3194
题	-11.3197
午后	-11.3214
我实在	-11.3216
年轻学生	-11.3226
▁惊	-11.3238
雷纳耳先生正	-11.3243
要命	-11.3256
事务的	-11.3263
今天早上	-11.3268
受不了	-11.3271
指责	-11.3278
摔倒	-11.3278
告发	-11.328
了一名	-11.328
只不过是	-11.3284
是于连	-11.3289
驾	-11.3292
表达	-11.3304
我们是	-11.3305
显现	-11.3305
您有	-11.3311
送你	-11.3314
丑恶的	-11.3322
也可	-11.333
的家里	-11.3331
了两个	-11.3333
的许多	-11.3334
的详情	-11.3335
我死	-11.3336
朋友福盖	-11.3338
由于一个	-11.3338
个仆人	-11.3339
做的事	-11.334
了许多	-11.3342
王国	-11.3344
到教堂	-11.3347
哪儿	-11.3347
天堂	-11.3356
茂的	-11.3357
的诗句	-11.3358
一口气	-11.336
像片	-11.3363
威严的	-11.3366
子里	-11.3366
的火焰	-11.3369
额头	-11.3371
年轻的师傅	-11.3371
我们应该	-11.3379
的遐想	-11.3386
本性	-11.3387
使侯爵	-11.339
桩	-11.3392
▁维鲤叶	-11.3394
白色的	-11.3395
一直把他	-11.3397
笑柄	-11.3402
了下去	-11.3403
看不出来	-11.3405
封匿名信	-11.3406
▁正是因为	-11.3408
春天	-11.3415
把您的	-11.3421
合同	-11.3422
掉它	-11.3423
疯	-11.3426
爱情是	-11.3427
抛到	-11.3428
沉沉	-11.3433
的买卖	-11.3433
▁求	-11.3436
还会有	-11.3438
标	-11.3439
上流	-11.344
站立在	-11.344
他心头	-11.3441
的礼物	-11.3443
▁这样	-11.3444
接受了	-11.3447
间的	-11.3447
眼见	-11.3449
的谨慎	-11.3451
补充	-11.3459
是那个	-11.3463
对手	-11.3467
大道	-11.3469
不行	-11.3469
我想把	-11.3472
自然的	-11.3477
副行政长官查	-11.3478
了出去	-11.348
的猛烈	-11.3481
我当时	-11.3484
热恋	-11.3485
式的	-11.3486
他的爱情	-11.3487
妇	-11.3488
诵	-11.3491
天早上	-11.3493
他成功	-11.3494
决斗的	-11.3495
的缺点	-11.3497
不可思议	-11.3501
原是他	-11.3502
诗句	-11.3503
新来的	-11.3506
的冷淡	-11.3507
却也	-11.3515
▁不久	-11.3516
分离	-11.3518
烈的感情	-11.3519
邀	-11.3523
勃勃的	-11.3526
烦恼的	-11.3527
备	-11.3528
请他吃饭	-11.353
皮拉尔神父一	-11.3535
很快地	-11.3543
为此而	-11.3545
四十八	-11.3545
当我的	-11.3547
能理解	-11.3551
发光	-11.3553
而她却	-11.3557
跟我的	-11.356
自由的	-11.3563
低低	-11.3566
我从来	-11.3567
听听	-11.3567
补充说道	-11.3568
不过了	-11.3569
厅	-11.3571
▁如	-11.3571
于连正在	-11.3576
我一个人	-11.3576
狱	-11.3581
灵性	-11.3582
已成为	-11.3583
庭院	-11.3588
的眼	-11.3589
最为	-11.359
要多	-11.3603
我一起	-11.3604
纪	-11.3606
炫耀他的	-11.3606
但没有	-11.361
百次	-11.3611
要亲自	-11.3612
富于	-11.3613
神学院学生的	-11.3615
舒	-11.3618
钱的时候	-11.3621
慕	-11.3621
究	-11.3621
材	-11.3624
后又	-11.3624
誓	-11.3625
帘	-11.3627
阿道儿夫	-11.3629
祸	-11.3629
国王陛下	-11.3629
康忒	-11.3629
好不容易	-11.363
石灰	-11.3631
郎	-11.3632
▁知道	-11.3632
稳妥	-11.3632
法衣	-11.3636
跃	-11.3636
庭	-11.3639
▁剩下	-11.3641
和幸福	-11.3643
让给	-11.3644
短短的	-11.3644
时代的	-11.3644
正是因为	-11.3645
平静下来	-11.3645
一千	-11.3647
价值	-11.3649
得太远	-11.365
的歌	-11.3655
加重	-11.3656
朋	-11.3657
▁似的	-11.366
一个男人	-11.3661
的弱点	-11.3667
的动	-11.367
脑袋里	-11.3671
人的尊敬	-11.3672
在西班牙	-11.3683
这一步	-11.3685
连衣裙	-11.3685
将近	-11.3691
誉	-11.3694
找不出	-11.3702
三步远的地方	-11.3703
我感到	-11.3703
地打	-11.3717
雅各宾党人	-11.3717
那双	-11.3717
我们就不	-11.3718
头几天	-11.3719
们先	-11.3719
问你	-11.372
我一生	-11.3723
成员	-11.3724
不过市长	-11.3724
名单	-11.3726
难道这是	-11.3728
他十分	-11.3734
起初	-11.3737
众议	-11.3738
理智的	-11.374
耽搁	-11.3741
没有回答	-11.3742
到监狱	-11.3744
信奉	-11.3746
法文	-11.3748
停留在	-11.3752
有时还	-11.3752
所见	-11.3752
▁他就	-11.3753
临了	-11.3754
专注	-11.3755
有把握	-11.3759
有利	-11.3759
个不	-11.376
▁亮的	-11.3761
拉莫尔小姐有	-11.3768
胸	-11.377
街道	-11.378
因此我	-11.3782
苏	-11.3783
洁白	-11.3794
压着	-11.3794
前曾经	-11.3795
步远的地方	-11.3799
▁桑松	-11.38
让一个	-11.3803
她唯一	-11.3803
却使	-11.3804
冰镇饮料	-11.3808
不考虑	-11.3814
妇女们的	-11.3814
两年	-11.3817
了什么	-11.3818
不定	-11.3819
阴影	-11.3821
海里	-11.3822
间房子	-11.3824
维鲤叶市	-11.3824
此而	-11.3825
旅客	-11.3826
还给	-11.3826
明白他	-11.3829
阿谀	-11.3831
过头来	-11.3831
大大地	-11.3831
丢了	-11.3831
拉莫尔小姐在	-11.3835
我那	-11.3838
可疑	-11.384
都没	-11.3842
跑到	-11.3842
的恭维话	-11.3844
他的话	-11.3846
们的面	-11.3846
的侄子	-11.3847
愚	-11.3849
现实	-11.3859
竟使	-11.3864
是坏人	-11.3864
哪一天	-11.3866
的情人	-11.3866
使我在	-11.3869
二十个	-11.3871
缘故	-11.3875
的家族	-11.3879
坚强的性格	-11.388
伯爵说道	-11.3882
我是个	-11.3885
的高贵	-11.3888
我一	-11.3893
女儿说	-11.3893
实在太	-11.3897
贺拉斯的	-11.3898
的品	-11.3904
爵的	-11.3904
▁誓	-11.3905
把一个	-11.3905
的肩膀	-11.3906
军队里	-11.3908
站起身	-11.3911
地跳	-11.3911
五百	-11.3912
贝桑松来	-11.3916
已成了	-11.3919
他的神	-11.392
▁族	-11.3924
党人	-11.3929
地考虑	-11.3935
绞	-11.3935
瞒	-11.3937
的沉默	-11.3941
属于我	-11.3942
村	-11.3943
惹	-11.3946
惊心	-11.3949
▁感谢	-11.395
雄	-11.3953
厉	-11.3954
于连冷冷地	-11.3955
睡觉	-11.3956
回过	-11.3959
之内	-11.3959
每次都	-11.396
停在了	-11.3961
朝前	-11.3963
▁维尔夫人	-11.3964
惶	-11.3966
外科	-11.3966
估计	-11.3967
意识	-11.3967
是当地	-11.3969
啼	-11.397
信宗教	-11.3971
她心里	-11.3971
您可能	-11.3972
起诉	-11.3972
使你	-11.3973
眼神	-11.3974
树林里	-11.3975
说不	-11.3976
抛弃	-11.3976
梯	-11.398
店主	-11.3981
回到自己的	-11.3981
几个钟头	-11.3985
边的	-11.3986
全身	-11.3988
唤醒	-11.3991
述	-11.3991
的农	-11.3999
琢磨	-11.4001
保留	-11.4003
早一	-11.4005
姿	-11.4005
宝	-11.4006
的小洞	-11.4006
景色	-11.4008
秋天	-11.4008
德库利	-11.4009
收回	-11.4009
而现	-11.4009
疑惑	-11.4009
薹为艹	-11.401
您不会	-11.401
男仆	-11.401
让自己的	-11.401
鲁莽	-11.401
魄	-11.4011
衬衫	-11.4012
无可挑剔	-11.4012
野蛮	-11.4012
睡眠	-11.4012
适宜	-11.4013
密探	-11.4014
速度	-11.4014
原以为	-11.4014
价格	-11.4014
两点	-11.4015
普遍	-11.4015
笔财	-11.4016
心思	-11.4017
走进一	-11.4018
上层社会	-11.4018
堡墙	-11.4018
小路	-11.4019
富丽	-11.4019
遗迹	-11.4021
没有见过	-11.4023
懂	-11.4025
念着	-11.4025
这些可怜	-11.4026
昨	-11.4026
壮丽	-11.4028
皮拉尔神父在	-11.403
甜蜜	-11.4031
情妇的	-11.4032
情感的	-11.4032
荡着	-11.4033
示意	-11.4033
社	-11.4034
于连心里	-11.4039
被任命为	-11.4039
狭	-11.4039
他的眼神	-11.404
夏斯神	-11.4042
统治下	-11.4042
▁始	-11.4042
他的身	-11.4044
本堂	-11.4044
表兄	-11.4045
忘	-11.4048
不休	-11.4049
的木板	-11.4049
压倒	-11.4051
八点	-11.4052
团体	-11.4053
预备	-11.4053
作风	-11.4053
他想出	-11.4055
的工钱	-11.4055
仿佛是	-11.4055
的孤儿	-11.4056
饿	-11.4056
▁正在	-11.4056
在人们	-11.4057
连同	-11.4058
鄙	-11.4061
函	-11.4062
口袋	-11.4062
家具	-11.4062
动起	-11.4063
座位	-11.4064
尽可能	-11.4067
是个傻瓜	-11.4068
沉醉	-11.4068
曾在	-11.4068
百法郎	-11.4069
黑暗中	-11.4069
比这更	-11.4069
无知	-11.4069
高山	-11.4073
坏人	-11.4074
遗忘	-11.4076
抛头露面	-11.4076
多人	-11.4076
但是他的	-11.4076
的人一样	-11.408
揭	-11.408
检察官	-11.4081
辱骂他	-11.4082
天之内	-11.4084
发觉自己	-11.4086
他补充	-11.4086
以至于	-11.4088
笨蛋	-11.4088
停止	-11.4089
六点钟的	-11.4089
这种可怕的	-11.4091
名叫	-11.4091
院议员	-11.4092
他唯一	-11.4092
沉浸	-11.4093
包袱	-11.4095
配不上	-11.4095
突然而来的	-11.4095
惜	-11.4096
满不在	-11.4096
足可	-11.4097
侯爵夫	-11.4098
十九岁	-11.4099
凝	-11.4102
试图	-11.4103
▁的一个	-11.4105
袍	-11.4106
两把	-11.4106
跑过	-11.4106
两步	-11.4108
道的	-11.4109
对玛蒂尔德	-11.4109
▁给她	-11.4113
伍	-11.4114
堕	-11.4117
▁板上	-11.4117
宁可	-11.4118
造就	-11.4118
涅	-11.4118
谋杀人	-11.4118
措	-11.4119
消遣	-11.4119
几乎可以	-11.4119
大家知道	-11.4122
她感觉到	-11.4122
崇拜的	-11.4123
蔽	-11.4125
买下	-11.4126
宜	-11.4126
洞	-11.4127
犹	-11.4127
吐	-11.4127
泄	-11.4128
怎么回事	-11.4128
的穷苦	-11.4129
已不再	-11.4129
已经不再	-11.413
无赖	-11.413
吞	-11.4131
四处	-11.4131
开始时	-11.4132
星	-11.4132
谄媚	-11.4133
远远离开	-11.4133
推门	-11.4134
镶	-11.4134
几个字	-11.4134
美丽的眼睛	-11.4135
访	-11.4136
功	-11.4137
靴	-11.4138
挂	-11.4138
负	-11.414
在社	-11.414
挡住	-11.414
亭	-11.4141
▁己说	-11.4141
另一方面	-11.4141
悄悄	-11.4141
身边的一个	-11.4142
廊	-11.4142
资	-11.4142
去办	-11.4143
行了	-11.4143
慨	-11.4143
赢	-11.4144
杂	-11.4144
球	-11.4144
溢	-11.4144
贫民养育院院长	-11.4145
耻	-11.4145
攫住了	-11.4146
触	-11.4146
渴	-11.4146
迸	-11.4147
!"#$%&	-11.4148
逮	-11.4148
憎	-11.4148
便宜	-11.4148
这所房子	-11.4148
唐博	-11.4149
登记簿	-11.4149
潮	-11.4149
严肃地说道	-11.4149
袋	-11.4149
反复	-11.4149
扛	-11.415
胆量	-11.415
从巴黎来	-11.415
患	-11.415
跪下	-11.415
捏	-11.4151
绅	-11.4151
▁勒奥	-11.4151
灾难	-11.4151
伴随	-11.4152
自尊心	-11.4152
前面	-11.4152
专门	-11.4152
泣	-11.4152
接触	-11.4152
少爷	-11.4152
拒	-11.4152
情愿	-11.4153
得很快	-11.4153
包围	-11.4153
柄	-11.4153
伟大的事业	-11.4154
百年	-11.4154
一枚	-11.4154
于连留下来	-11.4154
痴	-11.4155
可怜虫	-11.4155
得差	-11.4155
拔	-11.4155
穆瓦罗	-11.4155
偷盗	-11.4155
严肃地	-11.4155
到晚	-11.4155
况	-11.4155
耐	-11.4156
到走廊	-11.4156
怨恨	-11.4157
保安官	-11.4157
记忆力	-11.4157
一个礼拜	-11.4157
给我写	-11.4157
描	-11.4157
鲜	-11.4157
伦	-11.4157
彼	-11.4157
裸露	-11.4157
抢	-11.4157
嘉	-11.4157
挖苦	-11.4157
疚	-11.4158
晰	-11.4158
肖纳	-11.4158
冬	-11.4158
歉	-11.4158
阳	-11.4158
庄	-11.4158
拳	-11.4158
有能力	-11.4159
格罗	-11.4159
停下	-11.4159
叙	-11.4159
眸	-11.4159
该怎么	-11.4159
挣	-11.4159
俏皮	-11.4159
正要	-11.4159
茁	-11.4159
衔	-11.4159
秀	-11.4159
减	-11.4159
盒	-11.416
典	-11.416
铁钉	-11.416
夕	-11.416
来得更	-11.416
隔壁	-11.416
诞	-11.416
拆	-11.416
丘	-11.416
验	-11.4161
日耳曼	-11.4161
阻	-11.4161
挡	-11.4161
夏	-11.4161
截	-11.4161
晨	-11.4161
童	-11.4161
嘲	-11.4161
囚	-11.4161
颜	-11.4161
说了些	-11.4161
处境	-11.4161
户	-11.4161
绩	-11.4161
讯	-11.4161
饼	-11.4161
聚集在	-11.4161
交易	-11.4162
是怎么回事	-11.4162
老头儿	-11.4162
零	-11.4162
审讯	-11.4162
他差点	-11.4162
她的母亲	-11.4162
塌	-11.4162
漠	-11.4162
跌	-11.4162
尾	-11.4162
六尺	-11.4162
抑制	-11.4162
眶	-11.4162
苛	-11.4162
卧	-11.4162
廷	-11.4162
纽	-11.4163
的字眼	-11.4163
铅	-11.4163
遥	-11.4163
抑	-11.4163
暴君	-11.4163
督	-11.4163
裁	-11.4163
您认识	-11.4163
讽	-11.4163
驳	-11.4163
择	-11.4163
谊	-11.4163
嫉	-11.4163
恭	-11.4163
荫	-11.4163
前往	-11.4163
逸	-11.4163
欣慰	-11.4163
纤	-11.4163
符	-11.4163
乃	-11.4163
邪	-11.4163
痛打	-11.4163
恕	-11.4163
丹	-11.4163
哈	-11.4163
赫	-11.4163
灭	-11.4163
谧	-11.4163
写了一封	-11.4163
锦缎	-11.4163
尸	-11.4163
腰	-11.4163
就可	-11.4163
喧闹	-11.4163
匀	-11.4164
乖	-11.4164
桑	-11.4164
夜时分	-11.4164
娴	-11.4164
泰	-11.4164
说这话时	-11.4164
悉	-11.4164
弥	-11.4164
攻	-11.4164
虫	-11.4164
帝国	-11.4164
衫	-11.4164
艺	-11.4164
筹	-11.4164
贫民养育院	-11.4164
康	-11.4164
镀	-11.4164
僵	-11.4164
咎	-11.4164
煎熬	-11.4164
枞	-11.4164
涩	-11.4164
葬	-11.4164
▁—$	-11.4164
做着祝福	-11.4164
呕	-11.4164
忡	-11.4164
蚀	-11.4164
姻	-11.4164
法尔科	-11.4164
猾	-11.4164
允	-11.4164
召	-11.4164
羡	-11.4164
努瓦侯爵	-11.4164
捕	-11.4164
上一层	-11.4164
壤	-11.4164
植	-11.4164
永恒	-11.4164
洒	-11.4164
砦	-11.4164
侮	-11.4164
撕	-11.4164
印刷厂	-11.4164
兜	-11.4164
坑	-11.4164
恰恰	-11.4164
悬	-11.4164
的时辰	-11.4164
矛	-11.4164
胆战心惊	-11.4164
淫	-11.4164
迅	-11.4164
械	-11.4164
企	-11.4164
冤	-11.4164
哨	-11.4164
唔	-11.4164
噬	-11.4164
圣约翰	-11.4164
子爵和	-11.4164
寂寞	-11.4164
对我不再适合	-11.4164
彤	-11.4164
才华横溢	-11.4164
水洇	-11.4164
汩	-11.4164
的捷径	-11.4164
的栗树	-11.4164
贝朗瑞	-11.4164
钩	-11.4164
韵	-11.4164
驿站	-11.4164
鹰	-11.4164
的女信徒	-11.4164
盾	-11.4164
逆	-11.4164
陪审员	-11.4164
顽	-11.4164
蜡	-11.4164
▁瓦泽努瓦先生	-11.4164
代风尚的	-11.4164
去练马场	-11.4164
和惬意	-11.4164
奥莱安	-11.4164
威尼斯	-11.4164
布洛涅树林	-11.4164
庆	-11.4164
异议的	-11.4164
悒郁	-11.4164
捞	-11.4164
接踵而来	-11.4164
无依无靠	-11.4164
渗透	-11.4164
牛	-11.4164
的年青人	-11.4164
的措辞	-11.4164
瞎	-11.4164
能言善辩	-11.4164
苹果	-11.4164
莎	-11.4164
褥	-11.4164
贼	-11.4164
崖	-11.4164
康忒州	-11.4164
克鲁瓦泽	-11.4164
精致镂空	-11.4164
一个时辰	-11.4164
一位伯父	-11.4164
一秒钟也	-11.4164
不害臊	-11.4164
丰满而	-11.4164
举手投足	-11.4164
人情世故的	-11.4164
他佯装着	-11.4164
仙	-11.4164
佃户	-11.4164
俱	-11.4164
内心冲突	-11.4164
出门游山玩水	-11.4164
初来乍到	-11.4164
厨房	-11.4164
县	-11.4164
双膝跪	-11.4164
受到鼓励	-11.4164
口授的	-11.4164
同僚们	-11.4164
呵	-11.4164
嚣	-11.4164
堵	-11.4164
天真无邪的	-11.4164
女修道士	-11.4164
她表姊	-11.4164
尔蒂西奥	-11.4164
尽善尽美	-11.4164
屉	-11.4164
山坡	-11.4164
岳	-11.4164
帐篷	-11.4164
幔	-11.4164
庇护	-11.4164
庞大的堡墙	-11.4164
弧	-11.4164
很愉快	-11.4164
心惊胆颤	-11.4164
心神怡荡	-11.4164
心绪烦乱	-11.4164
心醉神迷	-11.4164
恬	-11.4164
战战兢兢	-11.4164
所表现的只是	-11.4164
拂	-11.4164
撇	-11.4164
旗	-11.4164
无时无刻不	-11.4164
无足轻重的	-11.4164
是无稽之谈	-11.4164
普普通通的	-11.4164
暖昧	-11.4164
有影响力的	-11.4164
条胳膊	-11.4164
栏杆	-11.4164
桂冠	-11.4164
梧	-11.4164
橡木	-11.4164
欧洲	-11.4164
每顿八十三生丁	-11.4164
毒蛇	-11.4164
氅	-11.4164
永远洗刷	-11.4164
池塘	-11.4164
没有人注意到他	-11.4164
波若莱	-11.4164
泻	-11.4164
淋	-11.4164
渎	-11.4164
溅	-11.4164
犬	-11.4164
狂热地崇拜	-11.4164
玄	-11.4164
瓦尔诺之流	-11.4164
白费劲	-11.4164
的寝室	-11.4164
的政治生涯	-11.4164
盆	-11.4164
真有本领	-11.4164
稿	-11.4164
粗嗓门	-11.4164
紫罗兰	-11.4164
絮	-11.4164
绊	-11.4164
给于连斟上	-11.4164
绞尽脑汁	-11.4164
绸	-11.4164
翩	-11.4164
老军医	-11.4164
耿耿于怀	-11.4164
能控制自己	-11.4164
艰巨	-11.4164
藤	-11.4164
虞露丝	-11.4164
虽然她素来	-11.4164
衍	-11.4164
被收容者	-11.4164
详尽地	-11.4164
谕	-11.4164
贝桑松年轻妇女们	-11.4164
跑来跑去	-11.4164
输	-11.4164
这位年青	-11.4164
这座军事重镇	-11.4164
迢	-11.4164
迭	-11.4164
邻近的	-11.4164
隙	-11.4164
霸	-11.4164
饥饿	-11.4164
首次提升	-11.4164
驾驭	-11.4164
骑兵	-11.4164
鸿	-11.4164
黯	-11.4164
劫	-11.4164
些稀奇古怪的	-11.4164
缠绵	-11.4164
忌	-11.4164
一个女友	-11.4164
一目了然	-11.4164
万能的天主	-11.4164
不由自主地	-11.4164
与生俱来	-11.4164
个巴瑟斯特勋爵	-11.4164
于连不属于任何一	-11.4164
亲昵的	-11.4164
亵渎宗	-11.4164
他不偷不抢	-11.4164
他犹犹豫豫	-11.4164
他的情妇	-11.4164
他边说边	-11.4164
以礼相待	-11.4164
会被当作一个	-11.4164
但同时又很	-11.4164
侵	-11.4164
俯	-11.4164
倔	-11.4164
公诸于	-11.4164
冒冒失失	-11.4164
十字军东征	-11.4164
向于连讲述了	-11.4164
吼了起来	-11.4164
和昨天晚上	-11.4164
哈哈大笑	-11.4164
哦	-11.4164
哩	-11.4164
嗯	-11.4164
圣母会	-11.4164
在这个年轻神父	-11.4164
坚韧不拔	-11.4164
坠入情网	-11.4164
堆积在	-11.4164
女掌柜的	-11.4164
她掷入	-11.4164
如痴如狂	-11.4164
妆	-11.4164
妒嫉心	-11.4164
委任状	-11.4164
孜孜以求	-11.4164
宇	-11.4164
寐	-11.4164
尖酸刻薄的	-11.4164
干干净净	-11.4164
年迈的	-11.4164
张灯结彩	-11.4164
很大的蓝	-11.4164
忿忿地	-11.4164
怒火中烧	-11.4164
怠慢	-11.4164
恭恭敬敬	-11.4164
您的皈依宗教会	-11.4164
惋惜	-11.4164
惦记着	-11.4164
我爸爸	-11.4164
或者不如说	-11.4164
打台球的人	-11.4164
把它砸开	-11.4164
报了仇	-11.4164
抬头看	-11.4164
接二连三	-11.4164
收效甚微	-11.4164
数不清的	-11.4164
断然拒绝	-11.4164
新建的教堂	-11.4164
是瞎了眼	-11.4164
是雅各宾	-11.4164
显而易见的	-11.4164
更增添了	-11.4164
有钱有势的	-11.4164
木炭	-11.4164
栽	-11.4164
横梁	-11.4164
欺人太甚	-11.4164
欺诈	-11.4164
歧	-11.4164
油	-11.4164
泪流满面	-11.4164
温和地问	-11.4164
焕	-11.4164
爬了上去	-11.4164
狐	-11.4164
狡黠的	-11.4164
玩意儿	-11.4164
畜	-11.4164
疲惫	-11.4164
症	-11.4164
的亲友们	-11.4164
的伯父	-11.4164
的坟墓	-11.4164
的姐夫	-11.4164
的恳挚的	-11.4164
的继任者	-11.4164
的罚金	-11.4164
的行政管理	-11.4164
的身畔	-11.4164
的陶醉	-11.4164
的骂人话	-11.4164
皮埃蒙特的	-11.4164
皮芒泰尔	-11.4164
着深红色	-11.4164
破烂烂的	-11.4164
硬通货	-11.4164
科拉索夫亲王	-11.4164
穿着华丽的仆人	-11.4164
穿蓝礼服的人	-11.4164
紫	-11.4164
绣花拖鞋	-11.4164
胁	-11.4164
背得滚瓜烂熟	-11.4164
膳	-11.4164
苟	-11.4164
荣华富贵	-11.4164
莫测的	-11.4164
菲	-11.4164
萦	-11.4164
蒙弗勒里城堡	-11.4164
蚂蚁	-11.4164
袒	-11.4164
装潢	-11.4164
装腔作势	-11.4164
西克斯特五世	-11.4164
解雇	-11.4164
诺曼底骏马	-11.4164
贮	-11.4164
赔偿	-11.4164
走到大厅中央	-11.4164
踞	-11.4164
载	-11.4164
辅导教师	-11.4164
迎面碰上	-11.4164
近在眼前	-11.4164
这几个字眼儿	-11.4164
追捕蛱蝶儿	-11.4164
郑重地	-11.4164
金羊毛勋章	-11.4164
钞	-11.4164
铿锵	-11.4164
锦	-11.4164
阿尔塞纳	-11.4164
颈	-11.4164
驻那不勒斯使馆	-11.4164
嗦	-11.4164
诅	-11.4164
$"%&	-11.4164
▁!"##$	-11.4164
弟弟那样爱你	-11.4164
无可奉告	-11.4164
热罗尼莫	-11.4164
研	-11.4164
老实人	-11.4164
0	-11.4164
’$	-11.4164
▁$	-11.4164
▁读者也许会	-11.4164
▁贪财	-11.4164
一七九六年意大利	-11.4164
一个小山洞里	-11.4164
一些重要人物	-11.4164
一小笔	-11.4164
一层一层	-11.4164
一次一次地	-11.4164
一言以蔽之	-11.4164
一起奔跑	-11.4164
上上下下	-11.4164
不同寻常的	-11.4164
不啻是	-11.4164
不声不响	-11.4164
不足以表示他们	-11.4164
严厉的惩罚	-11.4164
个地址	-11.4164
中获取	-11.4164
中解救出来	-11.4164
中解脱出来	-11.4164
久久地	-11.4164
也没有停止那种	-11.4164
习以为常	-11.4164
了那么久	-11.4164
二哩路	-11.4164
五十金路易的	-11.4164
五百法郎的汇款	-11.4164
交叉在胸前	-11.4164
人的名字都一无所知	-11.4164
仁慈的	-11.4164
他神魂颠倒	-11.4164
佬的黠猾乖巧	-11.4164
使侯爵感到很高兴	-11.4164
俯瞰维鲤叶	-11.4164
倚靠着	-11.4164
催	-11.4164
僻静的	-11.4164
元	-11.4164
兼备了	-11.4164
凌	-11.4164
凛	-11.4164
几位上议	-11.4164
出人意料	-11.4164
出席这次审判	-11.4164
到美洲去	-11.4164
前在圣心修道院时	-11.4164
区域	-11.4164
卒	-11.4164
去堕落吧	-11.4164
叠	-11.4164
吁	-11.4164
吟	-11.4164
告诫	-11.4164
呱	-11.4164
和蔼可亲	-11.4164
咧	-11.4164
喋	-11.4164
喻	-11.4164
嘻	-11.4164
噙	-11.4164
土豆	-11.4164
圣哲罗姆	-11.4164
圣奥诺雷街的	-11.4164
圣约瑟会	-11.4164
在他父亲的锯木厂	-11.4164
在审判官前	-11.4164
在疾驰着的	-11.4164
壁炉	-11.4164
声音微弱	-11.4164
夜间才	-11.4164
天真纯朴的	-11.4164
奖学金	-11.4164
奥古斯	-11.4164
她的姑妈	-11.4164
她的手搁	-11.4164
妃	-11.4164
姑妈家	-11.4164
婚后生活	-11.4164
学来的一	-11.4164
学神学的学生	-11.4164
宽敞	-11.4164
寥	-11.4164
小方纸片	-11.4164
小铁片	-11.4164
峦	-11.4164
崔巍的	-11.4164
巨响	-11.4164
巨石	-11.4164
市郊	-11.4164
布朗多姆	-11.4164
店定制	-11.4164
庸碌	-11.4164
弦外之音	-11.4164
归功于	-11.4164
彩票局局长	-11.4164
彰	-11.4164
德利尔神父	-11.4164
心头描绘着	-11.4164
心怀嫉妒的人	-11.4164
心窝里	-11.4164
忘得一干二净	-11.4164
忠于职守	-11.4164
忠心耿耿	-11.4164
恪	-11.4164
恶作剧的	-11.4164
想入非非	-11.4164
惴	-11.4164
愠怒	-11.4164
慢腾腾	-11.4164
憧	-11.4164
憬	-11.4164
我也不清楚	-11.4164
我在死亡面前	-11.4164
我所得到的幸福将	-11.4164
戮	-11.4164
打了个胜仗	-11.4164
扔给他的名片	-11.4164
找个机会	-11.4164
拉瓦莱德	-11.4164
拉瓦莱特	-11.4164
拘谨	-11.4164
招摇撞	-11.4164
拟	-11.4164
捏住她的手	-11.4164
捡	-11.4164
掌玺大臣	-11.4164
搁置	-11.4164
搏	-11.4164
搞得轰动	-11.4164
撑腰	-11.4164
教会史等课	-11.4164
敬陪末座的	-11.4164
斥责她	-11.4164
断断续续	-11.4164
日内瓦	-11.4164
时髦的	-11.4164
旷	-11.4164
是一个屠夫	-11.4164
是舞会的皇后	-11.4164
晖	-11.4164
晚晌	-11.4164
晤	-11.4164
晦	-11.4164
最鲜艳的容光	-11.4164
有名望的	-11.4164
有权有势的	-11.4164
有着太多的	-11.4164
杰出人	-11.4164
枉	-11.4164
栩	-11.4164
样蛮横	-11.4164
梳	-11.4164
棘	-11.4164
椅子的靠	-11.4164
橙树和夹竹桃	-11.4164
橡树	-11.4164
正如我们所	-11.4164
比死还	-11.4164
沸腾	-11.4164
洪亮	-11.4164
洽	-11.4164
浅栗色	-11.4164
浆	-11.4164
浑然不	-11.4164
液	-11.4164
渠	-11.4164
温柔贤淑	-11.4164
潜蕴着	-11.4164
炎	-11.4164
煞	-11.4164
煦	-11.4164
燥	-11.4164
爱丁堡	-11.4164
牲	-11.4164
狄	-11.4164
珂	-11.4164
畅	-11.4164
痉挛的	-11.4164
百万富翁	-11.4164
百无聊赖	-11.4164
的一位祖先曾	-11.4164
的任务	-11.4164
的伙食	-11.4164
的光辉	-11.4164
的典型	-11.4164
的得意弟子	-11.4164
的忠告	-11.4164
的文雅之士	-11.4164
的温文尔雅	-11.4164
的盛大典礼	-11.4164
的绘画	-11.4164
的风吹得	-11.4164
直截了当地	-11.4164
直挺挺	-11.4164
直言不讳	-11.4164
真是太傻了	-11.4164
眷	-11.4164
睁开了眼睛	-11.4164
睽	-11.4164
瞅也不瞅	-11.4164
矗	-11.4164
砖	-11.4164
祈祷吧	-11.4164
神情严肃地对他说	-11.4164
神经质地	-11.4164
祥和	-11.4164
禽	-11.4164
穷苦的	-11.4164
穿的衣裳	-11.4164
突如其来	-11.4164
窍	-11.4164
竖	-11.4164
竹杠	-11.4164
笼罩着	-11.4164
糖	-11.4164
纱	-11.4164
纳皮埃	-11.4164
纹	-11.4164
细腻	-11.4164
绘玻璃窗	-11.4164
缜密	-11.4164
署的是	-11.4164
能办到的事	-11.4164
脸上堆起	-11.4164
腌酸	-11.4164
自己爱慕的女人	-11.4164
芸芸众生	-11.4164
英雄气概的	-11.4164
茀	-11.4164
茸	-11.4164
莱图瓦尔的	-11.4164
萨维耶	-11.4164
葡	-11.4164
葡萄牙修	-11.4164
蒙玛特尔	-11.4164
蒲	-11.4164
蛊	-11.4164
衡	-11.4164
表姐妹	-11.4164
见此情景	-11.4164
观察人情	-11.4164
讲给她听	-11.4164
讼诉	-11.4164
诃	-11.4164
试一试	-11.4164
谈论的话题	-11.4164
豪迈	-11.4164
费尔瓦克元帅夫人	-11.4164
赋予	-11.4164
路易十三那样	-11.4164
蹋	-11.4164
身材矮瘦	-11.4164
轻盈	-11.4164
达尔杜弗这个角色	-11.4164
这一时刻是美妙的	-11.4164
这两位妇人	-11.4164
这位新男爵	-11.4164
这段往事	-11.4164
迥然不同	-11.4164
迷失于一种	-11.4164
送上轻罪法	-11.4164
那些威尼斯贵族	-11.4164
那尊小炮	-11.4164
邦	-11.4164
里瓦罗	-11.4164
钝	-11.4164
铜	-11.4164
银行家	-11.4164
阿朗松公爵	-11.4164
阿谀奉承	-11.4164
陆续	-11.4164
陪审官席上方	-11.4164
陵	-11.4164
陶醉的	-11.4164
雅各实党	-11.4164
雾	-11.4164
靡非斯特一	-11.4164
顷刻间	-11.4164
领略到	-11.4164
飞黄腾达	-11.4164
香槟酒	-11.4164
马西莱	-11.4164
骚塞	-11.4164
高级神职人员	-11.4164
高高兴兴	-11.4164
髭	-11.4164
鸽楼	-11.4164
鹿	-11.4164
麦	-11.4164
麻木	-11.4164
黎塞留	-11.4164
的总帐簿上	-11.4164
克扣	-11.4164
厚颜无耻	-11.4164
另一端的	-11.4164
哽咽着	-11.4164
在战场上	-11.4164
御驾	-11.4164
心腹人而	-11.4164
插了一句	-11.4164
田产	-11.4164
的兵士	-11.4164
一个致命的打击	-11.4164
一只兔子	-11.4164
一模一样	-11.4164
万贯家	-11.4164
三十六人的陪审	-11.4164
不会取笑我	-11.4164
不啻有	-11.4164
不屑一顾	-11.4164
不能从他那里	-11.4164
不要对任何人说起这	-11.4164
与职业相适应	-11.4164
两院制	-11.4164
两院院士	-11.4164
个白天和黑夜	-11.4164
人就是这样子的	-11.4164
人高马大	-11.4164
他雇用	-11.4164
优秀的拉丁	-11.4164
伪装	-11.4164
倨傲	-11.4164
值得庆幸的是	-11.4164
偎	-11.4164
像我这样一个	-11.4164
前所未有	-11.4164
历历在目	-11.4164
另外一种更	-11.4164
可怜的勒布吉尼翁	-11.4164
叹为观止	-11.4164
各行各业	-11.4164
吹了声口哨	-11.4164
呜	-11.4164
嘈杂	-11.4164
圆圆的	-11.4164
圣克卢	-11.4164
在侯爵的图书室里	-11.4164
在地牢里	-11.4164
奇异的对照	-11.4164
妒嫉的	-11.4164
妒忌	-11.4164
妩媚秀美的小城市	-11.4164
安排妥当	-11.4164
宥	-11.4164
屁	-11.4164
已引不起	-11.4164
巴结奉承	-11.4164
床铺的薹为艹	-11.4164
得颤栗	-11.4164
忘恩负义	-11.4164
惊奇地发现于连	-11.4164
懒骨头	-11.4164
我今晚注定	-11.4164
我叔叔	-11.4164
我在你身上看到了	-11.4164
我的祖国	-11.4164
打交道	-11.4164
抵御	-11.4164
挨枪子	-11.4164
掘	-11.4164
支撑着	-11.4164
敏感的自尊	-11.4164
教堂里做弥撒	-11.4164
时时提醒自己	-11.4164
是个懦夫	-11.4164
是何等角色	-11.4164
是头一回	-11.4164
是清白无辜的	-11.4164
有了一个重大发现	-11.4164
朦朦胧胧	-11.4164
朱	-11.4164
歉疚	-11.4164
毫无怜悯地	-11.4164
永生的	-11.4164
汝拉山脉	-11.4164
泪水涌出	-11.4164
滑稽	-11.4164
滔	-11.4164
潜伏	-11.4164
热炽	-11.4164
琳	-11.4164
登上了出租马车	-11.4164
白尾海雕	-11.4164
的介绍信	-11.4164
的召见	-11.4164
的屈辱	-11.4164
的懊悔	-11.4164
的探视	-11.4164
的政策	-11.4164
的秉性	-11.4164
省政府的宴会	-11.4164
真心实意	-11.4164
真心诚意地	-11.4164
瞅	-11.4164
穿号衣的仆人	-11.4164
笑容可掬	-11.4164
篱笆后面都	-11.4164
粗暴地	-11.4164
紧紧地攫住了	-11.4164
练习	-11.4164
维尔基埃领地	-11.4164
美第奇	-11.4164
老实巴交的	-11.4164
耽误	-11.4164
聪敏	-11.4164
肝	-11.4164
胸膛	-11.4164
腼腆的	-11.4164
荣誉团勋章	-11.4164
虔诚的圣教徒	-11.4164
补了一句	-11.4164
表示歉意	-11.4164
被拉回到现实	-11.4164
讨他喜欢	-11.4164
诬	-11.4164
谦卑	-11.4164
走来走去	-11.4164
跟他说上几句	-11.4164
跟你们一样	-11.4164
跟她讲过话	-11.4164
轮轻便马车	-11.4164
轻骑兵上尉	-11.4164
辖	-11.4164
这几行字	-11.4164
那个皇帝	-11.4164
那双蓝色的大眼睛	-11.4164
镶花边的白色宽袖	-11.4164
骄傲自大	-11.4164
会成什么样子	-11.4164
怒气冲	-11.4164
每年的收入	-11.4164
清凉的	-11.4164
膳宿	-11.4164
豁	-11.4164
卡斯塔	-11.4164
▁破仑	-11.4164
一五七四年四月三十日	-11.4164
一无所知	-11.4164
下挟着一	-11.4164
个淘气鬼	-11.4164
个阔绰	-11.4164
于连怯生生地	-11.4164
仅剩的	-11.4164
他是优秀的	-11.4164
他的脸涨	-11.4164
会是哪个	-11.4164
倚靠在	-11.4164
光明正大	-11.4164
兴旺	-11.4164
刮	-11.4164
到他家来的	-11.4164
剩余的	-11.4164
剪裁	-11.4164
匆匆走	-11.4164
十二个小时	-11.4164
十五岁时已经	-11.4164
卑鄙污秽的	-11.4164
即便是当	-11.4164
厕所的窗	-11.4164
厦	-11.4164
叉	-11.4164
叛逆的平	-11.4164
吕邦普莱	-11.4164
喜欢她的孩子	-11.4164
在另一间	-11.4164
在柜台上	-11.4164
在这如此豪华的	-11.4164
在这所学校	-11.4164
夸夸其谈	-11.4164
奴颜	-11.4164
她豁然	-11.4164
姆	-11.4164
婚姻大事	-11.4164
宠臣	-11.4164
寥寥数	-11.4164
寿	-11.4164
屈辱的	-11.4164
川	-11.4164
州县	-11.4164
巢	-11.4164
已无可挽回	-11.4164
帷幔	-11.4164
忧伤的	-11.4164
所顾忌	-11.4164
把你们当中两个	-11.4164
拉封丹的	-11.4164
拘束	-11.4164
拜伦勋	-11.4164
挫	-11.4164
挺有意思	-11.4164
推进锯机里	-11.4164
撼	-11.4164
擎	-11.4164
收获了	-11.4164
斜坡	-11.4164
是当代一位	-11.4164
晋升	-11.4164
暑	-11.4164
最珍贵的	-11.4164
杖	-11.4164
柬	-11.4164
檐	-11.4164
毫无意义的	-11.4164
汗	-11.4164
汹	-11.4164
沉沉地睡	-11.4164
沉湎于	-11.4164
浮上他的心头	-11.4164
淳朴	-11.4164
滞	-11.4164
灿烂	-11.4164
牛奶	-11.4164
狭隘	-11.4164
玻璃杯	-11.4164
用这点钱	-11.4164
的安乐	-11.4164
的战略	-11.4164
的耸动	-11.4164
的诙谐	-11.4164
的边缘	-11.4164
盎	-11.4164
着另外一个女人	-11.4164
离地有四	-11.4164
立功名	-11.4164
笃信宗教	-11.4164
簌	-11.4164
缭	-11.4164
羞赧	-11.4164
胳膊肘	-11.4164
自卑感	-11.4164
虐待他	-11.4164
诚恳	-11.4164
跳起舞来	-11.4164
蹈	-11.4164
辅助	-11.4164
这桩有名的案件	-11.4164
迟迟不	-11.4164
鄙弃	-11.4164
重新审阅一遍	-11.4164
面对面地	-11.4164
香的香味	-11.4164
的丰功伟	-11.4164
的初步	-11.4164
一百六十	-11.4164
上前将	-11.4164
个人尊严	-11.4164
他毕竟是个	-11.4164
农家子弟	-11.4164
冰冻	-11.4164
冷冰冰	-11.4164
十个金路易	-11.4164
另外一个世界	-11.4164
召集	-11.4164
吃不下	-11.4164
圣体瞻礼	-11.4164
在歌剧院里	-11.4164
地搂着	-11.4164
多比涅	-11.4164
大喊一声	-11.4164
天性多疑	-11.4164
她往常	-11.4164
她焦躁	-11.4164
延续	-11.4164
抢劫	-11.4164
拙劣的作家	-11.4164
无穷无尽的	-11.4164
桃花木	-11.4164
泛	-11.4164
泥坑	-11.4164
浸湿	-11.4164
点半钟	-11.4164
猥亵	-11.4164
的光泽	-11.4164
的泪珠从	-11.4164
矛盾	-11.4164
类似情	-11.4164
精通拉丁文	-11.4164
纳河畔	-11.4164
绰约的	-11.4164
缓慢地	-11.4164
肃穆	-11.4164
要下地狱	-11.4164
跟你说几句话	-11.4164
转了一圈	-11.4164
还欠我	-11.4164
这第二个	-11.4164
这颗头颅	-11.4164
阳光明媚	-11.4164
雷纳耳和苔维尔夫人	-11.4164
驱逐了	-11.4164
骄傲得不得了	-11.4164
默契	-11.4164
忠厚	-11.4164
九十六团的前少尉	-11.4164
便丧失了	-11.4164
到家里来	-11.4164
博须埃	-11.4164
响起了一阵	-11.4164
在记忆里	-11.4164
夜色降临	-11.4164
失去了平衡	-11.4164
完毕	-11.4164
市府	-11.4164
弟弟	-11.4164
怦	-11.4164
悬崖	-11.4164
懑	-11.4164
我们都知道他	-11.4164
截然相反的	-11.4164
技术	-11.4164
把她紧紧地	-11.4164
昨宵	-11.4164
是个十足的	-11.4164
昼	-11.4164
模范	-11.4164
毕恭毕敬	-11.4164
泄露出来一种他	-11.4164
泪痕	-11.4164
活不下去	-11.4164
烘	-11.4164
烫	-11.4164
狂欢节	-11.4164
狐狸	-11.4164
玩弄阴谋	-11.4164
田野	-11.4164
的准则	-11.4164
的原野	-11.4164
的双腮	-11.4164
的另一端	-11.4164
的同盟	-11.4164
的方案	-11.4164
的求婚	-11.4164
的神奇	-11.4164
的计策	-11.4164
的颜面	-11.4164
相信自己的眼睛	-11.4164
矫揉	-11.4164
磋	-11.4164
良心的谴责	-11.4164
苏丹	-11.4164
荣誉团团员	-11.4164
营救	-11.4164
蜀黍干杆	-11.4164
补助	-11.4164
补救	-11.4164
评判	-11.4164
跟任何人	-11.4164
野猪	-11.4164
金碧辉煌的	-11.4164
钢	-11.4164
锻炼的	-11.4164
零零	-11.4164
顽固	-11.4164
骚乱	-11.4164
季度的薪水	-11.4164
已经很长时间	-11.4164
由自在地	-11.4164
一万瓶	-11.4164
于连从中认出	-11.4164
像莫里	-11.4164
冒失鬼	-11.4164
凡事都	-11.4164
口罗嗦	-11.4164
向任何人	-11.4164
奸淫	-11.4164
实质内容	-11.4164
宿舍	-11.4164
富有想像力的	-11.4164
庆典	-11.4164
廉耻	-11.4164
急急忙忙	-11.4164
惊叹不止	-11.4164
惊惶失色	-11.4164
手抓住了他	-11.4164
手里抽回	-11.4164
是省里最	-11.4164
有发言权	-11.4164
杂着某种	-11.4164
权益	-11.4164
痛苦的煎熬	-11.4164
矫饰	-11.4164
罚款	-11.4164
蓝色的礼服	-11.4164
触犯了	-11.4164
讨人欢心	-11.4164
谦虚	-11.4164
那套黑衣服	-11.4164
锐敏	-11.4164
顶楼上	-11.4164
惯常	-11.4165
挽回了	-11.4165
双颊	-11.4165
呼吸困难	-11.4165
夏尔米埃	-11.4165
她赶紧	-11.4165
尽是些	-11.4165
层平台	-11.4165
得意洋洋	-11.4165
惶惑	-11.4165
批注	-11.4165
撕裂	-11.4165
时就感觉	-11.4165
是出于怨恨才	-11.4165
最好的堂区	-11.4165
朗诵	-11.4165
朝后倒下	-11.4165
未尝	-11.4165
派你到	-11.4165
深深地爱过	-11.4165
的主题	-11.4165
的决意	-11.4165
的舞台	-11.4165
的言论	-11.4165
的闲聊	-11.4165
羞答答	-11.4165
荒诞可笑	-11.4165
见识见识	-11.4165
诈骗	-11.4165
试验	-11.4165
跟小孩子	-11.4165
跪在告罪亭里	-11.4165
辛勤	-11.4165
这个被认为	-11.4165
这片阶台	-11.4165
这难道就是	-11.4165
阵营	-11.4165
阶梯	-11.4165
阻挡	-11.4165
马拉加葡萄	-11.4165
做着祝福的动作	-11.4165
一直控制着	-11.4165
下地狱的	-11.4165
乡镇地方的	-11.4165
人之手	-11.4165
他大胆地把	-11.4165
他现在所处的	-11.4165
兵役的	-11.4165
四根柱子	-11.4165
困扰着	-11.4165
在一块大	-11.4165
埋葬	-11.4165
夏龙	-11.4165
天把他安排在	-11.4165
妙龄	-11.4165
守夜灯	-11.4165
忏悔的神父	-11.4165
明显地看出	-11.4165
机械的	-11.4165
没法确定	-11.4165
淡漠	-11.4165
点三刻	-11.4165
的枪法	-11.4165
的流亡生活	-11.4165
警察	-11.4165
贵宾旅店	-11.4165
车辆	-11.4165
辨不出	-11.4165
闹僵	-11.4165
顶峰	-11.4165
》、《	-11.4165
一切都很顺利	-11.4165
一番功业	-11.4165
于连拿起	-11.4165
像是在看着	-11.4165
写了封信给	-11.4165
印刷厂老板	-11.4165
发号施令	-11.4165
可赞赏的	-11.4165
商量商量	-11.4165
城中人士	-11.4165
头痛得厉害	-11.4165
小小虚荣心	-11.4165
山毛榉树	-11.4165
当做一个	-11.4165
恳请侯爵先生	-11.4165
憎蔑	-11.4165
揭示	-11.4165
搂住他	-11.4165
斜眼看	-11.4165
是否成立	-11.4165
模型	-11.4165
欠妥的	-11.4165
纳瓦尔王后	-11.4165
经营	-11.4165
脆弱	-11.4165
衣衫	-11.4165
请求特赦	-11.4165
跪在她面前	-11.4165
车碾	-11.4165
轻骑兵中尉	-11.4165
那桩阴谋	-11.4165
轻骑兵	-11.4165
合乎情理	-11.4165
弥撤	-11.4165
缄默	-11.4165
阶台	-11.4165
一线希望	-11.4165
在心里的话	-11.4165
我劝您	-11.4165
抓着她的手	-11.4165
有面包吃	-11.4165
的忏悔教士	-11.4165
直流着	-11.4165
眼睛里含着	-11.4165
衰弱	-11.4165
贬低	-11.4165
神情庄重的年轻人	-11.4165
上流人士	-11.4165
劝阻	-11.4165
匀称	-11.4165
升降	-11.4165
当师傅的	-11.4165
愣住了	-11.4165
每逢礼拜日	-11.4165
满满的	-11.4165
牵挂	-11.4165
男人的视线	-11.4165
的热腮	-11.4165
的这一端	-11.4165
窗台上	-11.4165
窘态	-11.4165
纵横	-11.4165
费奈隆	-11.4165
这桩离奇的	-11.4165
席助理	-11.4165
富翁	-11.4165
咎斥	-11.4165
有权	-11.4165
苔维	-11.4165
一张台球桌	-11.4165
也不过如此	-11.4165
八到十	-11.4165
总忘不了	-11.4165
憎恐	-11.4165
效劳	-11.4165
格罗若	-11.4165
看不起	-11.4165
算不了什么	-11.4165
衰老	-11.4165
谨严	-11.4165
过几百万	-11.4165
阿拉塞利亲王	-11.4165
险境	-11.4165
亡国外	-11.4165
克服的困难	-11.4165
关禁闭	-11.4165
哲理	-11.4165
地享受着	-11.4165
契约	-11.4165
奢望	-11.4165
宽阔的	-11.4165
巨大的菩提树	-11.4165
憎恼	-11.4165
我离开巴黎	-11.4165
斗胆	-11.4165
是白费力气	-11.4165
枞板	-11.4165
的创伤	-11.4165
的名字叫做	-11.4165
红润	-11.4165
舒服生活的	-11.4165
触及	-11.4165
读到过的	-11.4165
阻塞	-11.4165
陪我来这儿	-11.4165
从于连那儿	-11.4165
名声败坏	-11.4165
在这些人中	-11.4165
太愚蠢了	-11.4165
如果没有这些	-11.4165
帝国时代	-11.4165
的世纪里	-11.4165
的学业	-11.4165
的恩宠	-11.4165
神往的	-11.4165
考究	-11.4165
聪明能干	-11.4165
艰难	-11.4165
说不出话来	-11.4165
遗留给	-11.4165
一句玩笑话	-11.4165
了这么多	-11.4165
凶狠的	-11.4165
吃亏	-11.4165
娴雅	-11.4165
审慎	-11.4165
有像现在这样	-11.4165
求助于	-11.4165
演员	-11.4165
知晓	-11.4165
纯属	-11.4165
给市长听	-11.4165
缩回去了	-11.4165
腰包	-11.4165
辛酸	-11.4165
这举动叫	-11.4165
防范	-11.4165
雷纳耳先生的少爷在	-11.4165
上印上	-11.4165
个没完	-11.4165
到他家里去	-11.4165
妒火	-11.4165
把他叫醒	-11.4165
拖延	-11.4165
混合在一起	-11.4165
疾病	-11.4165
的快感	-11.4165
筹划	-11.4165
说完这番话	-11.4165
一八一四年	-11.4165
三趟	-11.4165
传播	-11.4165
全城人都	-11.4165
卧室的窗	-11.4165
厚羊毛	-11.4165
埋怨	-11.4165
心中很是	-11.4165
所产生的效果	-11.4165
所获的	-11.4165
抗议	-11.4165
教导	-11.4165
昨晚	-11.4165
的世俗思想	-11.4165
闹出笑	-11.4165
雕刻	-11.4165
▁求婚	-11.4165
境遇	-11.4165
奈何	-11.4165
忠实	-11.4165
抵抗	-11.4165
担保	-11.4165
赦免	-11.4165
这么美艳的	-11.4165
锦缎套	-11.4165
文学者	-11.4165
依然是	-11.4165
不寻常的	-11.4165
个不信神的	-11.4165
何时才能	-11.4165
内瓦尔先生	-11.4165
刚毅	-11.4165
取悦于	-11.4165
得很棒	-11.4165
所拥有的	-11.4165
承担	-11.4165
明摆着	-11.4165
潜藏	-11.4165
眼里燃烧着	-11.4165
种痴情	-11.4165
重孝	-11.4165
位才智超群的人	-11.4165
力竭	-11.4165
变得暗淡	-11.4165
宽恕	-11.4165
尘俗	-11.4165
山峰	-11.4165
敬畏	-11.4165
的薪水	-11.4165
通情达理	-11.4165
通晓拉丁文	-11.4165
鲜血	-11.4165
上有两	-11.4165
一整天	-11.4165
许诺	-11.4165
贵宾	-11.4165
▁可尊敬的	-11.4165
几粒	-11.4165
四点钟	-11.4165
惘然	-11.4165
推动的	-11.4165
机会悄悄	-11.4165
组成的	-11.4165
追逐	-11.4165
乃至	-11.4165
二十多年	-11.4165
四千法郎	-11.4165
山村	-11.4165
工资	-11.4165
智力	-11.4165
毅力	-11.4165
烟斗	-11.4165
的婚事	-11.4165
给她带来	-11.4165
蠢货	-11.4165
裁决	-11.4165
谧静	-11.4165
这件袍子	-11.4165
这是我有生以来第一	-11.4165
阻碍于连听见	-11.4165
三千法郎	-11.4165
一根柱子	-11.4165
两位太太	-11.4165
什么时候动身	-11.4165
她不愿在	-11.4165
山丘	-11.4165
干脆	-11.4165
是真实的	-11.4165
的漂亮房子	-11.4165
纤弱	-11.4165
诗集	-11.4165
资料	-11.4165
连喊了两	-11.4165
逮住了	-11.4165
饭厅	-11.4165
驻防	-11.4165
鼓吹	-11.4165
的火花	-11.4165
你弄到一个	-11.4165
心爱的女儿	-11.4165
恳请	-11.4165
我得向你	-11.4165
气活现	-11.4165
清楚地看见了	-11.4165
秘鲁	-11.4165
脸色发白	-11.4165
藏室	-11.4165
负罪	-11.4165
露一手	-11.4165
里不能没有	-11.4165
仇恨和憎恶	-11.4165
偷窃	-11.4165
击剑	-11.4165
刚才说的话	-11.4165
星期二	-11.4165
点拨	-11.4165
的全部家产	-11.4165
的支持者	-11.4165
没有什么比这更	-11.4165
维持	-11.4165
八千法郎	-11.4165
坠马的	-11.4165
嫩白	-11.4165
悲愤	-11.4165
攀登	-11.4165
是你的波拿巴	-11.4165
暴烈	-11.4165
最优秀的学生	-11.4165
来自维鲤叶的	-11.4165
紧紧捏着	-11.4165
范围	-11.4165
西塞罗	-11.4165
谄媚殷勤的	-11.4165
逢迎	-11.4165
)*+	-11.4165
闪闪发光	-11.4166
主动接近	-11.4166
侍役	-11.4166
叫花子	-11.4166
固执	-11.4166
安逸	-11.4166
巡游	-11.4166
我马上就	-11.4166
没出息的	-11.4166
泥水	-11.4166
生平从来没有	-11.4166
良好教育	-11.4166
敬佩	-11.4166
他们以为我	-11.4166
他的作场	-11.4166
卑鄙无耻	-11.4166
哀叹	-11.4166
显出一副	-11.4166
杜河河岸	-11.4166
记述	-11.4166
这件大事	-11.4166
全家人都	-11.4166
一张像片	-11.4166
不曾有过	-11.4166
不知道是怎么回事	-11.4166
他还是一味	-11.4166
位非常有钱的	-11.4166
合法的权	-11.4166
堂堂	-11.4166
妥协	-11.4166
实业家	-11.4166
捉摸	-11.4166
沉默无言	-11.4166
环绕	-11.4166
盛怒	-11.4166
繁华	-11.4166
邮差	-11.4166
陆军	-11.4166
单独在一块儿	-11.4166
冉森派信徒对他	-11.4166
反驳	-11.4166
无暇	-11.4166
泥巴	-11.4166
的代价呀	-11.4166
的日期	-11.4166
视察	-11.4166
遗产继承	-11.4166
铅字	-11.4166
高翔	-11.4166
丧服	-11.4166
苦楚	-11.4166
▁产生一种	-11.4166
▁心灵里	-11.4166
三分之	-11.4166
书橱	-11.4166
人耻笑	-11.4166
做国王的	-11.4166
叹口气	-11.4166
合情合	-11.4166
响了起来	-11.4166
尽情享受	-11.4166
悲哀	-11.4166
我杀了	-11.4166
比平常更	-11.4166
的厚礼	-11.4166
老教长	-11.4166
译成	-11.4166
透露出	-11.4166
预防	-11.4166
必然	-11.4166
达到了疯狂的	-11.4166
过了一会	-11.4166
你可以放心	-11.4166
在胸前	-11.4166
埃及	-11.4166
大革命之前	-11.4166
当于连不在	-11.4166
慢吞吞	-11.4166
的激流	-11.4166
荣誉勋章	-11.4166
那里得到	-11.4166
宁愿	-11.4166
▁言论	-11.4166
出门旅行	-11.4166
唯一的消遣	-11.4166
摊开	-11.4166
狂怒	-11.4166
要胡思乱想了	-11.4166
七八封信	-11.4166
叫人无法忍受	-11.4166
含蓄	-11.4166
打哈欠	-11.4166
投入他的怀抱	-11.4166
朝廷	-11.4166
生平第一次	-11.4166
纽约	-11.4166
预示	-11.4166
垂下眼睛	-11.4166
两人相对	-11.4166
嫌恶	-11.4166
我向您发誓	-11.4166
比平时更	-11.4166
站出来	-11.4166
笔遗产	-11.4166
赎罪	-11.4166
阴谋诡计	-11.4166
集团	-11.4166
个高个儿	-11.4166
一片喧闹	-11.4166
于连挨了	-11.4166
另一件事	-11.4166
四十四岁	-11.4166
意味着什么	-11.4166
承受不了	-11.4166
把于连介绍给	-11.4166
没看见什么	-11.4166
瓶上好	-11.4166
百种	-11.4166
说到这儿	-11.4166
诸多	-11.4166
这是他的责任	-11.4166
锯机旁边	-11.4166
锯木	-11.4166
增添	-11.4166
一种全新的	-11.4166
不出半个月	-11.4166
优异	-11.4166
全是荒谬	-11.4166
击败	-11.4166
和他竞争	-11.4166
推测	-11.4166
机敏	-11.4166
的原则	-11.4166
的姿色	-11.4166
的祖先中	-11.4166
蓄着小胡子的年轻人	-11.4166
装出一副	-11.4166
辩解	-11.4166
不能信任	-11.4166
变成了愤怒	-11.4166
我将永远	-11.4166
二十四位	-11.4166
于连把他写	-11.4166
决定性的时刻	-11.4166
发了财	-11.4166
吃早饭	-11.4166
向我打听	-11.4166
肚子	-11.4166
胸前挂	-11.4166
衷曲	-11.4166
诉苦	-11.4166
审判员	-11.4166
不免大吃一惊	-11.4166
不爽地	-11.4166
他感到欣慰	-11.4166
令人开心的	-11.4166
发射起来	-11.4166
在距她	-11.4166
怎么总不	-11.4166
有人会告诉	-11.4166
枝叶	-11.4166
特赦	-11.4166
的几位女	-11.4166
的战役故事	-11.4166
繁盛	-11.4166
苛求	-11.4166
创造	-11.4166
判刑	-11.4166
命定的	-11.4166
多么大的	-11.4166
思绪中	-11.4166
的圈子里	-11.4166
自然不过的事	-11.4166
了几首	-11.4166
原有的	-11.4166
壮美的	-11.4166
对宗教的	-11.4166
弗勒	-11.4166
得到了满足	-11.4166
混帐	-11.4166
溜溜	-11.4166
醒悟	-11.4166
二十路易	-11.4166
供献	-11.4166
像他那样	-11.4166
即将来临	-11.4166
在今天这个	-11.4166
年轻的女信徒	-11.4166
早上七点钟	-11.4166
渴求	-11.4166
看不出	-11.4166
短浅	-11.4166
赛罗	-11.4166
零年	-11.4166
▁由党	-11.4166
住他的手臂	-11.4166
倾覆	-11.4166
十二个人	-11.4166
所期待的	-11.4166
结局	-11.4166
说句实话	-11.4166
踏上了	-11.4166
轻柔	-11.4166
大胆查理	-11.4166
掌管	-11.4166
旅行人士	-11.4166
是一件大事	-11.4166
眼帘	-11.4166
穿华丽号衣的仆	-11.4166
鸡蛋	-11.4166
一张大理石	-11.4166
了好几年	-11.4166
只有他们两个人	-11.4166
季度	-11.4166
守卫	-11.4166
所住的	-11.4166
烟草	-11.4166
爬上梯子	-11.4166
究竟是谁	-11.4166
辩论	-11.4166
这样一位大贵人	-11.4166
靠拢	-11.4166
风度优雅	-11.4166
急剧	-11.4166
扮演的角色	-11.4166
欣喜	-11.4166
神学方面的	-11.4166
负责管理	-11.4166
跌倒	-11.4166
也没少	-11.4167
他一人是	-11.4167
倒塌	-11.4167
十二到十五	-11.4167
大使馆的	-11.4167
我还以为	-11.4167
策略	-11.4167
简略	-11.4167
闻名的	-11.4167
上流人物	-11.4167
温柔甜蜜的	-11.4167
的疯狂举动	-11.4167
逝世	-11.4167
把他忘	-11.4167
哪位	-11.4167
了两件事	-11.4167
二百法郎	-11.4167
他苦心	-11.4167
偶尔	-11.4167
制订	-11.4167
征求意见	-11.4167
的老生	-11.4167
相当程度	-11.4167
雨水	-11.4167
糊口	-11.4167
侧耳	-11.4167
准确	-11.4167
宗教信仰	-11.4167
称他为	-11.4167
走向死亡	-11.4167
预谋	-11.4167
丘利	-11.4167
于连忘掉了他	-11.4167
供养	-11.4167
打发他走	-11.4167
温顺	-11.4167
是十分强烈的	-11.4167
穿丧服	-11.4167
吵架	-11.4167
拥挤	-11.4167
漫步	-11.4167
烦厌	-11.4167
牵累	-11.4167
现状	-11.4167
红尘	-11.4167
讽刺的话	-11.4167
不懂礼貌	-11.4167
个疯子	-11.4167
他向他自己说道	-11.4167
宽长的	-11.4167
常见的	-11.4167
忏悔师	-11.4167
抽签决定	-11.4167
的山谷	-11.4167
纯金	-11.4167
边那匹马	-11.4167
这样称呼	-11.4167
太对了	-11.4167
佣人们一道	-11.4167
八点以前	-11.4167
夜宵	-11.4167
天和那些烦	-11.4167
寻着了	-11.4167
布满了	-11.4167
救济	-11.4167
施加	-11.4167
有一日他	-11.4167
的日子过得	-11.4167
通讯	-11.4167
发生争吵	-11.4167
娱乐场	-11.4167
灵魂深处	-11.4167
老版本	-11.4167
而他们却	-11.4167
装订	-11.4167
顾不上	-11.4167
严厉的皮拉尔神父	-11.4167
亲热	-11.4167
凶猛	-11.4167
和愚蠢的	-11.4167
快慰	-11.4167
披风	-11.4167
期限	-11.4167
嫉妒心的	-11.4167
广场	-11.4167
急忙朝	-11.4167
看到梯	-11.4167
这份风流	-11.4167
酒杯	-11.4167
西塞	-11.4167
保守	-11.4167
一次审讯	-11.4167
不宜于	-11.4167
丧失勇气	-11.4167
他的心扉	-11.4167
或别的什么	-11.4167
替斯丹尼	-11.4167
注视了他	-11.4167
知己	-11.4167
迈斯特先生的	-11.4167
于连和几个孩子	-11.4167
值得称道的	-11.4167
即席	-11.4167
招呼	-11.4167
目光敏锐	-11.4167
看得见	-11.4167
装束	-11.4167
辨出	-11.4167
送上门	-11.4167
在她心目中	-11.4167
是严峻的	-11.4167
沉没的	-11.4167
祭台上的	-11.4167
绣花	-11.4167
费尽心	-11.4167
饼干	-11.4167
佩服	-11.4167
十卷的	-11.4167
奉承者们	-11.4167
女厨娘	-11.4167
打赢	-11.4167
查封	-11.4167
热衷	-11.4167
能够表达	-11.4167
拉丁文学者	-11.4167
是故做姿	-11.4167
获得了成功	-11.4167
他一生	-11.4167
可以提拔	-11.4167
旋转	-11.4167
第一遭	-11.4167
两个好朋友	-11.4167
怎么我的女儿	-11.4167
抑制住	-11.4167
猛然间	-11.4167
的一角	-11.4167
古代	-11.4167
或者是互相	-11.4167
承蒙	-11.4167
暗自思付	-11.4167
未来省长	-11.4167
的本堂神父玛斯隆	-11.4167
她要让于连	-11.4167
宣扬	-11.4167
就足够了	-11.4167
痛悔	-11.4167
这桩意外	-11.4167
选民	-11.4167
下星期四	-11.4167
剪掉	-11.4167
基督教	-11.4167
安息	-11.4167
已有五个	-11.4167
平素	-11.4167
石匠	-11.4167
一丁点	-11.4168
可爱的老人	-11.4168
呈现出那种	-11.4168
已经摆好	-11.4168
景象	-11.4168
浪费时间	-11.4168
的老朋友	-11.4168
窗子底下	-11.4168
三十六岁	-11.4168
吃鱼	-11.4168
有二十四个	-11.4168
落在杜河	-11.4168
驻足	-11.4168
平台	-11.4168
原来以为	-11.4168
孩子的病	-11.4168
被视为	-11.4168
钟情于	-11.4168
他曾有过	-11.4168
的悲剧	-11.4168
了她一眼	-11.4168
外加一	-11.4168
已准备好	-11.4168
教规	-11.4168
中找出	-11.4168
优越	-11.4168
刚一走进	-11.4168
端庄	-11.4168
靠诡计	-11.4168
体味	-11.4168
台词	-11.4168
奇闻	-11.4168
客厅门口	-11.4168
此类	-11.4168
经济	-11.4168
诞生	-11.4168
神赛会	-11.4168
一片寂静	-11.4168
作品中	-11.4168
依恋	-11.4168
的轻蔑表情	-11.4168
流露	-11.4168
迎神	-11.4168
善良的老人	-11.4168
工具	-11.4168
偷偷	-11.4168
我在这世界上	-11.4168
的政党的	-11.4168
隆重	-11.4168
杀掉	-11.4168
架式	-11.4168
爱怜	-11.4168
第二枪	-11.4168
那个老神父	-11.4168
雷纳耳夫妇	-11.4168
百依	-11.4168
冰冷	-11.4168
安宁	-11.4168
富裕起来的	-11.4168
早上九点	-11.4168
这位年轻的秘书	-11.4168
付款	-11.4168
谋害	-11.4168
的事告诉了	-11.4168
单凭	-11.4168
她忽然想到	-11.4168
斯拉斯	-11.4168
诺瓦	-11.4168
制止	-11.4168
引以为	-11.4168
拿出勇气	-11.4168
诗歌	-11.4168
在这个时期	-11.4168
挺不错	-11.4168
派人送	-11.4168
神情沮丧	-11.4168
▁个残忍的	-11.4168
使于连大为惊讶	-11.4168
神志	-11.4168
险些	-11.4168
不见消沉	-11.4168
势必	-11.4168
我死刑的	-11.4168
有什么价值	-11.4168
做了些什么	-11.4168
去看望	-11.4168
表面看来	-11.4168
攀谈	-11.4168
的旅客们	-11.4168
劈死	-11.4168
回响在他	-11.4168
围观	-11.4168
大马路	-11.4168
天资	-11.4168
放声大	-11.4168
而这却	-11.4168
若失	-11.4168
通奸	-11.4168
听懂	-11.4168
形成了三	-11.4168
暴君们	-11.4168
父母	-11.4168
的热力	-11.4168
节省	-11.4168
明察	-11.4169
洛克	-11.4169
确定	-11.4169
又高贵又	-11.4169
崇高的感情	-11.4169
杜龙先生	-11.4169
相处一起	-11.4169
责骂	-11.4169
万般	-11.4169
体验过	-11.4169
孩子们的师傅	-11.4169
推开了他	-11.4169
连半点	-11.4169
优先	-11.4169
戏弄	-11.4169
时间和于连谈	-11.4169
森克莱尔先生	-11.4169
比较平静	-11.4169
维西	-11.4169
聘用在	-11.4169
谢谢	-11.4169
金黄	-11.4169
亲近	-11.4169
良知	-11.4169
金路易	-11.4169
大汉	-11.4169
把我看成	-11.4169
斯坦	-11.4169
触到了	-11.4169
说了一些	-11.4169
宽容	-11.4169
摔下	-11.4169
滥用	-11.4169
所使用的	-11.4169
一下子投入	-11.4169
发生了一件	-11.4169
荒唐可笑的	-11.4169
毫不费力	-11.4169
话实说	-11.4169
古教堂	-11.4169
望见了他	-11.4169
群众	-11.4169
茁长	-11.4169
▁房子里	-11.4169
一座小小的	-11.4169
像一具	-11.4169
在隔壁房	-11.4169
放在华盖	-11.4169
这副表情	-11.4169
决断	-11.4169
空位置	-11.4169
长袍	-11.4169
小唐博	-11.4169
明快的	-11.4169
产业主	-11.4169
或者用于	-11.4169
是个实实在在的	-11.4169
离开了花园	-11.4169
超越	-11.4169
飞奔	-11.4169
孤单	-11.4169
思量	-11.4169
打搅	-11.4169
的别离	-11.4169
左边	-11.4169
借此	-11.4169
睡袍	-11.4169
花瓶	-11.4169
长高了	-11.4169
▁述了	-11.4169
派他去	-11.4169
他的脸颊	-11.4169
傲慢无礼	-11.4169
小心翼翼	-11.4169
恩赐	-11.4169
恶劣的情绪	-11.4169
抓紧	-11.4169
的大臣们	-11.4169
运气太	-11.4169
千法郎的年金	-11.4169
唯丈夫	-11.4169
局促不安	-11.4169
登记	-11.4169
靠椅	-11.4169
八十岁	-11.417
决非	-11.417
少爷们	-11.417
照管	-11.417
随心所欲	-11.417
一段时间里	-11.417
密切的	-11.417
找了个	-11.417
笔直	-11.417
迷住了	-11.417
发生了什么事	-11.417
君主	-11.417
地位不同	-11.417
完美无缺的人	-11.417
悲恸	-11.417
文体	-11.417
是大使	-11.417
点燃着	-11.417
铁钉子	-11.417
美丽的阿芒达	-11.417
什么区别	-11.417
玛斯	-11.417
冲破	-11.417
眸子	-11.417
迈着	-11.417
三千	-11.417
叹息着	-11.417
一个无辜	-11.417
我们就要分	-11.417
现象	-11.417
神秘	-11.417
上尉	-11.417
在中世纪	-11.417
我不配	-11.417
挣得十	-11.417
替换	-11.417
案情	-11.417
灯火	-11.417
省份	-11.417
丝毫没有想到	-11.417
军刀	-11.417
反响	-11.417
各方面	-11.417
的一端	-11.417
他的坐骑	-11.417
创立	-11.417
必须把他从	-11.417
放逐	-11.417
拳头	-11.417
本世纪	-11.417
释放	-11.417
急急	-11.417
完工	-11.417
描写	-11.417
更增加了他的	-11.417
没有时间可	-11.417
两个小	-11.417
当作了敌人	-11.417
绝妙	-11.417
被告席上	-11.417
那双美丽的眼睛	-11.417
什么也不知道	-11.417
凑近	-11.417
席位	-11.417
降生	-11.417
克制	-11.417
凳子上	-11.417
离开人世	-11.417
尘世间	-11.417
扮成	-11.417
是哪样的	-11.417
品尝	-11.417
受宠	-11.417
哀求	-11.417
她看出了	-11.417
情趣	-11.417
简明	-11.417
订下来	-11.417
修养	-11.417
接纳	-11.417
能保证自己	-11.417
顿痛打	-11.417
猛然	-11.417
东边	-11.417
庭园里	-11.417
建立	-11.417
征收	-11.417
往花园	-11.417
最大的危险	-11.417
共同生活	-11.417
占领着	-11.417
圣驾	-11.417
梅里	-11.4171
▁不能对他	-11.4171
他以一种	-11.4171
前厅里	-11.4171
咬着	-11.4171
惯于	-11.4171
法国青年	-11.4171
这个家庭里	-11.4171
维鲤叶地方上	-11.4171
租金	-11.4171
一笔巨大	-11.4171
两级	-11.4171
忙乱	-11.4171
懂得拉丁文	-11.4171
每瓶	-11.4171
比如说	-11.4171
狂乱	-11.4171
的庸俗的	-11.4171
真正的乐趣	-11.4171
便告退	-11.4171
内疚	-11.4171
刑法	-11.4171
大岩石	-11.4171
怎么还能	-11.4171
自己的罪孽	-11.4171
严格要求	-11.4171
去当兵	-11.4171
赞扬	-11.4171
忘却	-11.4171
自持	-11.4171
解决	-11.4171
分明	-11.4171
她那美丽的	-11.4171
终究不能	-11.4171
三丈	-11.4171
做祷告	-11.4171
去朗格多克	-11.4171
尾随着	-11.4171
结婚的计划	-11.4171
二者便	-11.4171
可嘉	-11.4171
她没有死	-11.4171
那个无赖	-11.4171
部队	-11.4171
难听的话	-11.4171
干净	-11.4171
前少尉	-11.4171
修筑	-11.4171
意大利语	-11.4171
的氛围中	-11.4171
礼仪	-11.4171
害者	-11.4171
谈判中	-11.4171
露现	-11.4171
顾虑	-11.4171
是否还能	-11.4171
比伦	-11.4171
走进客厅	-11.4171
包东西	-11.4171
爵士	-11.4171
没趣	-11.4171
他心烦	-11.4171
带他去	-11.4171
挖苦嘲弄	-11.4171
树木	-11.4171
水流	-11.4171
第一个月	-11.4171
她崇拜他	-11.4171
有些犹豫	-11.4171
镇定	-11.4171
使于连兴奋	-11.4172
充满了热情	-11.4172
猛烈地	-11.4172
偏见	-11.4172
养活	-11.4172
刚才看到了	-11.4172
坠人	-11.4172
意图	-11.4172
因此我不能	-11.4172
一直盯着	-11.4172
十分苦楚	-11.4172
安适	-11.4172
报答	-11.4172
教练	-11.4172
磨难	-11.4172
在地板上	-11.4172
吸引人	-11.4172
拔出	-11.4172
教过他	-11.4172
无休	-11.4172
正是从他	-11.4172
终于脱身	-11.4172
直至	-11.4172
裸露出	-11.4172
办公	-11.4172
您要注意	-11.4172
懂得怎样	-11.4172
我的少爷	-11.4172
预付	-11.4172
纳瓦尔	-11.4172
仁爱	-11.4172
在我写字台	-11.4172
小教士会	-11.4172
六次	-11.4172
沉痛	-11.4172
索黑尔太太	-11.4172
垂下	-11.4172
去了几个小时	-11.4172
断定	-11.4172
的住处	-11.4172
就是为了让您	-11.4172
一个心眼	-11.4172
要听他	-11.4172
坚定态度	-11.4172
不妥当	-11.4172
列为第	-11.4172
各种反对	-11.4172
和于连一起	-11.4172
我没有时间	-11.4172
的那句话	-11.4172
一个强烈的印象	-11.4172
重量	-11.4172
辩护词	-11.4172
▁于连实在不	-11.4172
商讨	-11.4172
无意中	-11.4172
涌出了	-11.4172
造一条	-11.4172
下层	-11.4172
与保安官	-11.4172
处理事情	-11.4172
结合	-11.4172
我真害怕	-11.4172
一瞥	-11.4172
完全可以使	-11.4172
策马	-11.4172
令人赞美	-11.4173
大伙	-11.4173
思维	-11.4173
斯文	-11.4173
显然是被	-11.4173
有办法	-11.4173
正如你们	-11.4173
草草	-11.4173
非礼	-11.4173
不讥笑	-11.4173
侧门	-11.4173
论调	-11.4173
鼓舞	-11.4173
乡下老头儿	-11.4173
依照	-11.4173
献给他	-11.4173
胡子	-11.4173
在她心头	-11.4173
形容	-11.4173
来看我	-11.4173
不足挂齿	-11.4173
午夜时分	-11.4173
在瓦尔诺先生面前	-11.4173
甚至全省	-11.4173
稍稍有些	-11.4173
他让于连给	-11.4173
▁于连发现侯爵	-11.4173
他们所说的话	-11.4173
把她放	-11.4173
高贵而又	-11.4173
在屋顶	-11.4173
带来的种种	-11.4173
我实在十分	-11.4173
注重	-11.4173
一辆驿车	-11.4173
再三地	-11.4173
惊慌起来	-11.4173
苦苦	-11.4173
一个字母	-11.4173
匆匆忙忙地	-11.4173
千方百计地	-11.4173
法里外	-11.4173
痴心	-11.4173
的怯懦所	-11.4173
骄傲的心灵	-11.4173
把这笔钱送给	-11.4173
分文	-11.4173
一起吃饭	-11.4173
仍然具有	-11.4173
几小时	-11.4173
献身	-11.4173
个猎人在	-11.4173
交易所	-11.4173
是不能被	-11.4173
谈事务	-11.4173
任院长	-11.4173
强硬	-11.4173
他后面跟	-11.4173
就是因为这个	-11.4173
快滚	-11.4173
冒失	-11.4173
而且是预谋	-11.4173
胆小	-11.4173
薄情的	-11.4173
不小的	-11.4173
不忍心	-11.4173
瞥见	-11.4173
笨手	-11.4173
跟人决斗	-11.4173
几个宪兵	-11.4174
实在是太	-11.4174
抬眼	-11.4174
熟知	-11.4174
造成的结果	-11.4174
尽情地	-11.4174
整个晚上	-11.4174
嘴角	-11.4174
把他抱	-11.4174
都会遭到	-11.4174
捧着书	-11.4174
扰声	-11.4174
不惜一	-11.4174
招待	-11.4174
最漂亮的马	-11.4174
赴刑场时	-11.4174
辩护律师	-11.4174
向我谈起	-11.4174
极易	-11.4174
予以	-11.4174
斯特尔	-11.4174
在您觉得	-11.4174
六十年	-11.4174
全部时光	-11.4174
最卑贱的	-11.4174
要一杯咖啡	-11.4174
休息时间	-11.4174
远远地离开	-11.4174
太过份了	-11.4174
主教教冠	-11.4174
十分得体	-11.4174
居第二	-11.4174
肩章	-11.4174
变得温和	-11.4174
早饭	-11.4174
于连是那样的	-11.4174
多么热烈	-11.4174
都挂	-11.4174
再加上	-11.4174
幽径	-11.4174
拉莫尔侯爵刚才	-11.4174
表示愿	-11.4174
走到离	-11.4174
雷纳耳夫人观察到	-11.4174
于连发觉他	-11.4174
作出一副	-11.4174
自然然的	-11.4174
表态	-11.4174
冷淡的态度	-11.4174
变得越来越	-11.4174
来不及	-11.4174
雷纳耳夫人闺房	-11.4174
胆子	-11.4174
认定	-11.4174
从容地	-11.4175
杀人罪	-11.4175
来探望	-11.4175
王族	-11.4175
▁又变得	-11.4175
六个月来	-11.4175
个莽撞	-11.4175
当我离开	-11.4175
深奥	-11.4175
数字	-11.4175
来代替	-11.4175
跟你说话	-11.4175
都交给他	-11.4175
如画的	-11.4175
众目	-11.4175
字句	-11.4175
苍白脸色	-11.4175
照人的	-11.4175
这些可怜虫	-11.4175
偷盗过	-11.4175
旅行者的	-11.4175
把他视作	-11.4175
总结	-11.4175
病态	-11.4175
才知道你	-11.4175
成千	-11.4175
了好一阵子	-11.4175
可怜的克鲁瓦泽努瓦	-11.4175
该怎么想	-11.4175
授予	-11.4175
被他们所	-11.4175
让他等待	-11.4175
便大胆地	-11.4175
曾经给予	-11.4175
光阴	-11.4175
找些	-11.4175
生存的	-11.4175
出于习惯	-11.4175
挺身	-11.4176
而依于连看	-11.4176
毫无兴趣	-11.4176
辆马车	-11.4176
她的表妹	-11.4176
慢慢穿过大	-11.4176
旁边有人	-11.4176
离席	-11.4176
深造	-11.4176
下日期	-11.4176
在一八	-11.4176
安顿下来	-11.4176
特别敏感	-11.4176
表决	-11.4176
请您告诉我	-11.4176
彼此相	-11.4176
早餐	-11.4176
号人物	-11.4176
同时又如此大	-11.4176
不认识的人	-11.4176
出身如此高贵	-11.4176
肯放	-11.4176
第二次	-11.4176
美丽的姑娘	-11.4176
人员	-11.4176
这个犹太人	-11.4176
格罗先生	-11.4176
唐博先生	-11.4176
带点儿	-11.4176
若干	-11.4176
是木匠的儿子	-11.4176
阔气	-11.4176
巴黎的妇女	-11.4176
敲着自己的	-11.4176
算准	-11.4176
办理	-11.4176
很快她又	-11.4176
我什么也不	-11.4176
自己生命的	-11.4176
触动	-11.4176
该怎么办	-11.4176
他了解自己所	-11.4176
正当他为	-11.4176
各样	-11.4176
中看出了	-11.4176
一边走开了	-11.4176
尔诺先生	-11.4176
把梯子的事告诉	-11.4176
沉入	-11.4176
身材高大的年轻人	-11.4176
排场	-11.4176
有过多少	-11.4176
的眼睛亮	-11.4176
四根	-11.4177
最大的孩子	-11.4177
令人厌恶	-11.4177
所呈现出	-11.4177
木商	-11.4177
的那个女人	-11.4177
决定性的	-11.4177
这个念头使他	-11.4177
懒散	-11.4177
五里路	-11.4177
使犯人	-11.4177
八月	-11.4177
受到致命伤	-11.4177
察看	-11.4177
成群	-11.4177
此举	-11.4177
罗特	-11.4177
高贵出身和	-11.4177
一位公正	-11.4177
孩子们的教育	-11.4177
紧张	-11.4177
他听见一声	-11.4177
接触到	-11.4177
之无愧	-11.4177
我的教冠	-11.4177
精明的神情	-11.4177
丑事	-11.4177
好多人	-11.4177
必然会	-11.4177
无踪	-11.4177
从堡子	-11.4177
吓倒	-11.4177
没有比这更	-11.4177
隔开	-11.4177
微弱的声	-11.4177
他们谁也	-11.4177
多么美好	-11.4177
感谢天主	-11.4177
很长很长	-11.4177
年轻师傅	-11.4177
哥特式柱子	-11.4177
擦干	-11.4177
无误	-11.4177
派报纸	-11.4177
请求书	-11.4177
这双漂亮	-11.4177
平安	-11.4177
岂不是	-11.4177
为了保持我	-11.4177
水火	-11.4177
高人一	-11.4177
如何对待	-11.4177
打破这	-11.4177
这些观点	-11.4177
这身黑衣服	-11.4177
不信任	-11.4178
两天之前	-11.4178
回敬	-11.4178
街头	-11.4178
受苦	-11.4178
我付出的	-11.4178
吃面包	-11.4178
而现在已	-11.4178
想起来就	-11.4178
这两种	-11.4178
站立着	-11.4178
回过头来	-11.4178
堡子	-11.4178
将来他会	-11.4178
给你准备	-11.4178
▁末了	-11.4178
两腿	-11.4178
回荡	-11.4178
连累	-11.4178
年轻的教士	-11.4178
想到要	-11.4178
路可走	-11.4178
侯爵心里想	-11.4178
切口	-11.4178
虽然表面上	-11.4178
这位严厉的	-11.4178
谈过	-11.4178
伟大的行动	-11.4178
无影	-11.4178
省里的	-11.4178
压低	-11.4178
弄得极	-11.4178
所激起的	-11.4178
福盖的建议	-11.4178
光顾	-11.4178
同学的好	-11.4178
话没有说	-11.4178
丢下	-11.4178
用石头	-11.4178
可以算是	-11.4178
有点奇怪	-11.4178
木材生意	-11.4179
骂他一顿	-11.4179
刻意	-11.4179
她相信自己	-11.4179
把他吓	-11.4179
个年头	-11.4179
这些小事	-11.4179
争相	-11.4179
钱是从	-11.4179
两个仆人	-11.4179
外国	-11.4179
所替代	-11.4179
满怀	-11.4179
怎样做才	-11.4179
才能找到	-11.4179
扛着	-11.4179
苔维尔夫人旁边	-11.4179
镶着	-11.4179
他年轻时	-11.4179
给他造成	-11.4179
情潮	-11.4179
反倒成了	-11.4179
现在轮到	-11.4179
文科学	-11.4179
我便可以	-11.4179
最伟大的事业	-11.4179
马上就要	-11.4179
作忏悔	-11.4179
不能饶恕	-11.4179
来得更为	-11.4179
逮着	-11.4179
非常富有的	-11.4179
称作	-11.4179
上来回	-11.4179
任何小说	-11.4179
任何时候	-11.4179
争取	-11.4179
最崇高的	-11.4179
折回	-11.4179
这一类	-11.4179
丈高	-11.418
我受的	-11.418
护照	-11.418
立业	-11.418
是由于一种	-11.418
终身	-11.418
二三十	-11.418
笨脚	-11.418
他完全可以	-11.418
高价	-11.418
登记簿上	-11.418
识力	-11.418
在他的手里	-11.418
保留着	-11.418
人向他说	-11.418
有胆量	-11.418
这藉口	-11.418
镶有	-11.418
意愿	-11.418
气候	-11.418
包围着	-11.418
临死	-11.418
全完了	-11.418
有些吃惊	-11.418
污点	-11.418
忽然觉得	-11.418
成名的	-11.418
感化	-11.4181
讲些什么	-11.4181
那扇	-11.4181
样兴高采烈地	-11.4181
我有权利	-11.4181
深识	-11.4181
切代价	-11.4181
无虑	-11.4181
从而使他	-11.4181
的怀抱里	-11.4181
个月之内我	-11.4181
废话	-11.4181
受刺激	-11.4181
放过了	-11.4181
特地从	-11.4181
一六七	-11.4181
灰心	-11.4181
一把匕首	-11.4181
猎物	-11.4181
被人嫉妒	-11.4181
夜色	-11.4181
藏起来	-11.4181
无所谓	-11.4181
是什么也不	-11.4181
我对巴黎	-11.4181
我的哥哥	-11.4181
一盏	-11.4181
我多不同	-11.4181
于连的忏悔	-11.4181
变得很	-11.4181
用功	-11.4181
那桩	-11.4181
这一夜对于	-11.4181
迸发	-11.4181
也没有这么	-11.4181
等待着他的	-11.4181
伴随着	-11.4182
带着极端	-11.4182
费尔	-11.4182
道袍的	-11.4182
具有不可	-11.4182
眼神里	-11.4182
这一举动	-11.4182
这么多的	-11.4182
小的人物	-11.4182
马匹	-11.4182
答话	-11.4182
白木	-11.4182
绳子	-11.4182
其次	-11.4182
和他一起	-11.4182
在布雷	-11.4182
这种荣幸	-11.4182
出息	-11.4182
刑事	-11.4182
任何幻想	-11.4182
始终没有	-11.4182
拉莫尔伯爵	-11.4182
美景	-11.4182
有那么一个	-11.4182
都集中在	-11.4182
遗书	-11.4182
抵消	-11.4182
写完	-11.4182
相差	-11.4182
盼望着	-11.4182
火山	-11.4182
走进一家	-11.4182
可怜的外省人	-11.4182
夜风	-11.4182
他年轻时代的	-11.4182
我应该怎样	-11.4182
很有利	-11.4182
我就离开你	-11.4182
一份字	-11.4182
间锯木厂	-11.4182
他很可能	-11.4182
体力	-11.4183
某主教大人	-11.4183
在上诉	-11.4183
我爱过	-11.4183
还只是个	-11.4183
广大	-11.4183
过惯了	-11.4183
用手指	-11.4183
更增	-11.4183
不幸的姑娘	-11.4183
扩大	-11.4183
扶手椅上	-11.4183
小镇	-11.4183
当寡妇	-11.4183
运气好	-11.4183
火一般的	-11.4183
:!"#$%	-11.4183
直到现在	-11.4183
有多少顺从	-11.4183
是极端的	-11.4183
的一位年轻的	-11.4183
▁话语	-11.4183
十分美妙	-11.4183
还是个小孩子的	-11.4183
的前本堂神父	-11.4183
灾难中	-11.4183
新师傅	-11.4183
独白	-11.4183
疯一样	-11.4183
交待	-11.4183
可怜的阿尔塔米拉	-11.4183
我从来没	-11.4183
紧紧拥抱	-11.4183
数额	-11.4183
今天早晨	-11.4183
一枚十字勋章	-11.4184
受惊	-11.4184
大有好处	-11.4184
谈及它	-11.4184
叹了口	-11.4184
所有权	-11.4184
终于来到了	-11.4184
无须	-11.4184
几滴眼	-11.4184
感到厌烦	-11.4184
早早	-11.4184
那条路	-11.4184
最有用	-11.4184
▁理主教	-11.4184
不过留着	-11.4184
的账目	-11.4184
球的人	-11.4184
任何时候都	-11.4184
心中明白	-11.4184
面的侧殿	-11.4184
为的是好	-11.4184
进屋里	-11.4184
这本书	-11.4184
▁渐地	-11.4184
惹人	-11.4185
自称是	-11.4185
令人讨厌	-11.4185
&’(	-11.4185
说了一句	-11.4185
但他不知道	-11.4185
全院	-11.4185
卷儿	-11.4185
听一听	-11.4185
多疑	-11.4185
世界上任何	-11.4185
引入	-11.4185
到处都是	-11.4185
不相称	-11.4185
并没有引起	-11.4185
一次也没有	-11.4185
他在神学院里	-11.4185
得厉害	-11.4185
涌出来	-11.4185
把我忘掉	-11.4185
一切细节	-11.4185
议会	-11.4185
有五十万法	-11.4185
都聚集在	-11.4185
于上述	-11.4185
会议	-11.4185
巴克	-11.4185
挤到了	-11.4185
出卖自己	-11.4185
有两三个	-11.4185
于连被自己的	-11.4186
给他带来	-11.4186
流放	-11.4186
爬到	-11.4186
厌倦的神情	-11.4186
热爱过的	-11.4186
论点	-11.4186
和父亲	-11.4186
关于此事	-11.4186
天文	-11.4186
更坏了	-11.4186
▁生朝	-11.4186
被指定	-11.4186
空白	-11.4186
有什么关	-11.4186
顺从	-11.4186
墙边	-11.4186
大凡	-11.4186
一个小时以来	-11.4186
款项	-11.4186
反复说	-11.4186
一个无赖	-11.4186
门第	-11.4186
红得厉害	-11.4186
没关系	-11.4186
为我的副本堂神父	-11.4186
在他的面前	-11.4186
说了些什么	-11.4186
骗子	-11.4186
是个狡猾	-11.4186
想到过	-11.4187
反倒变得	-11.4187
一种英雄的	-11.4187
维护我的	-11.4187
妇女离开	-11.4187
在大门上	-11.4187
几天之前	-11.4187
结成	-11.4187
装点	-11.4187
打算让您	-11.4187
那个圣洁的	-11.4187
便宜呢	-11.4187
善良的天主	-11.4187
带着一份	-11.4187
扔到	-11.4187
再来	-11.4187
不忘	-11.4187
向客厅	-11.4187
眼红	-11.4187
看一眼	-11.4187
胜过爱	-11.4187
座钟	-11.4187
的悔恨全部	-11.4187
很感兴趣	-11.4187
别忘了	-11.4188
道袍的人	-11.4188
不瞒	-11.4188
在书店	-11.4188
她叙述了	-11.4188
短信	-11.4188
书本	-11.4188
远方	-11.4188
风物	-11.4188
会这样对我	-11.4188
没忘了	-11.4188
圈子	-11.4188
当波纳拜忒	-11.4188
第一次受到	-11.4188
地重复着	-11.4188
是与金钱	-11.4188
情愿地	-11.4188
不能摆脱	-11.4188
他犹豫不	-11.4188
行经	-11.4188
顺从地	-11.4188
漂亮面孔	-11.4188
分明地	-11.4188
垂着	-11.4188
现代	-11.4188
热烈地爱	-11.4189
小曲	-11.4189
我企图杀	-11.4189
装作	-11.4189
两个月前	-11.4189
作证	-11.4189
围绕着	-11.4189
夹着	-11.4189
毕竟只是	-11.4189
八位	-11.4189
向他要一	-11.4189
一直到现在	-11.4189
唯一能	-11.4189
把他赶	-11.4189
提出许多	-11.4189
早该	-11.4189
脱离	-11.4189
后台	-11.4189
心理一	-11.4189
但是谁也不	-11.4189
时常来看	-11.4189
灵感	-11.4189
刺进	-11.4189
超过一切	-11.4189
口罗	-11.4189
燃起	-11.4189
侯爵签字	-11.419
才进了	-11.419
下属	-11.419
说了许多	-11.419
从另一方面	-11.419
发生的事情	-11.419
斯拉	-11.419
又不至于	-11.419
上挂着	-11.419
家乡	-11.419
并未	-11.419
遇到的是	-11.419
以致于她	-11.419
行业	-11.419
是勇敢的	-11.419
到花园里去	-11.419
在天主眼	-11.419
国王身边	-11.419
是件大	-11.419
作态	-11.419
多钟	-11.419
惊骇着	-11.419
一个花花公子	-11.4191
▁院的	-11.4191
▁他又回到	-11.4191
于连情不自禁地	-11.4191
最近又	-11.4191
爬上那	-11.4191
依她看	-11.4191
第一回	-11.4191
诱人的	-11.4191
一个人是否	-11.4191
其他任何	-11.4191
冰一般	-11.4191
一边注视着	-11.4191
责备自己对	-11.4191
听人说	-11.4191
急切地	-11.4191
这位幸运的	-11.4191
一定会因	-11.4191
那好极了	-11.4191
我昨日	-11.4191
下跪	-11.4191
曲子	-11.4191
心肠的人	-11.4191
扰乱不安	-11.4191
十分可笑	-11.4191
于连离她	-11.4191
被人爱	-11.4191
和你说	-11.4191
容易的事	-11.4191
我敢打赌	-11.4191
最后一项	-11.4191
设下	-11.4191
品味	-11.4191
了一下头	-11.4191
能及	-11.4191
悔过	-11.4191
挡住了他	-11.4191
钟楼传	-11.4191
两个朋友	-11.4192
私事	-11.4192
这番话	-11.4192
不忠	-11.4192
单独一个人	-11.4192
念拉丁文	-11.4192
见得多了	-11.4192
我不上诉	-11.4192
二年	-11.4192
家的客厅	-11.4192
深深感到	-11.4192
眼花	-11.4192
私话	-11.4192
卷发	-11.4192
在她面前	-11.4192
感到深深	-11.4192
森林里	-11.4192
舌头	-11.4192
精神上的	-11.4192
那个地方	-11.4192
用米什莱夫人	-11.4192
十分动心	-11.4192
感到烦闷	-11.4192
很古怪	-11.4192
什么好处	-11.4192
现实生活	-11.4192
再也没有比	-11.4193
免职	-11.4193
成天和	-11.4193
打开门	-11.4193
来访	-11.4193
无法摆脱	-11.4193
这么年轻	-11.4193
非常不好	-11.4193
在一起度过	-11.4193
发怒	-11.4193
目中	-11.4193
我们的英雄	-11.4193
说话的口气	-11.4193
遭遇到	-11.4193
离巴黎	-11.4193
助理	-11.4193
精于	-11.4193
小乡人	-11.4194
老牧师	-11.4194
当佣人	-11.4194
雷纳耳先生听了	-11.4194
▁于连觉得十分	-11.4194
给我写信	-11.4194
想不出一	-11.4194
他把她送	-11.4194
弱者	-11.4194
▁抓住的	-11.4194
染着	-11.4194
我跪下来	-11.4194
十分清晰	-11.4194
为人所爱	-11.4194
明言	-11.4194
第五十	-11.4194
物色	-11.4194
毁掉	-11.4194
离他而	-11.4194
让她独自一人	-11.4194
如此可爱的	-11.4194
存心	-11.4194
领教	-11.4194
深思	-11.4195
谈笑	-11.4195
将会看见	-11.4195
如同一个	-11.4195
倾向	-11.4195
他感到自己的	-11.4195
国王马车	-11.4195
一直待	-11.4195
呆子	-11.4195
写字	-11.4195
活该	-11.4195
给震	-11.4195
队长	-11.4195
猜出	-11.4195
站在离	-11.4195
爬上去	-11.4195
公主	-11.4196
们一样的	-11.4196
生平	-11.4196
马上就会	-11.4196
对他产生了	-11.4196
无穷	-11.4196
高耸	-11.4196
全体	-11.4196
有道理	-11.4196
中感到了	-11.4196
她惊骇	-11.4196
玛蒂尔德试图	-11.4196
别人对他的	-11.4196
穆瓦罗先生十分	-11.4196
闲谈	-11.4196
再次	-11.4196
所给予	-11.4196
上天应该	-11.4196
境界	-11.4196
多愚蠢	-11.4196
察觉出	-11.4196
教士进来	-11.4196
头戴	-11.4196
讲些	-11.4196
这一点我不	-11.4197
全盘	-11.4197
能达到的	-11.4197
走私	-11.4197
一句拉丁文	-11.4197
不久以前	-11.4197
传遍了	-11.4197
了许久	-11.4197
疏远了	-11.4197
作业	-11.4197
提高了	-11.4197
表示怀疑	-11.4197
确实有些	-11.4197
侯爵大人	-11.4197
代替了	-11.4197
你应该想到	-11.4197
服了他	-11.4197
继承人	-11.4197
的大事	-11.4197
而在此时	-11.4198
的大孩子	-11.4198
途中	-11.4198
绝无	-11.4198
取代了	-11.4198
清醒了	-11.4198
作乐	-11.4198
笑脸	-11.4198
遭人	-11.4198
领导着	-11.4198
不急于	-11.4198
损伤了	-11.4198
瞪着	-11.4198
去参加舞会	-11.4198
所知道的	-11.4198
年的时光	-11.4198
是靠着他们	-11.4198
大吵一	-11.4198
激发了	-11.4198
这群人	-11.4198
爱丽莎小姐	-11.4199
感到厌恶	-11.4199
我会毫不	-11.4199
不一会	-11.4199
的柔情	-11.4199
那就好了	-11.4199
并排	-11.4199
停下来	-11.4199
有一扇	-11.4199
末端	-11.4199
回到家里	-11.4199
减轻了	-11.4199
敬爱一个	-11.4199
两件	-11.4199
什么罪	-11.4199
接替	-11.4199
合理	-11.4199
领取	-11.4199
是正确的	-11.42
先生站	-11.42
▁尔夫人	-11.42
平生	-11.42
吸引了	-11.42
可怕的危险	-11.42
如此温柔	-11.42
下楼	-11.42
失去了耐心	-11.42
八年	-11.42
说话的声音	-11.42
一开始就	-11.42
由八	-11.42
看一看	-11.42
这小乡人	-11.42
好像看到	-11.42
譬如说	-11.4201
那个美丽的	-11.4201
伟大的爱情	-11.4201
有钱的人	-11.4201
在情绪不	-11.4201
这并不是说	-11.4201
到法庭	-11.4201
我可以保证	-11.4201
可以左右	-11.4201
谁就要	-11.4201
打转	-11.4201
救出	-11.4201
兴致	-11.4201
有益	-11.4201
原是个	-11.4201
多傻	-11.4201
弃的	-11.4201
相形	-11.4201
正是出于	-11.4201
拉莫尔家的	-11.4201
强化	-11.4201
到山区	-11.4202
这些傻瓜	-11.4202
叫来一个	-11.4202
这个卑鄙的	-11.4202
她发现自己	-11.4202
台上	-11.4202
漂亮姑娘	-11.4202
▁!"#$	-11.4202
▁使一个	-11.4202
发生的那些	-11.4202
的信念	-11.4202
他所讲的	-11.4202
往往会	-11.4202
小事情上	-11.4202
第二天上午	-11.4202
以及他们的	-11.4202
瓦尔诺先	-11.4202
寄出	-11.4202
光临	-11.4202
昏晕	-11.4202
朋友们的	-11.4203
的领地	-11.4203
称道	-11.4203
在他童年时代	-11.4203
摔下来	-11.4203
拉莫尔先	-11.4203
教士的职业	-11.4203
色是那么	-11.4203
可观	-11.4203
那样美丽	-11.4203
各位	-11.4203
银币	-11.4203
那位可敬的	-11.4203
掩蔽	-11.4203
一扔	-11.4203
库里	-11.4203
押送	-11.4203
了解一下	-11.4203
坏事	-11.4204
把她那些	-11.4204
屋子里有了	-11.4204
▁自那个	-11.4204
他自己少	-11.4204
这是两个	-11.4204
不知不觉地	-11.4204
更好地	-11.4204
在罗纳河附近	-11.4204
为他做	-11.4204
就取得了	-11.4204
找到了一个	-11.4204
那封匿名信	-11.4204
这样的时刻	-11.4204
最高的	-11.4204
穷苦人	-11.4204
如此高贵的	-11.4204
耐心地	-11.4204
感到意外	-11.4205
大选举	-11.4205
到唇边	-11.4205
别提	-11.4205
这一时刻	-11.4205
把门锁上	-11.4205
年冬天我	-11.4205
料子	-11.4205
军人的	-11.4205
谢阆好牧	-11.4205
大声嚷着	-11.4205
这一整天	-11.4205
▁着他的	-11.4205
的最大的	-11.4205
由你们	-11.4205
回家来	-11.4205
产生什么	-11.4205
看样子	-11.4205
位院士	-11.4205
用不了	-11.4206
缺少的是	-11.4206
少年	-11.4206
▁在神学院里	-11.4206
任意	-11.4206
对于连产生了	-11.4206
漂亮的年轻人	-11.4206
静听着	-11.4206
前任	-11.4206
什么才是	-11.4206
白白	-11.4206
新装	-11.4206
为什么我不	-11.4206
被泪	-11.4206
他的房	-11.4206
三天以后	-11.4207
福盖合伙	-11.4207
一种近乎	-11.4207
告诉他们说	-11.4207
死一般	-11.4207
生意中	-11.4207
一钱不值的人	-11.4207
车子	-11.4207
写个	-11.4207
搬去	-11.4207
的信息	-11.4207
于连高兴地	-11.4208
前往巴黎	-11.4208
强一些的	-11.4208
他还是个	-11.4208
第一章	-11.4208
话时的那种	-11.4208
两立	-11.4208
恐怕	-11.4208
第十七	-11.4208
多久	-11.4208
他在考虑	-11.4208
下层阶级	-11.4208
正经	-11.4208
和教士们	-11.4208
百法郎的年金	-11.4208
方方	-11.4208
即使在巴黎	-11.4208
一道道	-11.4209
给她看	-11.4209
没有什么两样	-11.4209
的事便是	-11.4209
不妥	-11.4209
所有的信件	-11.4209
段落	-11.4209
在他眼睛	-11.4209
的十	-11.4209
绝对不会	-11.4209
▁起这位	-11.4209
一边笑	-11.4209
诉说着	-11.4209
有消遣	-11.4209
丝夫人	-11.4209
农妇	-11.4209
门而入	-11.4209
于连像发	-11.4209
提前	-11.421
的完美	-11.421
忍受一切	-11.421
看完	-11.421
饿坏	-11.421
通通	-11.421
等待着	-11.421
地握住	-11.421
三天之后	-11.421
为了让您	-11.421
预料到	-11.421
他的言谈	-11.421
真是痛苦	-11.421
像我父亲	-11.421
到第戎	-11.421
存在于	-11.421
把他的手	-11.421
一句话也不	-11.421
可以卖	-11.421
担心他会	-11.421
下令	-11.4211
他暗自	-11.4211
放五	-11.4211
胶水	-11.4211
看到的那样	-11.4211
所爱的女人	-11.4211
来称呼他	-11.4211
二者	-11.4211
毁灭了	-11.4211
一个贫穷的	-11.4211
于我这个	-11.4211
在我面前	-11.4211
新教教义	-11.4211
部著作	-11.4211
猛烈的	-11.4211
明明	-11.4211
最终	-11.4211
尖酸的	-11.4211
多年来	-11.4211
▁一八	-11.4211
到了维尔吉	-11.4211
成一片	-11.4211
却不允许	-11.4211
她重复了	-11.4211
自己的权力	-11.4212
辛辣	-11.4212
于连终于一个人	-11.4212
上面还	-11.4212
派人去	-11.4212
显得更加	-11.4212
公家	-11.4212
树起	-11.4212
的头脑中	-11.4212
说出的话	-11.4213
进贝桑松	-11.4213
有人发现	-11.4213
重复着	-11.4213
感到自己对	-11.4213
深重	-11.4213
这些先生不	-11.4213
是否应该	-11.4213
成语	-11.4213
他握着	-11.4213
在一旁	-11.4213
▁感到害怕	-11.4213
那个著名的	-11.4213
遭受过	-11.4213
随之	-11.4213
他的耳朵	-11.4213
始终是	-11.4213
统统都	-11.4213
不要太	-11.4213
他试着	-11.4213
大家现在	-11.4214
那段日子	-11.4214
开场	-11.4214
表明他不	-11.4214
两个小时后	-11.4214
毁灭他	-11.4214
比我更	-11.4214
受任何	-11.4214
白日	-11.4214
一块玻璃	-11.4214
猜到了	-11.4214
完全由	-11.4215
▁堂里	-11.4215
山林	-11.4215
折磨着他	-11.4215
从外表	-11.4215
那地方	-11.4215
伙人	-11.4215
似乎有些	-11.4215
画像	-11.4215
钱也不	-11.4215
拉维尔内骑	-11.4215
十分强烈	-11.4215
在等候他	-11.4215
雷纳耳先生府上	-11.4215
更具有	-11.4215
深受	-11.4215
一则是	-11.4215
非常苍白	-11.4215
▁会见	-11.4216
您就应该	-11.4216
并把它	-11.4216
可怜的女人	-11.4216
难听	-11.4216
装出	-11.4216
紧紧攫住	-11.4216
恢复她的	-11.4216
对皮拉尔神父的	-11.4216
别人怀疑	-11.4216
编造	-11.4216
雷纳耳夫人的心里	-11.4216
常所穿的	-11.4216
将一切都	-11.4216
把我赶了	-11.4216
致命伤	-11.4216
要增加	-11.4217
人物之间	-11.4217
吃饭的时候	-11.4217
和他的儿子	-11.4217
抛下	-11.4217
结果还是	-11.4217
无形	-11.4217
是犯了	-11.4217
百般	-11.4217
未被	-11.4217
一个人身上	-11.4217
不胜	-11.4217
一只手	-11.4217
期待着他	-11.4218
决不能	-11.4218
悲剧性	-11.4218
以自	-11.4218
来这儿	-11.4218
不知道的事	-11.4218
花样	-11.4218
小旅行	-11.4218
给我点	-11.4218
的青	-11.4218
这所房子里	-11.4218
佩戴	-11.4218
写明	-11.4218
省长夫人	-11.4218
越发	-11.4219
半点	-11.4219
侍从	-11.4219
十分敏感	-11.4219
一齐	-11.4219
假名	-11.4219
听不出	-11.4219
我有一颗	-11.4219
他的所作所为	-11.4219
来打算把他	-11.4219
火气	-11.4219
的兴	-11.4219
亲自把	-11.4219
两个最	-11.4219
拉莫尔先生的信	-11.4219
就像是一个	-11.4219
谈论起	-11.4219
宴饮	-11.422
玩偶	-11.422
可以允许	-11.422
默默地	-11.422
很坏	-11.422
爽快	-11.422
再谈	-11.422
的一切事情	-11.422
没有道理	-11.422
节宴	-11.422
同情心	-11.422
把一切都说	-11.422
可怕的念头	-11.422
才晓得	-11.422
一些有关	-11.422
带着一种	-11.422
跟从前的	-11.4221
选出	-11.4221
的树干	-11.4221
海上	-11.4221
的成分	-11.4221
严酷地	-11.4221
没有什么可以	-11.4221
的特点	-11.4221
他的国家里被	-11.4221
往日的	-11.4221
的欲念	-11.4221
胸部的	-11.4221
腿上	-11.4221
为人知的	-11.4221
亲笔写的	-11.4221
的价钱	-11.4221
的吸引力	-11.4221
的规矩	-11.4221
辨认的	-11.4221
一个军	-11.4221
的木柴	-11.4221
细微的	-11.4221
的牺牲品	-11.4221
的味道	-11.4221
的好机会	-11.4221
的评价	-11.4221
的密友	-11.4221
金库的	-11.4221
的姓名	-11.4221
上司	-11.4221
的报告	-11.4221
此刻正	-11.4221
是从让利来的	-11.4221
而通常	-11.4221
能指望	-11.4221
居然还	-11.4222
的圈套	-11.4222
等待这个	-11.4222
那盒子	-11.4222
头顶上的	-11.4222
打住了	-11.4222
拉维内尔先生的	-11.4222
的自白	-11.4222
满面	-11.4222
西尼	-11.4222
在我心里	-11.4222
的名称	-11.4222
口音	-11.4222
像从前	-11.4222
所能做	-11.4222
的粗人	-11.4222
之态	-11.4222
个世纪呢	-11.4222
怎么这么	-11.4222
的脚步声	-11.4222
他梦想着	-11.4222
的大颗	-11.4222
的证据	-11.4222
话语的	-11.4222
此话	-11.4222
必须离开	-11.4222
接过	-11.4223
不耐烦的	-11.4223
的老板娘	-11.4223
楼里	-11.4223
真心	-11.4223
能否	-11.4223
暗自思	-11.4223
高高的	-11.4223
其实不过	-11.4223
的幽暗	-11.4223
伯爵夫人	-11.4223
这些书籍	-11.4223
永别	-11.4223
清新	-11.4223
可瞧见一	-11.4223
记下了	-11.4223
的问候	-11.4224
根本就	-11.4224
以此	-11.4224
反正这	-11.4224
太太们	-11.4224
的思念	-11.4224
惊人的	-11.4224
真是再	-11.4224
还有好多	-11.4224
发火	-11.4224
颤抖着	-11.4224
假如我们	-11.4225
读到的	-11.4225
▁练了一	-11.4225
借口说	-11.4225
的年轻教士	-11.4225
发白	-11.4225
搬进	-11.4225
嫉妒得	-11.4225
这本来是	-11.4225
马拉	-11.4225
心急	-11.4225
跳下	-11.4225
达到这种	-11.4225
的消魂	-11.4225
在这个舞会上	-11.4226
骄傲的心	-11.4226
她的情	-11.4226
如果让于连	-11.4226
从来没有像	-11.4226
您以为	-11.4226
扔进	-11.4226
非但	-11.4226
为了掩饰	-11.4226
击伤	-11.4226
可靠	-11.4227
这个职位	-11.4227
的伤势	-11.4227
想和我	-11.4227
孩子的死	-11.4227
去拜访	-11.4227
事物的看法	-11.4227
凭着	-11.4227
在他看来	-11.4227
我们之间不	-11.4227
欣赏着	-11.4227
躲在她	-11.4228
这封信是用	-11.4228
常常能	-11.4228
这个客厅里的	-11.4228
太痛苦了	-11.4228
回来以后	-11.4228
在院子里	-11.4228
退出	-11.4228
你的学生	-11.4228
一年前	-11.4228
照料他们	-11.4228
非要	-11.4228
能给	-11.4228
它跑	-11.4228
激起了	-11.4229
叫人瞧见	-11.4229
永远不会有	-11.4229
素来	-11.4229
可以利用	-11.4229
礼拜日	-11.4229
有人请	-11.4229
的山间	-11.4229
边儿	-11.423
家的家	-11.423
一百倍	-11.423
回想起	-11.423
我估计不	-11.423
一个犯罪的	-11.423
字字	-11.423
几乎变得	-11.423
十年后	-11.423
布道	-11.423
你就说你	-11.4231
书房里	-11.4231
认出来	-11.4231
他拒绝我	-11.4231
的那次	-11.4231
邀请于连和	-11.4231
冬天的	-11.4231
在那些自由党	-11.4231
不禁使他	-11.4231
揍了	-11.4231
▁我的名字	-11.4231
几乎无法	-11.4231
讲的那	-11.4231
个星期五	-11.4231
年终	-11.4231
所有的人都	-11.4232
无边	-11.4232
几天以前	-11.4232
请注意	-11.4232
这个名字	-11.4232
乐道	-11.4232
省下来	-11.4232
%&’	-11.4233
对这桩	-11.4233
添上	-11.4233
成为大家	-11.4233
这个著名的	-11.4233
台弥撒	-11.4233
量一下这	-11.4233
门铃	-11.4233
注视着那	-11.4234
▁一定得	-11.4234
▁于连感到惊讶	-11.4234
可怕的痛苦	-11.4234
作出决定	-11.4234
我的孩	-11.4234
惹起	-11.4234
有福	-11.4234
教长	-11.4234
那匹	-11.4234
个三十岁的	-11.4234
却是最	-11.4234
当作是	-11.4234
心机	-11.4234
一一列	-11.4235
认识到	-11.4235
是丑恶的	-11.4235
进门	-11.4235
击中	-11.4235
配不上她	-11.4235
来阅读	-11.4235
她提及	-11.4236
十分清楚	-11.4236
他没有听到	-11.4236
那双眼睛	-11.4236
明智地	-11.4236
三百法郎的薪金	-11.4236
愚弄我	-11.4236
跟她丈夫	-11.4236
很小的	-11.4236
要选择	-11.4236
半天	-11.4236
平庸的人	-11.4237
声明	-11.4237
不觉	-11.4237
小心地	-11.4237
得极为	-11.4237
看见丈夫	-11.4237
也不动	-11.4237
这样想道	-11.4237
她生命中	-11.4237
住在一个	-11.4237
他心中思度	-11.4238
人的精力	-11.4238
那一刻	-11.4238
自己的悔恨	-11.4238
小官司	-11.4238
这不再是	-11.4238
一整页	-11.4238
场官司	-11.4238
被绞死	-11.4238
情况都	-11.4238
▁疯狂的	-11.4238
这种情感	-11.4239
有过要	-11.4239
在我心目	-11.4239
搬来	-11.4239
与世	-11.4239
雷纳耳先生心中	-11.4239
得丧失了	-11.4239
最苦	-11.4239
完全没有	-11.424
去骑马	-11.424
去骗	-11.424
没有一点儿	-11.424
非常快乐	-11.424
低声地	-11.424
都不错	-11.424
可怕的天主	-11.424
后代	-11.424
使全社会	-11.4241
男爵的爵	-11.4241
人在	-11.4241
▁他说这	-11.4241
写成	-11.4241
一个农	-11.4241
那优雅的	-11.4241
是不谨慎	-11.4241
我来这儿	-11.4241
但我却	-11.4241
心脏	-11.4242
朋友们都	-11.4242
做活	-11.4242
我的判断	-11.4242
▁六点钟	-11.4242
▁于连对自己的	-11.4242
在悠	-11.4242
在路易十四	-11.4242
小故事	-11.4242
显得更	-11.4242
地站起来	-11.4242
会大大	-11.4242
正是由于	-11.4242
扇	-11.4242
神父神情	-11.4243
在别的地方	-11.4243
低下	-11.4243
的口气说道	-11.4243
她全部的	-11.4243
谈话结束	-11.4243
进身	-11.4243
享受到了	-11.4243
很可怕	-11.4243
把我杀死	-11.4243
在维尔基埃	-11.4244
那些嫉妒	-11.4244
还是早	-11.4244
感到恐惧	-11.4244
被押	-11.4244
件黑色的	-11.4244
大概会	-11.4244
十分虔诚	-11.4244
床铺	-11.4244
既没有	-11.4244
那帮	-11.4244
他以为这是	-11.4245
图谋杀	-11.4245
孩子气	-11.4245
他一心	-11.4245
暴风雨中	-11.4245
粗大	-11.4245
比内	-11.4245
接着便	-11.4246
便不再	-11.4246
得够	-11.4246
答应下来	-11.4246
愿意花	-11.4246
去欣赏	-11.4246
索要	-11.4246
这个乡下人	-11.4246
上传来	-11.4247
就请你	-11.4247
一个美好的	-11.4247
不败	-11.4247
把报纸	-11.4247
你说什么	-11.4247
学会	-11.4247
很重要	-11.4247
也屈尊	-11.4248
所处的	-11.4248
▁三	-11.4248
▁意到	-11.4248
先前	-11.4248
来羞辱	-11.4248
全然	-11.4248
贴身女仆	-11.4248
的园丁	-11.4249
你以为	-11.4249
成见	-11.4249
揭开	-11.4249
挺可爱	-11.4249
这种礼貌	-11.4249
居然用	-11.4249
最讨厌	-11.4249
确实如此	-11.4249
小事上	-11.4249
另有	-11.4249
大闹一	-11.4249
付给您	-11.4249
那些年轻的	-11.425
隐藏起	-11.425
不忍	-11.425
做您的	-11.425
可以指责	-11.4251
不平的	-11.4251
于连看了看	-11.4251
为什么要来	-11.4251
连连	-11.4251
于连露面了	-11.4251
把吉罗尼莫给	-11.4251
您不要	-11.4251
瓦尔诺的聘	-11.4251
勒里	-11.4251
那么温柔	-11.4251
两个大	-11.4251
会使那些	-11.4251
这些计划	-11.4251
是天下最	-11.4252
仿佛他在	-11.4252
真心爱	-11.4252
不久就	-11.4252
他的两个	-11.4252
这种蔑视	-11.4252
那么近	-11.4252
的喜悦	-11.4253
打开他的	-11.4253
十九岁了	-11.4253
的一个小教士	-11.4253
你的朋友	-11.4253
留下一点	-11.4253
你一人	-11.4253
这位瓦尔诺先生	-11.4253
这是为什么	-11.4253
他的极度	-11.4254
他的朋友有	-11.4254
于连独自留在	-11.4254
抛头露面了	-11.4254
那样地	-11.4254
有礼貌	-11.4254
维鲤叶所有	-11.4254
的责任是	-11.4254
▁信给他	-11.4254
雅的女子	-11.4254
一边继续	-11.4254
法庭庭长	-11.4254
一行	-11.4254
他发现自己	-11.4254
百来	-11.4254
特别喜欢	-11.4254
抛弃了	-11.4254
个六尺高的	-11.4254
起身	-11.4254
花园中	-11.4255
几乎不能	-11.4255
买下了	-11.4255
卑鄙地	-11.4255
大乱	-11.4255
准会	-11.4255
上两个	-11.4255
侯爵说道	-11.4256
非常喜欢	-11.4256
村民	-11.4256
有人这样	-11.4256
却毫无	-11.4257
这些外省人	-11.4257
地溜	-11.4257
能找到一个	-11.4257
已习惯于	-11.4257
一幅	-11.4257
多少事	-11.4257
这种目光	-11.4257
公爵先生	-11.4257
手下	-11.4257
追随着	-11.4257
他细细	-11.4258
把维鲤叶	-11.4258
很快就要	-11.4258
有一瞬间	-11.4258
蜡烛时	-11.4258
遗忘了	-11.4258
院士先生	-11.4258
站着	-11.4258
对于所有	-11.4258
你的人	-11.4258
行拉丁文	-11.4259
游行	-11.4259
想通过	-11.4259
还不到	-11.4259
在于连看来	-11.4259
这伙	-11.4259
慷慨地	-11.4259
巧妙地	-11.426
引得	-11.426
发自	-11.426
等着您	-11.426
还清	-11.426
种真实的	-11.4261
也许他是	-11.4261
面对着	-11.4261
于连冷静地说	-11.4261
余的人	-11.4261
狡猾的	-11.4261
成家	-11.4261
讨人	-11.4261
高尚和	-11.4261
他用他的	-11.4261
意大利人	-11.4262
这无疑是	-11.4262
我可没有	-11.4262
子儿	-11.4262
哪怕有	-11.4262
玛蒂尔德小姐用	-11.4263
消除了	-11.4263
小说中	-11.4264
竟比	-11.4264
没作	-11.4264
的其余	-11.4264
大傻瓜的	-11.4264
跟我一样	-11.4264
拖着	-11.4264
傻瓜们	-11.4264
参加过	-11.4264
穿上它	-11.4264
我是不会	-11.4264
去帮	-11.4265
而易	-11.4265
第十二	-11.4265
这个坏	-11.4265
而后者	-11.4265
要负责	-11.4265
拉莫尔先生家	-11.4265
又暗	-11.4265
无光	-11.4265
而乌黑	-11.4265
长信	-11.4266
最优秀的	-11.4266
生活在一起	-11.4266
主持人	-11.4266
还有一点	-11.4266
于连背书的	-11.4266
这使得	-11.4266
大门口	-11.4267
回来后	-11.4267
脑子里只	-11.4267
借来	-11.4267
我们在一起	-11.4267
他那外省人	-11.4267
恶意	-11.4267
权力和	-11.4267
请教	-11.4267
要向我	-11.4268
的神情说道	-11.4268
要饭	-11.4268
此后	-11.4269
变为	-11.4269
生命中	-11.4269
这个人不是	-11.4269
就是这个人	-11.4269
福盖看到他	-11.4269
机会对	-11.4269
去给于连	-11.4269
做牧师的	-11.4269
五天	-11.4269
信使	-11.4269
我的温度计	-11.427
要是没有	-11.427
所要求	-11.427
查明	-11.427
的厚爱	-11.427
起勇气	-11.427
文人	-11.427
面部	-11.427
不愿意再	-11.427
锁着	-11.427
紧紧抱住	-11.4271
的竟是	-11.4271
愿意把	-11.4271
在黑暗中	-11.4271
惭愧	-11.4271
处事	-11.4272
但绝不	-11.4272
您屈尊	-11.4272
您是一位	-11.4272
是于连所	-11.4272
这个年龄	-11.4272
一旁	-11.4272
去世了	-11.4272
很难	-11.4273
的可能性	-11.4273
这提议	-11.4273
在战争	-11.4273
陷落	-11.4273
敲着	-11.4273
使他显得	-11.4273
里描画出	-11.4273
晕了	-11.4273
蔑视自己	-11.4274
理得	-11.4274
是可笑的	-11.4274
可说是	-11.4274
性子	-11.4274
坚定而	-11.4274
如果仅仅	-11.4274
重大问题	-11.4275
▁他的回答	-11.4275
如果您想	-11.4275
人们看到	-11.4275
看到的是	-11.4275
不要让	-11.4275
空闲	-11.4275
那个年轻人	-11.4275
红肠	-11.4276
还带着马	-11.4276
这么一句	-11.4277
不利的	-11.4277
挨着她	-11.4277
人支持	-11.4277
这位可怜的	-11.4277
预备好	-11.4277
接您	-11.4277
势不	-11.4278
谋一个	-11.4278
去吃饭	-11.4278
小村	-11.4278
最伟大的	-11.4278
些吧	-11.4278
看到的只是	-11.4278
出入	-11.4278
这个善良	-11.4278
他们就会	-11.4279
了他的手	-11.4279
盖有	-11.4279
一文	-11.4279
权力的	-11.428
三下	-11.428
最疯狂	-11.428
夫妇	-11.428
也是不能	-11.428
她的情夫	-11.428
到时候	-11.428
眼前有	-11.428
话来刺激	-11.428
在拉莫尔府的	-11.428
送过来	-11.4281
承认自己	-11.4281
天天	-11.4281
她什么也没有	-11.4281
跟市长	-11.4281
高出一	-11.4282
雷纳耳夫人扑	-11.4282
件家具	-11.4282
她到贝桑松来	-11.4282
造就一个	-11.4283
地站	-11.4283
觉到了	-11.4283
缓和	-11.4283
渐渐地	-11.4283
出路	-11.4283
秘密团体	-11.4283
教育他们	-11.4284
能主宰	-11.4284
闪落	-11.4284
相信一切	-11.4284
地推	-11.4284
给瓦尔诺先生	-11.4284
十分惊讶	-11.4284
事先就	-11.4284
看门	-11.4284
隔着	-11.4285
大红	-11.4285
他过去在	-11.4285
可以成为	-11.4285
他的证人	-11.4285
可怜的侯爵	-11.4285
内情	-11.4285
长进	-11.4285
走了以后	-11.4285
好像是在	-11.4286
得讲	-11.4286
骄傲和	-11.4286
法里	-11.4286
此时自己	-11.4286
尝到	-11.4286
部小说	-11.4287
发泄在	-11.4287
雷纳耳夫人的情况	-11.4287
此时他的	-11.4287
相貌才	-11.4287
这地方	-11.4287
很讨	-11.4287
们的统治	-11.4287
他指着	-11.4287
那时你	-11.4287
第三个人	-11.4287
将是这	-11.4288
的图书室里	-11.4288
替你	-11.4288
的代理主教	-11.4288
仅仅是因为	-11.4289
当它们	-11.4289
我要是不	-11.4289
他们来到了	-11.4289
看重	-11.4289
我有钱	-11.4289
雷纳耳夫人回答道	-11.4289
客厅里所	-11.4289
写了一封信	-11.4289
从那儿	-11.4289
孤儿	-11.429
的小旁听席	-11.429
什么可	-11.429
判处	-11.429
的天真无知	-11.429
他压根	-11.429
压倒了	-11.429
身无	-11.429
人的工钱	-11.4291
少得	-11.4291
▁于连很不	-11.4291
用词	-11.4291
项工作	-11.4291
一亮	-11.4291
狭小的	-11.4291
再听	-11.4291
看了一遍	-11.4292
没有资格	-11.4292
君主国的	-11.4292
的怀抱	-11.4292
的惯	-11.4292
疯的	-11.4292
▁已是	-11.4292
醒着	-11.4293
最深沉	-11.4293
是玛蒂尔德的	-11.4293
年轻女士	-11.4293
只觉得	-11.4293
朝门口	-11.4293
窘迫而	-11.4293
听到这些	-11.4293
被投入这	-11.4294
办一件事	-11.4294
排解	-11.4294
那颗	-11.4295
这个姑娘	-11.4295
去参加	-11.4295
在哭	-11.4295
那副	-11.4295
那个教士	-11.4295
布雷勒奥的	-11.4295
冒着	-11.4295
十分得意	-11.4296
老人说	-11.4296
里表现出	-11.4297
曾为	-11.4297
他想得到	-11.4297
远大	-11.4297
这些孩子	-11.4297
只有一次	-11.4298
但是仍然	-11.4298
在图书馆	-11.4298
客厅里那些	-11.4298
每件	-11.4298
他发觉自己	-11.4298
我对他们的	-11.4298
他尽可能	-11.4298
无法再	-11.4298
阴谋和	-11.4299
心神	-11.4299
第一卷	-11.4299
很注意	-11.4299
府中	-11.4299
他估计	-11.4299
的心房	-11.4299
忙地	-11.4299
可是当时	-11.4299
他这样想	-11.4299
谢地	-11.4299
城中	-11.43
看出一	-11.43
总想	-11.43
一刀	-11.43
一望见	-11.43
自由党人也	-11.43
如今已	-11.4301
话辱骂	-11.4301
变得十分	-11.4301
在舞会上	-11.4301
仅有的	-11.4301
怎么会不	-11.4301
每件事	-11.4302
她明白	-11.4302
别无	-11.4302
自己眼睛	-11.4302
只见	-11.4302
会引起	-11.4303
可行	-11.4303
很漂亮	-11.4303
最难	-11.4303
下等人	-11.4303
他大大地	-11.4303
人静	-11.4304
看看这个	-11.4304
他的怀抱	-11.4304
多么幸福	-11.4304
一个学	-11.4304
身不由己地	-11.4304
一想起	-11.4305
有九	-11.4305
夸大说	-11.4305
事一样	-11.4306
英国人	-11.4306
大方	-11.4306
▁有像	-11.4306
只要看	-11.4306
外来的	-11.4306
那些狗	-11.4307
对她很	-11.4307
跟孩子们	-11.4307
夏斯神父说	-11.4307
示意他	-11.4307
把事情	-11.4307
结束他的	-11.4308
很熟悉	-11.4308
最令人	-11.4308
▁但这	-11.4308
所有的这些	-11.4308
也可能	-11.4308
他们来到	-11.4308
这样一个人	-11.4308
第十五	-11.4309
她为她的	-11.4309
因而他们	-11.4309
所做	-11.4309
认识她们	-11.4309
促成的	-11.4309
令人心	-11.4309
得很妙	-11.431
过气来	-11.431
发起	-11.431
认识您	-11.431
津加勒利先生	-11.431
侯爵所表现出	-11.431
表现出来的	-11.431
他已不再	-11.4311
知足	-11.4311
的遗迹	-11.4311
手留	-11.4311
表现得十分	-11.4311
真是一件	-11.4311
人来打扰	-11.4311
继承了	-11.4312
很有理由	-11.4312
她的女主人	-11.4312
的妇女都	-11.4312
您的丈夫	-11.4312
会有好的	-11.4313
时就应该	-11.4313
为由	-11.4313
名言	-11.4313
推荐了	-11.4314
这种充满	-11.4314
愈是	-11.4314
是残忍	-11.4314
的承继女	-11.4314
吃过	-11.4314
用一份	-11.4314
集中了	-11.4314
并没有想	-11.4314
用眼睛	-11.4314
能背诵	-11.4315
或者别人	-11.4315
胸口	-11.4315
猜透了	-11.4316
使那些	-11.4316
等候了	-11.4316
餐时	-11.4316
能用	-11.4316
也流	-11.4316
的犬儒主义	-11.4317
他的被保护人	-11.4317
终于被	-11.4317
大炮	-11.4317
他说的话	-11.4317
情理的	-11.4317
转变了	-11.4317
本来就	-11.4317
非常生	-11.4318
保留的	-11.4318
再想到	-11.4318
行之	-11.4318
会出现	-11.4318
主教是个	-11.4318
四下	-11.4318
全家的人	-11.4318
▁里取	-11.4318
高处	-11.4318
她的斥责	-11.4319
对外	-11.4319
极好的	-11.4319
手头	-11.4319
的作风	-11.4319
富丽的	-11.4319
普遍的	-11.4319
野蛮的	-11.4319
的衬衫	-11.4319
适宜的	-11.4319
的堡墙	-11.4319
不休的	-11.4319
无可挑剔的	-11.4319
的速度	-11.4319
是上天	-11.4319
皮拉尔神父认为	-11.4319
的价格	-11.4319
不甚	-11.432
的欲望	-11.432
狂热地爱	-11.432
的睡眠	-11.432
的无知	-11.432
于连得知	-11.432
打发走了	-11.432
在听我	-11.432
小眼睛	-11.432
大厅中	-11.432
魄的	-11.432
我们放	-11.432
鲁莽的	-11.432
的男仆	-11.432
统治下的	-11.4321
薹为艹的	-11.4321
这么想	-11.4321
的密探	-11.4321
这个问题上	-11.4321
听从了	-11.4321
找一个	-11.4322
她大吃一惊	-11.4322
真话	-11.4322
的姿	-11.4322
▁桑松的	-11.4323
深入	-11.4323
疑惑的	-11.4323
这些年轻人	-11.4323
于连迅速	-11.4323
就把他的	-11.4323
费用	-11.4323
那样做	-11.4324
能给我	-11.4324
于连不顾	-11.4324
那我就	-11.4324
这位置	-11.4324
怒不可	-11.4324
我想象的	-11.4324
您会为	-11.4324
以至于他	-11.4325
两年的	-11.4325
这个老	-11.4325
▁—"#	-11.4325
秋天的	-11.4325
一定会有	-11.4326
大难	-11.4326
她自己也	-11.4326
犯了罪	-11.4326
不出一	-11.4326
指了指	-11.4326
他发觉于连	-11.4327
在跟前	-11.4327
一个人离开	-11.4327
洞窟	-11.4327
得凶	-11.4327
能做什么	-11.4327
度过的幸福	-11.4328
爱我呢	-11.4328
细致	-11.4329
毕竟不	-11.4329
几乎都	-11.4329
我就想	-11.4329
过活	-11.4329
的景色	-11.433
他的妹妹	-11.433
增加他的	-11.433
在琢磨	-11.433
敌对的	-11.433
晚上八点	-11.4331
几下	-11.4331
于连低下头	-11.4331
平凡	-11.4331
的情绪也	-11.4331
的内阁	-11.4331
一向是	-11.4332
一共	-11.4332
鼓动	-11.4332
他死后	-11.4332
浓黑的	-11.4333
上流社会的人	-11.4333
的对话	-11.4333
把我救	-11.4333
这位从巴黎	-11.4333
她要求于连	-11.4333
也许还有十	-11.4334
吃到	-11.4334
生命去	-11.4335
法庭上	-11.4335
有理	-11.4335
他和她	-11.4335
我热爱	-11.4335
了贺拉斯	-11.4335
追着	-11.4336
对待一个	-11.4336
送上	-11.4337
出了名	-11.4337
不足	-11.4337
想显得	-11.4337
进那个	-11.4337
出卖给	-11.4338
日常生活	-11.4338
能想出	-11.4338
一听见这	-11.4339
玛蒂尔德立刻	-11.4339
的想法也	-11.4339
的题	-11.4339
无法解释的	-11.4339
女人给	-11.4339
就再也	-11.4339
为了表示	-11.4339
根本没有想到	-11.434
加上	-11.434
一边想	-11.434
这样一种	-11.434
再没有	-11.434
▁得自己	-11.434
里边	-11.4341
来完成	-11.4341
前不久	-11.4341
目不	-11.4341
百分之	-11.4341
首先就	-11.4341
不太符合	-11.4341
好的信	-11.4342
打听我	-11.4342
几千法郎	-11.4342
使我觉得	-11.4342
情爱	-11.4342
等候他	-11.4342
回身	-11.4342
又黑	-11.4342
他的情绪也	-11.4343
听到这个	-11.4343
美丽的花园	-11.4343
能容忍的	-11.4343
来到维尔吉	-11.4343
要欺骗	-11.4344
▁有的时候	-11.4344
于连的自尊心	-11.4344
有人告诉	-11.4345
发疯似	-11.4346
们的说法	-11.4346
更更	-11.4347
每年有八百利维儿的	-11.4347
她卧房	-11.4347
他的想象	-11.4347
才觉得	-11.4347
却流露出	-11.4347
传到	-11.4347
一心想	-11.4348
再回来	-11.4348
他的容貌	-11.4349
似乎正在	-11.4349
于于连的	-11.4349
所思	-11.4349
桌上的	-11.435
我收回	-11.435
愚弄	-11.435
的漂亮话	-11.435
我处在	-11.435
上散步	-11.435
不动	-11.4351
去和他们	-11.4351
▁是我	-11.4351
的口气回答	-11.4352
回答您	-11.4352
这个姓氏	-11.4352
所做的	-11.4352
那次	-11.4353
的八百法郎	-11.4353
离开我们	-11.4353
曾经说过	-11.4354
来说有多么	-11.4354
情十分严肃地	-11.4354
于连稍稍	-11.4354
主人们	-11.4354
看作	-11.4354
聪慧的人	-11.4354
哪怕是	-11.4354
瓦尔诺会	-11.4355
在等待	-11.4355
人之间	-11.4355
贵的出身	-11.4356
确实在生	-11.4356
位于	-11.4356
或许是	-11.4356
的美貌	-11.4356
他情妇的	-11.4356
那场	-11.4357
接待他	-11.4357
卑微	-11.4357
应付这	-11.4357
得让他	-11.4357
只猛	-11.4357
亲自来	-11.4358
在咖啡馆里	-11.4358
小教堂	-11.4358
阿尔塔米拉伯爵是	-11.4358
不经	-11.4358
不再去想	-11.4359
人啊	-11.4359
拉伯	-11.4359
年之内	-11.4359
事情上	-11.4359
信后	-11.4359
不一会儿	-11.4359
脚地	-11.436
十分谦逊	-11.436
有五十法郎	-11.436
已经活	-11.4361
而简单	-11.4361
就可以把	-11.4361
为我们	-11.4361
希望这样	-11.4361
语气十分	-11.4361
的啼	-11.4363
染上	-11.4363
一些新的	-11.4363
来到巴黎	-11.4363
过半	-11.4364
听说了	-11.4364
先想好	-11.4364
没有丝毫的	-11.4364
在他心里	-11.4365
坐在一	-11.4366
常常会	-11.4366
▁五点	-11.4366
草地	-11.4366
▁这么些	-11.4367
影响到	-11.4367
▁奖	-11.4367
▁不管怎样	-11.4367
▁仰慕	-11.4367
▁桥	-11.4367
▁努瓦罗先生	-11.4367
▁募捐	-11.4367
▁勤	-11.4367
▁妒	-11.4368
才走进	-11.4368
▁倦	-11.4368
▁弃了	-11.4368
▁仑	-11.4368
是伟大	-11.4368
板上面	-11.4368
▁续	-11.4368
点心	-11.4368
之行	-11.4368
他受到了	-11.4368
仔细地	-11.4368
所缺少的	-11.4368
她以为	-11.4369
是对方	-11.4369
▁他的太太	-11.4369
赶出去	-11.4369
极刑	-11.4369
们身边的人	-11.4369
连忙	-11.4369
所以在他	-11.4369
分离的	-11.4369
把手	-11.437
▁益	-11.437
▁宣告	-11.4371
把这张	-11.4371
当成	-11.4371
心理	-11.4371
迷得	-11.4372
公事	-11.4372
派遣	-11.4372
这对于	-11.4372
脸色比	-11.4372
边走边想	-11.4372
回了什么	-11.4372
离得	-11.4373
里读出	-11.4373
之家	-11.4373
平凡的事情	-11.4373
▁庭长夫人	-11.4373
控制了	-11.4374
五天之内	-11.4375
对我说来	-11.4375
骑在	-11.4375
们所谓的	-11.4375
正忙着	-11.4375
想到自己	-11.4376
指责我	-11.4376
叫我明白	-11.4376
天底下	-11.4376
皮拉尔神父向	-11.4376
跪倒在她	-11.4376
上看不到一	-11.4376
残酷了	-11.4376
的来临	-11.4377
如果是在	-11.4377
破坏了	-11.4377
我确	-11.4377
件占据	-11.4378
更使于连	-11.4378
虽然很	-11.4378
教主	-11.4379
▁多么	-11.4379
是法国	-11.4379
一阵子	-11.438
他什么也	-11.438
曾经有过	-11.438
这两个人	-11.4381
向牧师	-11.4381
于连朝	-11.4381
富人	-11.4381
把他扶	-11.4382
这个家里	-11.4382
把我交	-11.4383
一曲	-11.4383
也不知	-11.4383
的天职	-11.4384
玛蒂尔德觉得	-11.4384
我从来就	-11.4384
激动着	-11.4384
的朋	-11.4384
失宠的	-11.4384
和我丈夫	-11.4384
他大叫	-11.4384
他本人的	-11.4385
这部	-11.4385
越过了	-11.4385
房间去	-11.4385
大力	-11.4385
那位官员	-11.4386
的心灵就会	-11.4386
惊醒了他	-11.4387
可能会被	-11.4387
却是一个	-11.4387
醉心于他	-11.4387
和宗教	-11.4387
他恨不得	-11.4387
是自由党	-11.4387
他们互相	-11.4388
当面	-11.4388
他们总	-11.4389
差不多是	-11.4389
有意识	-11.4389
两者之	-11.4389
可以拿到	-11.4389
使他相信	-11.4389
侯爵需要	-11.439
他的话使	-11.439
中风	-11.439
▁个地方	-11.439
自己的儿子	-11.4391
的口气说	-11.4391
我有幸	-11.4391
财产和	-11.4391
雷纳耳夫人异常	-11.4391
担心自己	-11.4391
铁栅栏的	-11.4392
自思	-11.4392
的陈设	-11.4392
一个新的	-11.4392
地想起	-11.4393
时装	-11.4393
美好的	-11.4394
便向	-11.4394
一个名叫	-11.4394
像于连这样的	-11.4394
到外	-11.4395
天的幸福	-11.4396
就不再	-11.4396
地谈论	-11.4396
侮辱你	-11.4396
都是那些	-11.4396
他的才华	-11.4397
他爱着	-11.4397
我爱你	-11.4397
布商	-11.4397
雷纳耳夫人心想	-11.4397
你这句话	-11.4397
唯一的一个	-11.4397
去谈	-11.4398
竟没有	-11.4398
的管家	-11.4398
她的名誉	-11.4399
是极为	-11.44
您的名字	-11.44
雷纳耳夫人心中	-11.44
控制住	-11.4401
剧院的	-11.4401
看成是一个	-11.4402
没有料到	-11.4402
天大的	-11.4402
回答玛蒂尔德	-11.4403
的痛苦和	-11.4403
到过去	-11.4404
娶我	-11.4404
多得	-11.4404
以为她	-11.4404
他的见解	-11.4405
金钱和	-11.4405
福盖来了	-11.4405
于连停在了	-11.4405
最近的	-11.4405
他并不是这	-11.4405
因为别人	-11.4406
想象里	-11.4406
大家都认为	-11.4406
真的要	-11.4406
使我懂得	-11.4407
你是不是	-11.4407
作为一个	-11.4407
一切进行得	-11.4408
他向自己说道	-11.4408
额外收入	-11.4409
她的眼神	-11.4409
拉着	-11.4409
自己成为	-11.4409
可以自由	-11.441
一惊	-11.441
字不	-11.4411
在维	-11.4411
对这类	-11.4411
情况后	-11.4411
通行	-11.4411
就知道	-11.4412
的荣幸	-11.4412
听见被	-11.4412
消了	-11.4413
此地	-11.4414
说得很	-11.4414
谁想	-11.4414
我知道您	-11.4415
一辈子感到	-11.4415
他就应该	-11.4415
却根本不	-11.4415
椅子里	-11.4415
所以才	-11.4415
我总算	-11.4416
动用	-11.4416
的服装	-11.4416
曾看见过	-11.4417
▁一块	-11.4417
人的贵族	-11.4417
终于得到了	-11.4417
就象	-11.4417
愤怒和	-11.4417
过失的	-11.4418
一分	-11.4418
▁仆人们	-11.4418
个客厅	-11.4418
如果国王	-11.4419
的盲目	-11.4419
乏味的	-11.4419
给予她	-11.4419
的较量	-11.4419
教区的	-11.4419
的流氓	-11.442
的功夫	-11.442
好啦	-11.442
对情人	-11.4421
的沉闷	-11.4421
这个死	-11.4421
的亲笔	-11.4421
热闹的	-11.4421
的使命	-11.4421
自己的生命	-11.4422
里路	-11.4422
年龄和	-11.4423
会这么	-11.4423
我们这位	-11.4423
▁产	-11.4423
怪异的	-11.4424
山上的	-11.4424
省长和	-11.4424
律师说	-11.4424
无情的	-11.4424
柔甜的	-11.4424
占去	-11.4425
去一趟	-11.4425
斥她	-11.4425
▁希望	-11.4425
他站起身	-11.4426
是完美的	-11.4426
▁尔先生	-11.4426
的大理石	-11.4426
去读	-11.4426
▁那个他	-11.4426
▁这句	-11.4427
可以看到	-11.4427
分发	-11.4428
村里的	-11.4428
那些粗俗	-11.4428
这么容易	-11.4428
使得他们	-11.4428
问题上	-11.4428
愣在那	-11.4428
为一个人	-11.4429
把你和	-11.4429
著的	-11.4429
他暗暗	-11.4429
他很想	-11.443
来探监	-11.443
他被任命为	-11.4431
三个人	-11.4431
不多的	-11.4431
对任何事情	-11.4431
这枚十字勋章的	-11.4431
我永远不会	-11.4431
的拯救	-11.4431
难道你	-11.4432
签了	-11.4432
会不	-11.4432
孩子在一起	-11.4433
给主教	-11.4433
更好的	-11.4433
瞧见她	-11.4434
我每月	-11.4434
要不就	-11.4434
百埃居	-11.4434
我一点也不	-11.4434
教会里	-11.4434
▁年前	-11.4435
爱上我	-11.4435
我之所以	-11.4435
这个自由党人	-11.4435
行为中	-11.4435
亮的	-11.4435
神父以及	-11.4435
的事迹	-11.4436
使它	-11.4436
十五年来	-11.4436
那些信	-11.4436
好日子	-11.4437
来谈论	-11.4437
依旧	-11.4437
无所	-11.4437
不分	-11.4438
也使她	-11.4438
▁实的	-11.4438
他想不到	-11.4438
大主	-11.4439
去跟他	-11.4439
她的马车	-11.4439
在斯特拉斯堡	-11.444
的锦绣前程	-11.444
已将	-11.444
机灵的	-11.4441
我不愿	-11.4442
的书信	-11.4442
低低地	-11.4443
坐在他	-11.4443
从维尔吉	-11.4443
给他看	-11.4443
不会再见	-11.4444
有八九	-11.4445
正在向	-11.4445
一万	-11.4446
来接	-11.4446
不客气地	-11.4447
了六年	-11.4447
商人	-11.4447
情理	-11.4447
他听了	-11.4447
雷纳耳夫人对于连	-11.4447
小差	-11.4447
她焦急	-11.4448
我的优势	-11.4449
他的笨拙	-11.4449
和孩子们在	-11.445
的工业	-11.445
该让你	-11.445
还要搞	-11.445
哭得像个	-11.445
我喜爱	-11.4451
近人	-11.4451
这一方面来	-11.4451
的推荐	-11.4451
场景	-11.4451
坐在一把	-11.4451
并不知道	-11.4452
用力	-11.4452
于牺牲	-11.4452
不谈	-11.4452
强迫自己	-11.4453
随即他	-11.4453
很快乐	-11.4453
的邻人	-11.4453
一时一刻	-11.4453
让那些	-11.4454
那么可爱	-11.4454
侮辱和	-11.4455
葡萄园里	-11.4455
是世界上最	-11.4456
过一点	-11.4456
这年龄	-11.4456
官司	-11.4457
难道就	-11.4457
的仆人把	-11.4457
一种最	-11.4458
已经将	-11.4458
的爱慕	-11.4458
危险性	-11.4458
把一只	-11.4458
经过他的	-11.446
二十个人	-11.446
全被	-11.446
的过错	-11.4461
她抓	-11.4461
想法是那么	-11.4461
没有能力	-11.4461
孩子把	-11.4461
一无所有	-11.4462
阔了	-11.4462
他可以看见	-11.4462
于连的回答	-11.4463
不久您	-11.4463
的木材商	-11.4463
▁之	-11.4463
▁品	-11.4463
了极大的	-11.4464
连自己	-11.4464
所得	-11.4464
在夜里	-11.4465
你一定会	-11.4465
的阴谋家	-11.4466
勇气也没有	-11.4466
他自言自语	-11.4467
了好些	-11.4468
迟疑不	-11.4468
所了解	-11.4468
获得一个	-11.4469
来解释	-11.4469
在公开	-11.4469
他们听到	-11.447
是大大	-11.4471
是有什么东西	-11.4471
是不会	-11.4471
他一定要	-11.4471
我的敌人	-11.4471
的懦弱	-11.4472
弄错	-11.4472
的笔迹	-11.4474
从斯特拉斯堡	-11.4474
送给于连	-11.4475
竞争	-11.4475
孩子到	-11.4475
她回忆起	-11.4476
他是维鲤叶	-11.4476
她应该	-11.4476
您瞧	-11.4476
超出我	-11.4476
理由来	-11.4477
的格言	-11.4477
杀死了	-11.4477
指着	-11.4477
那一次	-11.4478
讲了一	-11.4478
拉莫尔小姐为	-11.4478
来决定	-11.4478
平民的	-11.4478
又有一个	-11.4478
正可以	-11.4479
眼看着	-11.4479
替他	-11.4479
这种种	-11.4479
对这一点	-11.4479
这样想	-11.448
比起贝桑松	-11.448
她看见她	-11.4481
的市民	-11.4482
现在却	-11.4482
获得巨大的	-11.4483
个熟人	-11.4483
▁好在	-11.4484
满足他	-11.4484
的每一句	-11.4485
是这位	-11.4485
骄傲了	-11.4486
谁呢	-11.4487
或者还	-11.4488
的瓦尔诺	-11.4488
手里拿	-11.4488
采用的	-11.449
的书本上	-11.449
的漫游	-11.449
于是把	-11.4491
译出	-11.4491
您是一个	-11.4492
她怀着	-11.4492
那两个	-11.4493
始时	-11.4493
于连眼前	-11.4494
把主教的	-11.4494
立刻就	-11.4495
他太太	-11.4495
当然是	-11.4495
自私的	-11.4496
的艺术	-11.4496
她那天	-11.4497
这姑娘	-11.4499
的闺房侍女	-11.4499
去看你	-11.4499
使自己的	-11.45
最幸福的	-11.45
的演讲	-11.45
可还是	-11.4501
制定	-11.4501
自己说出	-11.4501
定会	-11.4501
他绝没	-11.4501
有些人	-11.4501
刻钟之后	-11.4502
他的侄子	-11.4502
身泥	-11.4502
他培养成	-11.4502
一方	-11.4502
哥哥的	-11.4503
忘记了她	-11.4503
雷纳耳先生走进	-11.4504
的训	-11.4504
没过	-11.4504
恭维话	-11.4505
到吃晚饭的时候	-11.4505
自家	-11.4505
已经来到	-11.4506
任何别的	-11.4507
可能的话	-11.4507
的阿谀	-11.4509
上身	-11.451
若是	-11.451
了一年	-11.451
的护	-11.451
的怯懦	-11.451
的旅客	-11.4511
外面的	-11.4512
这个要求	-11.4512
里都是	-11.4512
内阁的	-11.4513
不可能得到	-11.4513
不会再	-11.4514
的父亲在	-11.4514
地瞧着那	-11.4514
断了	-11.4514
在教堂里	-11.4515
赴死	-11.4515
的寡妇	-11.4515
过一些	-11.4515
天生的	-11.4518
的同伴	-11.4518
激荡	-11.4519
的本领	-11.4519
他们应该	-11.4519
而且还是	-11.4519
被告的	-11.4519
只听	-11.452
从来不看	-11.452
加倍了	-11.4521
的楼梯	-11.4522
仅仅在	-11.4522
庄严的	-11.4522
难道您	-11.4522
写信去	-11.4522
活像	-11.4522
常常是	-11.4522
▁于连明白	-11.4523
天蓝色的	-11.4523
影底下	-11.4523
原谅她	-11.4523
又害怕	-11.4524
如果我不	-11.4524
对于这些	-11.4524
需要一个人	-11.4524
那些新	-11.4524
的前一天	-11.4524
我感到我	-11.4524
宫的	-11.4525
们说	-11.4525
足的	-11.4525
的人觉得	-11.4525
消磨的	-11.4525
低低地向他	-11.4526
这么办	-11.4526
却一点儿	-11.4526
了那么多	-11.4526
一直等	-11.4526
街的	-11.4527
那个十分	-11.4527
跟我们	-11.4528
宴会的	-11.4528
您给我	-11.4529
的优美	-11.4529
的方向	-11.4529
些谈话	-11.453
颤抖了	-11.453
一度	-11.453
▁人们	-11.453
好意	-11.453
能说	-11.4531
过什么	-11.4532
侯爵终于	-11.4532
这就是他们	-11.4532
一杯冰镇饮	-11.4533
特殊的	-11.4533
我颇为	-11.4534
能够见到	-11.4534
冷静和	-11.4534
会让她	-11.4535
舒服	-11.4535
我叫人	-11.4535
时间不	-11.4535
也许是	-11.4536
的绿	-11.4538
六个	-11.4538
怀疑的	-11.4539
待他很	-11.4539
▁的死	-11.4539
原谅我	-11.4539
哪一天你	-11.4539
于连听了	-11.4541
的势力	-11.4541
要绝望	-11.4542
穿着这	-11.4544
有才智	-11.4545
用意	-11.4545
这位大	-11.4546
因为那个	-11.4546
自己说话	-11.4546
一些好	-11.4547
想起了自己	-11.4547
又见到了	-11.4547
贝桑松派来的	-11.4548
转而	-11.4548
都感到	-11.4549
他的苦恼	-11.4549
我梦	-11.4549
市长和本	-11.455
的身后	-11.455
的每一行	-11.455
谁都	-11.4551
睡着	-11.4551
住在巴黎	-11.4552
至少你	-11.4552
人看到我	-11.4553
一动	-11.4553
走近于连	-11.4553
一篇	-11.4553
他的敌人	-11.4555
缺了	-11.4555
他朋友的	-11.4555
她的思想	-11.4556
在安排	-11.4556
到现在	-11.4557
的那间	-11.4557
也该	-11.4557
还嫌	-11.4558
雷纳耳夫人一面	-11.4558
看来您	-11.4558
▁苦役犯	-11.4559
他们竟	-11.4559
尺或十	-11.4559
我的律师	-11.4559
鲁弗雷侯爵	-11.4559
而高傲	-11.4559
掌握了	-11.456
不起作用	-11.456
人的帮助	-11.456
自己对他	-11.4561
从人群中	-11.4562
曾对我	-11.4562
他看见一个	-11.4563
您住在	-11.4563
心怕	-11.4564
他要去	-11.4564
毒死	-11.4564
从一些	-11.4564
接待了	-11.4565
这样过去了	-11.4566
他压低声音	-11.4566
祭坛前	-11.4567
但是也	-11.4567
雷纳耳夫人跟他	-11.4568
我不能不	-11.4568
这间	-11.4569
可笑了	-11.4569
叫着	-11.4569
大众	-11.457
▁由	-11.457
写得	-11.457
的心理	-11.4571
在这种情形	-11.4571
中彻底	-11.4571
并用	-11.4571
却已	-11.4572
诱惑您	-11.4572
是仆人	-11.4573
跳上	-11.4573
不能想象	-11.4573
#(	-11.4573
他不想	-11.4573
真正的男子汉	-11.4574
是真正	-11.4574
他深深地	-11.4574
我将回答	-11.4576
很长	-11.4577
眼下	-11.4577
转过头	-11.4577
有这一	-11.4577
多么严重	-11.4578
很值得	-11.4578
确有	-11.4579
她极度	-11.458
有几个	-11.458
的热情和	-11.458
一个农民	-11.458
和律师	-11.458
他的脑海里	-11.458
雷纳耳夫人突然	-11.4582
对于我们	-11.4582
她心中	-11.4582
侯爵便	-11.4583
就不喜欢	-11.4583
份赠与	-11.4583
我渴望	-11.4584
您不久	-11.4584
他请求	-11.4584
我昨天	-11.4584
尔神父	-11.4585
为了不让	-11.4586
他对这个	-11.4586
的宁静	-11.4587
他们之中	-11.4588
会叫她	-11.4589
雷纳耳夫人一边	-11.459
▁每天	-11.459
我不想	-11.459
有两个月	-11.4592
献出	-11.4592
书上	-11.4593
于连此时	-11.4593
专注于	-11.4593
我呀	-11.4595
不由得心	-11.4596
心安	-11.4596
都不是	-11.4596
就连	-11.4596
起誓	-11.4597
他以	-11.4598
的谈话中	-11.4598
有好几	-11.46
绕过	-11.4601
孩子般	-11.4602
面上	-11.4602
跟这些	-11.4604
看见一只	-11.4604
敬重的	-11.4605
耽搁了	-11.4606
了死刑	-11.4606
嘲笑着	-11.4606
尤其是在	-11.4606
父亲见面	-11.4607
回过身	-11.4607
我就得到	-11.4608
散散步	-11.4608
信奉冉森教	-11.4608
府里	-11.4608
怀念	-11.4609
他是会	-11.4611
不过这	-11.4611
一个乡下	-11.4612
诺的	-11.4612
从小	-11.4612
他买了	-11.4612
他认为这	-11.4612
的文字	-11.4612
他口气	-11.4613
和这位	-11.4613
这是我们	-11.4613
出现在德	-11.4613
但在他	-11.4613
仿佛对	-11.4613
▁爱丽莎	-11.4614
侯爵觉得	-11.4614
胜过了	-11.4615
比自己	-11.4615
有好感	-11.4616
当天	-11.4618
思想是	-11.4619
完全可以用	-11.462
的结果是	-11.462
为它	-11.4621
一日	-11.4621
我有理由	-11.4622
千多	-11.4624
他的相貌	-11.4624
你难道	-11.4625
和快乐	-11.4625
离镜	-11.4626
瓦罗先生和	-11.4626
她大胆	-11.4626
是唯一	-11.4626
的城堡	-11.4626
装饰的	-11.4627
送到他	-11.4627
明智的	-11.4628
这里来	-11.4628
他们不是	-11.4628
人留	-11.4629
我进去	-11.4629
他对她说道	-11.4629
装帧精美的	-11.463
的道德	-11.463
不同了	-11.4631
特别是在	-11.4631
公认的	-11.4632
一致的	-11.4633
的成员	-11.4633
她很快	-11.4635
那个教	-11.4635
时机	-11.4636
他的嘴唇	-11.4636
在这儿干什么	-11.4636
在贝	-11.4637
的神圣	-11.4638
潮湿空气	-11.4638
对神父	-11.4639
疯狂地	-11.4639
是否还	-11.4639
谈话的	-11.464
脚边	-11.464
卖了	-11.4641
军界	-11.4641
提到我	-11.4641
的深处	-11.4641
后来在	-11.4643
比这个	-11.4643
缺少的	-11.4643
人名	-11.4644
嘲弄他	-11.4645
这座大教堂	-11.4645
年高	-11.4645
架的	-11.4645
于连觉	-11.4645
和所有的	-11.4646
他自己是	-11.4647
他们可能	-11.4647
自己的脑	-11.4649
住脚步	-11.4649
向他夫人	-11.465
信附	-11.465
三步远的地方停了	-11.465
人家就	-11.465
这会使	-11.4651
从一八一五年以	-11.4652
承继女	-11.4652
在干什么	-11.4653
若换了	-11.4653
既然是	-11.4653
与瓦尔诺先生	-11.4653
相当高	-11.4654
第一次感到	-11.4654
事物的	-11.4654
她的胳臂	-11.4654
竟找不出	-11.4655
用事	-11.4655
饭桌	-11.4656
礼服的	-11.4657
过这样的	-11.4657
脸都	-11.4657
的拥抱	-11.4657
才智和	-11.4658
为了那些	-11.4659
你对我	-11.4661
不能理解	-11.4662
太合适	-11.4663
才发现的	-11.4663
雷纳耳夫人立刻	-11.4663
采取了	-11.4664
背诵了	-11.4664
离他们	-11.4664
于连的心	-11.4664
他们让我	-11.4665
法国人	-11.4665
的石	-11.4665
地对他说	-11.4666
了笨拙	-11.4666
全要	-11.4666
一个贵族	-11.4666
礼物给	-11.4669
一等	-11.467
促成	-11.467
告退	-11.467
恶劣了	-11.4671
究竟有多	-11.4671
得出来	-11.4672
的连衣裙	-11.4672
这个男人	-11.4673
呆了	-11.4675
他的孩子们	-11.4675
讲过	-11.4675
我的命运	-11.4675
赞赏他	-11.4676
你的话	-11.4676
我不过是个	-11.4678
称赞于连	-11.4678
维吉尔和	-11.4678
几乎要	-11.4679
瓦尔诺和	-11.468
小儿子	-11.468
我对自己	-11.468
说呢	-11.4681
就把这	-11.4682
嫉妒我	-11.4685
曾说过	-11.4685
受时	-11.4685
的双眼	-11.4686
的头脑不	-11.4686
自由了	-11.4686
他喜欢这	-11.4688
和孩子们	-11.4688
听着他	-11.4689
只要你	-11.4689
是那不勒斯	-11.469
知道玛蒂尔德	-11.469
他所有的	-11.469
的谢阆神父	-11.469
当时就	-11.4691
无上	-11.4691
伤害您的	-11.4691
的最初	-11.4691
那份	-11.4693
他五百法郎	-11.4694
接受这	-11.4695
这个阶层的	-11.4696
了好几	-11.4696
自认为	-11.4697
他会不会	-11.4698
假使他	-11.4698
着许多	-11.4698
说他要	-11.4701
政治上	-11.4701
份名单	-11.4702
雷斯先生	-11.4702
骂我	-11.4703
因为她曾	-11.4703
两天就	-11.4704
向神父	-11.4705
您一个人	-11.4705
简直认不	-11.4706
也许比	-11.4708
▁几个钟头	-11.4709
一个国王	-11.4709
太远了	-11.4711
真不知道	-11.4711
不再是一个	-11.4711
忙不	-11.4712
力量所	-11.4713
当时她	-11.4713
也没有什么	-11.4714
注意到了	-11.4714
来念	-11.4715
▁短短的	-11.4716
她身边	-11.4716
就是没有	-11.4716
向上	-11.4717
▁跃	-11.4717
我差不多	-11.4718
投进	-11.4718
弗里莱尔在	-11.4719
晓得这	-11.4719
她向他	-11.4719
就会叫	-11.4719
说明了	-11.472
我不愿意	-11.4722
所动	-11.4722
▁间房子	-11.4722
▁开始时	-11.4724
不再爱我	-11.4725
光会	-11.4725
几乎也	-11.4725
的事实	-11.4726
的想象力	-11.4726
朝前走	-11.4726
生丁的	-11.4727
会激励	-11.4727
▁加重	-11.4728
▁国王陛下	-11.4728
▁祸	-11.4728
▁将近	-11.4728
▁康忒	-11.4728
▁平静下来	-11.4728
▁阿道儿夫	-11.4728
名义	-11.4728
▁好不容易	-11.4728
▁帘	-11.4729
▁舒	-11.4729
建的	-11.4729
去请	-11.473
▁材	-11.473
▁慕	-11.473
▁究	-11.473
戴上	-11.473
本人和	-11.4731
▁法衣	-11.4731
亲王的	-11.4731
▁到这	-11.4732
的三个	-11.4732
▁纪	-11.4732
而这个人	-11.4732
就是把	-11.4732
还曾	-11.4732
▁狱	-11.4733
怕得	-11.4734
离开了我	-11.4734
一个字也没有	-11.4735
地进行	-11.4736
在告罪亭	-11.4736
▁突然	-11.4737
的所谓	-11.4737
的骄	-11.4737
写信告诉	-11.4738
的希	-11.4738
页的	-11.4738
的考验	-11.4738
▁补充	-11.4739
流露出对	-11.4739
时代的英雄	-11.4739
足了	-11.4739
她毫不	-11.474
的错	-11.4741
你的信	-11.4743
这个可怕的	-11.4743
的威	-11.4743
值得我	-11.4743
我身边	-11.4745
在市长先生	-11.4745
她具有	-11.4746
我对于这	-11.4746
发出的	-11.4747
暂时的	-11.4747
侯爵听	-11.4748
的指导	-11.4749
的可怜的年轻	-11.4749
规定的	-11.4751
国王驾	-11.4751
杰出的人的	-11.4751
▁桩	-11.4751
他的一些	-11.4753
我要求	-11.4755
要站起来	-11.4757
▁她发觉	-11.4757
给自己立下	-11.4757
天的	-11.4757
这看作是	-11.4757
他当初	-11.4758
的木	-11.4758
正是我	-11.4758
于连决定	-11.4758
我刚才	-11.476
都可以	-11.4761
我老婆	-11.4761
判决的	-11.4763
命令我	-11.4763
与这些	-11.4763
并且我	-11.4763
的那封	-11.4763
她认为她	-11.4765
打算在	-11.4766
就让他	-11.4767
的信是	-11.4767
乡民	-11.4769
更痛苦	-11.4769
曾引起	-11.477
神学院学生	-11.477
过去扶	-11.4771
天您会	-11.4772
压根	-11.4772
不自	-11.4773
我一切都	-11.4773
红了	-11.4774
那一切	-11.4774
他忘掉了	-11.4775
说出德	-11.4776
我要到	-11.4776
屋顶的	-11.4776
园丁的	-11.4776
的小床	-11.4777
从神学院	-11.4778
换上黑	-11.4779
只看见	-11.4779
她在那	-11.478
▁他朋友的	-11.478
迟疑	-11.4781
才从	-11.4781
我是你	-11.4782
▁也许是	-11.4783
了过去	-11.4783
它使	-11.4784
会说他	-11.4785
一定会被	-11.4785
于连站在	-11.4786
了一道	-11.4786
都要从	-11.4786
▁由于他	-11.4787
▁时地	-11.4787
的庭院	-11.4788
据说他	-11.4788
于连冷冷地回答	-11.4788
▁热情	-11.4788
▁深深地	-11.479
的前途	-11.4791
打中	-11.4791
的变化	-11.4792
这里有	-11.4794
把百叶窗	-11.4797
多活	-11.4797
里尽是	-11.4798
主教走过	-11.48
让我来	-11.4801
▁的火焰	-11.4802
的神情注视着	-11.4802
又要在	-11.4806
铺子	-11.4807
没准儿他	-11.4807
而当他	-11.4808
看见你	-11.4808
备的	-11.4809
把这笔	-11.4809
蒙受	-11.481
我的痛苦	-11.481
▁境	-11.4811
她的灵魂	-11.4811
感觉到了	-11.4812
到哪儿去	-11.4813
的伟大	-11.4814
会到处	-11.4814
人都不会	-11.4814
谁来	-11.4816
▁洞悉	-11.4816
在座	-11.4816
自己受到了	-11.4817
被认为是	-11.4817
她跳	-11.4817
觉得自己	-11.4818
饭后	-11.4819
贝桑松的律师	-11.4819
就使	-11.482
的指责	-11.4822
里面的	-11.4824
▁的一	-11.4824
▁心目中	-11.4827
对他说来	-11.4828
被玛蒂尔德	-11.4828
就向	-11.4829
就是侯爵	-11.4829
愿意给他	-11.4829
了个主意	-11.483
他对这	-11.4832
▁石灰	-11.4833
▁想到这	-11.4833
讨厌我	-11.4833
▁有几个	-11.4834
她是多么	-11.4834
用于	-11.4834
谢阆神父在	-11.4835
带给	-11.4837
迷的	-11.4838
在家里	-11.4838
神思	-11.4839
的夜晚	-11.4839
▁人不	-11.4839
手臂的	-11.484
于连打算	-11.484
他的蓝绶带	-11.4841
郁不乐	-11.4841
生来	-11.4841
博韦西骑士的	-11.4842
绝口	-11.4843
觉得它	-11.4843
恋的情夫	-11.4843
当他是	-11.4844
那只	-11.4844
他不能忍受	-11.4845
请您在	-11.4846
到贝桑松去	-11.4847
告诉给	-11.4847
的目的	-11.4848
他那张	-11.4849
他的勇敢	-11.485
是一个坏人	-11.4851
别说	-11.4851
可以原谅	-11.4852
服从她	-11.4852
是个例外	-11.4853
怎样回答	-11.4853
了一把	-11.4853
装上	-11.4855
造成了	-11.4856
去观察	-11.4856
头部	-11.4856
孤独了	-11.4856
▁弟	-11.4858
他觉	-11.4858
▁点儿	-11.4858
的作用	-11.4859
雷纳耳先生便	-11.486
名人士	-11.4863
走着	-11.4863
的英雄主义	-11.4864
他没有想到	-11.4864
在教	-11.4865
为了这个	-11.4865
一回事	-11.4867
她时常	-11.4867
另一个人	-11.487
▁接受了	-11.487
那将	-11.487
待他	-11.4871
我们会	-11.4872
不可思议的	-11.4873
他是否	-11.4873
在他的国家	-11.4874
书的	-11.4874
的师	-11.4875
他的力量	-11.4875
▁正	-11.4877
的活跃	-11.4878
的王	-11.4878
在法	-11.4881
这一会儿	-11.4883
两条	-11.4883
夫人还	-11.4883
反对我	-11.4884
一架	-11.4884
▁怕的	-11.4884
他们谈话	-11.4885
真该	-11.4886
因为这个	-11.4891
又恢复了	-11.4892
的思索	-11.4893
财富的	-11.4893
的雅致	-11.4894
待人	-11.4895
激他	-11.4895
她对他说道	-11.4897
但还是	-11.4898
人害怕	-11.4899
她从来没有	-11.49
三倍	-11.49
▁尽管于连	-11.4901
的师傅	-11.4901
我一直在	-11.4901
本区副行政长官	-11.4902
▁他像	-11.4903
爱一个	-11.4903
那一边	-11.4905
重了	-11.4906
▁派的	-11.4907
得到他们	-11.4907
脱了	-11.4908
的命运和	-11.4908
爱着她	-11.4908
差不多了	-11.4908
爱说	-11.4909
感情都	-11.4909
不会因为	-11.491
的效	-11.491
我不知道	-11.491
夜不能	-11.4912
有自己的	-11.4912
对这个	-11.4914
痛苦而	-11.4914
我早	-11.4914
也使他	-11.4914
一号	-11.4915
站立	-11.4915
再不会	-11.4915
学院的	-11.4916
名是	-11.4916
把两	-11.4917
他还向	-11.4917
他的马	-11.4918
会找出	-11.4919
▁假使	-11.4919
国王是	-11.492
听他们	-11.492
偷了	-11.4921
出马	-11.4923
这使她	-11.4923
她只能	-11.4923
场争论	-11.4924
匆忙地	-11.4924
再没有别	-11.4924
他通过	-11.4924
这门	-11.4925
五十六	-11.4927
等一	-11.4929
年前这	-11.493
雷纳耳夫人也很	-11.4931
保持着这	-11.4931
对于您	-11.4932
我会再	-11.4932
升到	-11.4933
这时候她	-11.4934
不成功	-11.4934
保持沉默	-11.4934
我会说这	-11.4935
九法郎一	-11.4935
他一定是	-11.4936
▁标的	-11.4938
的花园	-11.4939
朋友的	-11.4939
麻烦的	-11.494
冷不	-11.4942
他这么	-11.4943
的顶	-11.4944
并且给予	-11.4944
的句子	-11.4944
的贵	-11.4946
会抢走	-11.4947
离开过	-11.4949
这个情	-11.4949
高兴得发	-11.4952
所好	-11.4952
交给他	-11.4953
们已经	-11.4954
而是一个	-11.4954
他不断地	-11.4955
朋友呢	-11.4956
支持他	-11.4956
▁不久前	-11.4957
可以重新	-11.4957
掩饰他的	-11.4957
现成的	-11.4957
他的俏皮话	-11.4958
点什么	-11.4958
是怀着	-11.496
或是	-11.496
上头	-11.4961
是很容易地	-11.4962
他背诵	-11.4963
其他的人	-11.4963
单独和	-11.4965
阻止他	-11.4965
我想我	-11.4965
他听到	-11.4966
被叫了	-11.4968
和丈夫	-11.4968
有可能成为	-11.4968
摆脱他们	-11.4968
这便	-11.4969
还用	-11.4971
于连满	-11.4972
谄媚者	-11.4973
垂直	-11.4974
的满足	-11.4975
就为了	-11.4975
那才	-11.4975
▁他只要	-11.4976
他们几乎	-11.4977
必装	-11.4978
靠了	-11.4979
一支	-11.498
的漂亮	-11.498
他们中间有	-11.4982
从没有	-11.4983
气的	-11.4984
的合同	-11.4985
▁于连却	-11.4986
救他	-11.4986
后面的	-11.4986
▁他向	-11.4988
年的春天	-11.4988
为我所	-11.4988
我是多么	-11.4988
爱得那	-11.499
向他作	-11.4991
一张桌子	-11.4993
信送	-11.4993
的半个月	-11.4994
是一个没有	-11.4994
眼见这	-11.4995
的强烈	-11.4997
没有一句	-11.4997
福盖把	-11.4998
那些贵族	-11.4998
的字条	-11.4998
良善的	-11.4998
可以想象	-11.4999
一行的	-11.4999
这才	-11.5
男子汉的	-11.5001
同于连	-11.5001
失了	-11.5005
▁谢阆先生的	-11.5005
园林	-11.5005
使他常常	-11.5006
他忘记了	-11.5006
实际上是	-11.5006
的遐想之	-11.5006
▁虚荣心	-11.5007
愿让自己	-11.5008
的是一位	-11.5008
关我	-11.5011
知道于连	-11.5011
很合	-11.5011
看到自	-11.5012
财政部	-11.5012
他感到了	-11.5014
看不出来他	-11.5015
欺骗了	-11.5016
已经作出	-11.5017
他看到她	-11.5018
得付	-11.5019
布雷勒奥	-11.5021
这种想	-11.5021
千里之	-11.5021
您好心	-11.5022
她常常	-11.5023
的本性	-11.5025
的激	-11.5025
料的	-11.5027
烧掉	-11.5027
这太	-11.5028
[...]
