<unk>	0
<s>	0
</s>	0
,	-2.00471
。	-2.77826
:“	-4.49585
曰	-4.6719
之	-4.67624
、	-4.69932
而	-4.73777
。”	-4.85351
也	-4.95668
以	-4.96345
▁	-5.09684
者	-5.17921
为	-5.18427
;	-5.41115
其	-5.56574
王	-5.69157
与	-5.82208
子	-5.8335
故	-5.83837
不	-5.86019
有	-5.9013
於	-5.91488
乃	-5.96408
立	-5.97408
秦	-6.05884
?”	-6.11681
使	-6.12241
卒	-6.1464
则	-6.15883
至	-6.16899
矣	-6.16961
上	-6.18012
及	-6.18213
人	-6.23854
齐	-6.26629
无	-6.28955
楚	-6.31085
皆	-6.33181
行	-6.33511
得	-6.38225
乎	-6.38547
大	-6.38724
欲	-6.39691
事	-6.40234
言	-6.40396
今	-6.40775
臣	-6.43489
见	-6.43576
自	-6.44985
?	-6.49866
令	-6.50395
下	-6.53065
从	-6.53123
出	-6.53711
君	-6.5584
死	-6.56835
将	-6.57268
赵	-6.59965
然	-6.60729
因	-6.61078
遂	-6.64371
相	-6.66529
时	-6.66619
!	-6.7088
於是	-6.70915
中	-6.71408
后	-6.71568
!”	-6.7211
一	-6.73321
天下	-6.73574
魏	-6.74634
诸侯	-6.75222
兵	-6.77125
吾	-6.77624
入	-6.77715
我	-6.77762
此	-6.80679
复	-6.80854
必	-6.81177
亦	-6.81256
:	-6.81887
生	-6.82977
非	-6.8323
夫	-6.8325
所	-6.8416
公	-6.85607
闻	-6.86792
国	-6.8774
作	-6.88364
居	-6.8952
且	-6.93133
在	-6.9325
焉	-6.93731
封	-6.93907
汉	-6.9407
杀	-6.94616
太子	-6.95604
如	-6.95965
军	-6.9636
地	-6.97069
是	-6.97459
“	-6.97531
多	-6.98038
用	-6.98355
韩	-6.98591
来	-6.99718
去	-7.00885
晋	-7.01488
道	-7.02587
请	-7.03135
可	-7.04207
燕	-7.04217
三	-7.04499
已	-7.04861
即	-7.04928
又	-7.06154
信	-7.06205
以为	-7.065
取	-7.09132
归	-7.09334
何	-7.10183
长	-7.1082
若	-7.10957
周	-7.11421
数	-7.11535
亡	-7.12585
反	-7.16499
民	-7.17541
天子	-7.18269
善	-7.19589
尽	-7.21556
过	-7.24593
吴	-7.25991
知	-7.25991
治	-7.2606
东	-7.26455
问	-7.29185
起	-7.29208
说	-7.29381
哉	-7.29423
主	-7.29707
天	-7.29823
虽	-7.31029
侯	-7.31148
将军	-7.31443
常	-7.31961
是为	-7.32139
既	-7.32313
北	-7.33814
恐	-7.34147
能	-7.34943
方	-7.35124
四	-7.3514
食	-7.35277
南	-7.36409
鲁	-7.36518
高	-7.37426
五	-7.37506
不可	-7.37699
攻	-7.38168
名	-7.38331
西	-7.3856
于	-7.39049
家	-7.391
平	-7.3921
会	-7.39292
病	-7.40403
德	-7.40493
谓	-7.40558
兮	-7.41117
不能	-7.41352
匈奴	-7.4144
先	-7.41907
发	-7.42064
日	-7.42174
耳	-7.42816
当	-7.43453
代	-7.44023
诸	-7.44333
彊	-7.44949
明	-7.45428
心	-7.46021
始	-7.46314
成	-7.46393
卫	-7.46772
陈	-7.46867
毋	-7.46963
击	-7.47871
礼	-7.48512
等	-7.48573
通	-7.48677
怒	-7.48998
内	-7.49587
越	-7.49614
不得	-7.49825
召	-7.50045
独	-7.50143
乐	-7.50799
少	-7.52252
闻之	-7.52976
城	-7.54304
法	-7.55503
丞相	-7.55762
郑	-7.56786
对曰	-7.56893
女	-7.57304
公子	-7.57683
益	-7.57776
汉王	-7.58203
往	-7.58237
弟	-7.58238
固	-7.5856
诛	-7.58849
战	-7.59058
安	-7.59127
水	-7.59372
帝	-7.60171
未	-7.60414
守	-7.6062
绝	-7.6131
二	-7.61741
前	-7.6258
士	-7.62677
”。	-7.62745
‘	-7.62802
定	-7.63279
亲	-7.63325
赐	-7.6357
梁	-7.64282
三年	-7.64611
宋	-7.64838
伐	-7.65553
书	-7.65605
败	-7.65912
孔子	-7.66292
坐	-7.66583
计	-7.66969
还	-7.67199
求	-7.67599
告	-7.6774
重	-7.67903
易	-7.67966
父	-7.68256
身	-7.68514
吏	-7.68547
举	-7.68856
广	-7.69245
师	-7.69523
甚	-7.69578
并	-7.70077
太后	-7.70183
命	-7.70202
车	-7.70398
山	-7.71098
谋	-7.71268
正	-7.71974
外	-7.72038
胜	-7.7263
利	-7.72682
功	-7.73321
走	-7.73864
项王	-7.73998
乱	-7.74165
受	-7.7434
马	-7.75319
破	-7.75358
朝	-7.75704
世	-7.76606
夏	-7.76928
好	-7.77072
灭	-7.78054
贤	-7.78178
文	-7.7856
阳	-7.78733
项羽	-7.79171
客	-7.8026
间	-7.8057
疾	-7.80962
小	-7.81123
徙	-7.81381
氏	-7.81482
意	-7.82576
贵	-7.82671
处	-7.83086
约	-7.83568
置	-7.83615
服	-7.83888
汤	-7.8392
降	-7.84866
六	-7.85032
云	-7.85358
田	-7.85951
赵王	-7.86592
奉	-7.87006
属	-7.89031
所以	-7.89597
武	-7.89779
分	-7.89924
初	-7.89961
百姓	-7.9
陛下	-7.90199
寡人	-7.90861
急	-7.91133
称	-7.91325
宫	-7.91365
合	-7.91881
众	-7.91942
其后	-7.92071
恶	-7.92322
高祖	-7.92629
更	-7.92944
留	-7.93191
解	-7.93219
观	-7.93317
布	-7.94137
邪	-7.94374
邑	-7.94583
人也	-7.94616
大夫	-7.94718
崩	-7.94783
都	-7.95008
建	-7.95681
使者	-7.96157
围	-7.96239
尚	-7.96603
听	-7.9767
沛公	-7.98396
元年	-7.98448
不如	-7.9846
尝	-7.98498
二年	-7.98764
失	-7.99134
愿	-7.99368
共	-8.00439
进	-8.00466
阴	-8.01596
官	-8.01971
:‘	-8.021
游	-8.02526
难	-8.02799
不听	-8.03053
或	-8.03108
大王	-8.0404
石	-8.04104
语	-8.04204
远	-8.04503
罪	-8.04584
义	-8.04741
兴	-8.04859
使人	-8.05172
传	-8.05213
政	-8.05464
予	-8.05485
怨	-8.05858
终	-8.05884
岁	-8.06325
单于	-8.06335
同	-8.06534
物	-8.06649
祠	-8.0682
舍	-8.06897
▁太史公曰	-8.07192
胡	-8.08329
春	-8.08531
不敢	-8.08617
争	-8.08923
废	-8.09009
各	-8.09083
幸	-8.09384
八	-8.09502
辞	-8.09621
和	-8.09751
门	-8.10021
制	-8.10159
母	-8.10371
陵	-8.10392
吴王	-8.1061
收	-8.11104
报	-8.11297
喜	-8.11789
良	-8.11808
教	-8.12045
止	-8.12352
骑	-8.12478
俱	-8.12592
九	-8.12683
王曰	-8.1322
禹	-8.13467
虏	-8.13622
夫人	-8.1408
度	-8.14201
齐王	-8.14688
次	-8.14864
乘	-8.15348
郡	-8.15457
果	-8.1641
气	-8.16416
群臣	-8.16437
实	-8.16549
大臣	-8.16579
武王	-8.16924
动	-8.17298
塞	-8.1737
迁	-8.17391
县	-8.17585
衣	-8.17687
神	-8.17708
致	-8.17786
议	-8.18042
秦王	-8.18638
斩	-8.18727
上曰	-8.19556
风	-8.1959
是时	-8.19857
私	-8.20312
力	-8.20489
而不	-8.20832
弗	-8.21813
持	-8.2183
四年	-8.21927
殷	-8.22825
率	-8.22915
张仪	-8.23203
左右	-8.23557
於秦	-8.23569
异	-8.23752
敬	-8.24045
富	-8.24178
金	-8.24262
遣	-8.24287
声	-8.24796
馀	-8.24917
让	-8.25062
楚王	-8.25228
遗	-8.25296
適	-8.25486
▁“	-8.2578
君子	-8.25906
宜	-8.26285
七	-8.26453
河	-8.26843
’。	-8.26849
彼	-8.28067
竟	-8.28396
”,	-8.2858
星	-8.28769
者也	-8.28899
载	-8.28998
具	-8.29164
秋	-8.29399
位	-8.29418
左	-8.29677
论	-8.2972
深	-8.30027
然后	-8.30475
弃	-8.30629
仁	-8.31133
威	-8.31446
学	-8.3162
节	-8.31694
惧	-8.31741
唯	-8.31866
视	-8.32274
中国	-8.32309
盖	-8.32591
望	-8.32654
直	-8.32969
柰何	-8.33211
拜	-8.33302
杀之	-8.33732
微	-8.33817
忧	-8.33821
可以	-8.33884
久	-8.34239
弱	-8.34356
饮	-8.34986
轻	-8.35164
罢	-8.35352
。’	-8.35612
号	-8.35729
执	-8.35979
悉	-8.35983
高帝	-8.36292
变	-8.36304
辟	-8.36639
余	-8.3678
商	-8.36899
首	-8.37599
近	-8.37602
祸	-8.37708
刑	-8.37885
谢	-8.38007
吉	-8.38024
交	-8.38067
先生	-8.38387
盗	-8.38643
百	-8.38894
开	-8.39496
桓公	-8.39666
被	-8.403
畏	-8.40322
土	-8.40331
足	-8.40505
葬	-8.4063
是以	-8.4072
诚	-8.40749
莫	-8.4088
章	-8.40919
决	-8.4102
白	-8.41664
爱	-8.419
免	-8.4213
徒	-8.42168
疑	-8.4223
犹	-8.42344
尊	-8.42348
夜	-8.42637
婴	-8.42661
比	-8.43702
黄帝	-8.43786
凡	-8.43831
引	-8.44202
岂	-8.44252
光	-8.44791
老	-8.44894
救	-8.4494
之时	-8.4542
而去	-8.45422
为之	-8.45498
略	-8.45509
纣	-8.45915
危	-8.46019
任	-8.46318
思	-8.46325
六年	-8.46422
朕	-8.46602
迎	-8.46915
年	-8.46978
射	-8.47187
顺	-8.47762
春秋	-8.47868
逐	-8.47885
负	-8.48329
不知	-8.48391
谏	-8.49087
临	-8.49158
便	-8.49264
嘉	-8.49284
参	-8.49394
伤	-8.49701
二世	-8.49874
色	-8.49914
蔡	-8.4999
韩信	-8.50013
极	-8.50049
五年	-8.50144
已而	-8.50394
舜	-8.50424
本	-8.50947
遇	-8.51024
别	-8.51152
十年	-8.51767
自杀	-8.51809
有功	-8.51829
怀	-8.52102
纵	-8.52456
吕后	-8.5249
新	-8.52553
冬	-8.527
俗	-8.52813
流	-8.52885
拔	-8.5309
己	-8.5313
青	-8.53403
暴	-8.53486
错	-8.53646
如此	-8.53815
之间	-8.54036
献	-8.5427
备	-8.54426
周公	-8.54641
重耳	-8.54655
患	-8.54709
即位	-8.55002
相国	-8.55157
囚	-8.55234
伯	-8.55542
昔	-8.56129
里	-8.56258
酒	-8.56287
宛	-8.56374
右	-8.56497
诈	-8.56624
故曰	-8.56638
夷	-8.5679
财	-8.57312
孔子曰	-8.57313
诏	-8.57627
大将军	-8.57795
厚	-8.57838
蜀	-8.57917
甲	-8.58013
奸	-8.5806
龟	-8.58456
始皇	-8.58625
籍	-8.58659
申	-8.58951
昭王	-8.59016
孟尝君	-8.59051
贾	-8.5917
为人	-8.59838
景帝	-8.59849
两	-8.59921
敢	-8.6023
牛	-8.60381
於齐	-8.60492
文公	-8.60581
泽	-8.60786
徵	-8.6087
驰	-8.60871
邯郸	-8.60943
”	-8.61043
仪	-8.61071
器	-8.61188
张	-8.61286
何也	-8.61453
齐人	-8.61456
随	-8.62938
脩	-8.63033
关	-8.63097
盛	-8.6321
智	-8.63223
顾	-8.63426
苦	-8.63431
为王	-8.63605
弘	-8.63866
边	-8.64053
市	-8.64175
息	-8.64295
斗	-8.64445
丧	-8.64751
之后	-8.64977
连	-8.64997
以故	-8.65071
志	-8.65408
许	-8.65555
平原君	-8.65766
穷	-8.65918
应	-8.66045
张耳	-8.66212
之所	-8.66248
害	-8.66255
妻	-8.66358
不用	-8.66373
推	-8.66592
口	-8.66672
景公	-8.66679
不行	-8.66698
陈馀	-8.66761
九年	-8.67048
万	-8.67114
维	-8.67282
虞	-8.67336
曹	-8.6736
伏	-8.6755
隐	-8.67803
汉使	-8.67912
太	-8.68099
是岁	-8.68147
追	-8.68148
成王	-8.68488
原	-8.68807
钱	-8.68956
言之	-8.69202
之地	-8.69232
列	-8.69363
燕王	-8.6945
离	-8.70033
宁	-8.70174
黄	-8.70632
丘	-8.70707
之属	-8.70996
待	-8.71952
弟子	-8.72146
获	-8.72158
斯	-8.72182
赦	-8.72192
臣闻	-8.72484
梁王	-8.72656
相如	-8.72789
困	-8.72795
权	-8.72807
昌	-8.72864
至于	-8.73048
侵	-8.73113
系	-8.73211
辄	-8.73277
妾	-8.73314
著	-8.73341
咸	-8.73576
期	-8.73623
毕	-8.73664
无所	-8.73687
御	-8.73816
欲以	-8.73828
襄公	-8.73955
惠王	-8.74165
江	-8.74234
霸	-8.74305
卜	-8.74374
旁	-8.74406
破之	-8.74469
至於	-8.74572
类	-8.74587
而后	-8.74739
倍	-8.74756
忠	-8.74798
宗	-8.75052
文王	-8.75126
头	-8.75246
象	-8.75273
项梁	-8.75494
士卒	-8.75515
虚	-8.75629
逆	-8.75785
佐	-8.75832
淮南	-8.75841
专	-8.76083
庄公	-8.76138
族	-8.76151
叔	-8.76176
角	-8.76201
不见	-8.76226
不肯	-8.76275
匿	-8.7645
龙	-8.76493
缪公	-8.76553
足下	-8.76658
业	-8.76981
袭	-8.77142
七年	-8.7719
为太子	-8.77201
不足	-8.77302
怀王	-8.77904
古	-8.77946
由	-8.78025
贼	-8.78191
乡	-8.7841
施	-8.78481
灵公	-8.78605
他	-8.78622
要	-8.78654
送	-8.78665
将兵	-8.79193
美	-8.79282
寿	-8.79339
姓	-8.79411
淮南王	-8.7944
十六年	-8.79448
素	-8.79469
辱	-8.79793
木	-8.79844
侍	-8.8018
歌	-8.80371
宾客	-8.8039
夺	-8.80392
十一年	-8.80402
盟	-8.80407
就	-8.80772
显	-8.80795
天下之	-8.8086
薄	-8.80942
案	-8.81171
休	-8.81258
奔	-8.81563
衰	-8.81619
字子	-8.81774
伐齐	-8.81989
岁馀	-8.82045
昭公	-8.82516
勃	-8.82562
十二年	-8.82957
厉公	-8.82986
保	-8.83003
犯	-8.83032
二人	-8.83515
月	-8.8357
为丞相	-8.83672
孤	-8.83726
关中	-8.83846
十四年	-8.84101
苏秦	-8.84332
发兵	-8.84445
以此	-8.84641
剑	-8.84654
袁盎	-8.84663
务	-8.84885
而死	-8.85161
诸将	-8.85522
秦之	-8.8563
言曰	-8.8568
孝	-8.85726
聚	-8.86016
许之	-8.86093
尔	-8.86105
使使	-8.8611
陈平	-8.86494
淫	-8.86536
贱	-8.86604
所谓	-8.86907
藏	-8.86923
大怒	-8.86974
知之	-8.8745
孙	-8.87457
野	-8.87551
以其	-8.87568
除	-8.87591
郢	-8.8777
尧	-8.87892
▁其后	-8.87896
谒	-8.87941
千	-8.88154
策	-8.88245
十五年	-8.88383
祀	-8.88513
唐	-8.88646
惠公	-8.8879
之事	-8.89149
谨	-8.89155
毁	-8.89367
历	-8.8967
雍	-8.89775
黯	-8.8984
加	-8.89998
捕	-8.90269
三月	-8.90378
责	-8.90432
据	-8.906
长安	-8.90744
不出	-8.91142
章邯	-8.91527
形	-8.91619
乃使	-8.91637
仆	-8.91888
冠	-8.92147
存	-8.92264
台	-8.92279
魏王	-8.92296
化	-8.92565
魏其	-8.92614
太尉	-8.92622
散	-8.92902
窃	-8.92941
廉	-8.9318
颇	-8.93283
十月	-8.93481
不死	-8.93522
戎	-8.93574
击之	-8.93652
鱼	-8.93829
人之	-8.94215
养	-8.94256
王之	-8.94287
勇	-8.94329
号曰	-8.9434
费	-8.94629
一人	-8.94825
生子	-8.94955
宣	-8.95019
而立	-8.95053
不然	-8.95164
禁	-8.9517
偃	-8.9518
羽	-8.95264
吕	-8.95293
八年	-8.95411
伐楚	-8.95644
赤	-8.95667
子孙	-8.95673
十	-8.95771
术	-8.95876
假	-8.96119
荥阳	-8.96288
贫	-8.96503
廉颇	-8.96515
割	-8.9654
姬	-8.9655
文帝	-8.96556
华	-8.96696
振	-8.96702
中山	-8.96732
壮	-8.9698
贪	-8.96998
封禅	-8.97031
再	-8.97044
盎	-8.97075
奇	-8.9724
山东	-8.97527
不过	-8.9762
劳	-8.97649
理	-8.98172
经	-8.98403
满	-8.98604
擅	-8.98684
敌	-8.98708
卑	-8.98751
兄	-8.98837
种	-8.98912
赵高	-8.98967
鬼神	-8.98969
招	-8.99192
劫	-8.99492
用事	-8.99657
而还	-8.99771
音	-8.99951
登	-9.0018
二千石	-9.0051
齐桓公	-9.00535
弑	-9.00696
几	-9.00707
不来	-9.00719
质	-9.00852
附	-9.00878
列侯	-9.00893
卻	-9.01179
与之	-9.01187
骄	-9.01381
皇帝	-9.01418
奏	-9.0144
乃以	-9.01463
庙	-9.01877
福	-9.01907
於楚	-9.02025
患之	-9.02377
有罪	-9.02457
断	-9.02491
沛	-9.02525
博	-9.02546
祭	-9.02563
汝	-9.02595
贺	-9.02707
穰侯	-9.02845
习	-9.02943
十三年	-9.02981
献公	-9.03148
千里	-9.033
赋	-9.03341
当是时	-9.03357
由此	-9.03535
不胜	-9.03801
勿	-9.03833
’,	-9.0393
火	-9.04067
庆	-9.04225
爵	-9.0448
先王	-9.05004
最	-9.05433
何以	-9.05442
未有	-9.05498
助	-9.05611
刺	-9.05653
彭越	-9.05763
吾闻	-9.05829
悼公	-9.05915
采	-9.05964
社稷	-9.05966
璧	-9.06361
长者	-9.06486
结	-9.06671
端	-9.06749
乃与	-9.0704
今王	-9.0752
翟	-9.07626
序	-9.07632
从之	-9.07769
赏	-9.08517
圣人	-9.08586
纪	-9.08592
莫敢	-9.08666
曲	-9.08734
宿	-9.08742
奋	-9.0894
冒顿	-9.08948
退	-9.0898
昆弟	-9.08981
▁十二	-9.0915
作乱	-9.09328
辅	-9.10025
有所	-9.10124
秦兵	-9.10147
孝惠	-9.10313
代王	-9.10352
累	-9.10483
对	-9.10513
戏	-9.10528
疏	-9.10565
不信	-9.1064
候	-9.10642
鼎	-9.10694
辩	-9.10938
春申君	-9.10978
范	-9.10986
李斯	-9.11043
蒲	-9.1106
容	-9.11063
修	-9.11064
二十三年	-9.11225
卿	-9.11309
安国	-9.11381
车骑	-9.11543
不可以	-9.11707
太公	-9.1178
穀	-9.11793
贤者	-9.11794
史	-9.11899
之士	-9.12202
宗庙	-9.12211
屯	-9.12543
玉	-9.12808
不及	-9.12915
朔	-9.13073
设	-9.13168
折	-9.13218
印	-9.13271
郦生	-9.13275
孰	-9.13651
都尉	-9.13714
子之	-9.14003
情	-9.14174
观之	-9.14499
人主	-9.14568
其母	-9.1466
郊	-9.14681
海内	-9.14818
兄弟	-9.14862
惊	-9.15166
祖	-9.15246
集	-9.15327
久之	-9.15346
佗	-9.15467
醉	-9.15483
仲	-9.15594
圣	-9.15619
释	-9.15853
子贡	-9.16129
谢曰	-9.1618
丑	-9.16215
子路	-9.16445
之徒	-9.16448
愈	-9.16468
国人	-9.16628
后世	-9.16648
汉兵	-9.16704
畔	-9.17091
司马	-9.17217
虑	-9.1725
愚	-9.17293
武公	-9.17314
之国	-9.17331
空	-9.17454
畜	-9.17598
不与	-9.17682
指	-9.17696
清	-9.17699
代立	-9.17727
改	-9.17741
《	-9.17764
与齐	-9.17912
数岁	-9.18007
昭	-9.18034
其所	-9.181
▁其明年	-9.18237
诗	-9.18239
给	-9.18251
中尉	-9.18294
傅	-9.18386
入朝	-9.18589
南越	-9.18676
十三	-9.18738
距	-9.18835
试	-9.18867
咸阳	-9.18898
诛之	-9.18947
欺	-9.19105
明年	-9.1916
材	-9.19164
臣意	-9.19317
监	-9.19348
笑	-9.1954
诺	-9.19874
壁	-9.19894
户	-9.19904
宽	-9.19932
接	-9.19974
万物	-9.19975
巫	-9.19986
会稽	-9.20014
饰	-9.20018
到	-9.20024
沈	-9.20036
武帝	-9.20119
渡	-9.20147
筑	-9.20236
室	-9.20319
荆	-9.20462
甘茂	-9.20469
为君	-9.20513
效	-9.20571
南阳	-9.20756
自以为	-9.20929
涉	-9.21008
坚	-9.21049
臣请	-9.21121
乃令	-9.21162
其民	-9.21194
旗	-9.21421
陈王	-9.21701
庸	-9.21895
十九年	-9.21931
不为	-9.21957
旦	-9.22039
择	-9.22062
州	-9.22071
横	-9.22161
荣	-9.22207
狱	-9.22246
句践	-9.22297
丰	-9.223
厥	-9.2232
念	-9.22368
应侯	-9.22589
简子	-9.22641
宦者	-9.2267
三人	-9.22765
天地	-9.22883
察	-9.23092
管仲	-9.23141
大梁	-9.23247
灌夫	-9.23359
绛侯	-9.23442
未能	-9.23513
势	-9.23715
哭	-9.23908
雨	-9.23993
积	-9.23994
路	-9.24077
鸟	-9.24105
庄	-9.24154
有司	-9.24196
二子	-9.24367
劝	-9.24551
已死	-9.24553
忘	-9.2465
禽	-9.24664
哙	-9.24728
阿	-9.24762
药	-9.24817
子胥	-9.24864
蒙恬	-9.24876
>	-9.24908
张良	-9.24919
迹	-9.24959
五帝	-9.2521
雒阳	-9.25242
其国	-9.25396
大破之	-9.25642
受命	-9.26178
字	-9.26256
承	-9.26273
屠	-9.26363
扁鹊	-9.26401
不至	-9.2649
可谓	-9.26544
垂	-9.26549
▁於是	-9.26586
取之	-9.26594
奴	-9.26669
徐	-9.26769
其事	-9.268
济	-9.26844
舍人	-9.27015
足以	-9.27087
谁	-9.27096
记	-9.27101
衡	-9.27181
秦军	-9.27197
趋	-9.27204
延	-9.27213
殊	-9.2727
蒙	-9.27288
稍	-9.27307
池	-9.27369
肉	-9.27372
船	-9.27409
平公	-9.2745
数月	-9.27533
孝文帝	-9.27605
笑曰	-9.279
占	-9.28114
图	-9.28151
襄王	-9.28328
如故	-9.2858
详	-9.2891
王者	-9.28999
禄	-9.29115
河内	-9.29165
姊	-9.29328
泰山	-9.29351
而无	-9.29381
五月	-9.29384
为将军	-9.29431
渠	-9.29582
之言	-9.2962
伐郑	-9.2972
宣公	-9.29745
萧	-9.2976
严	-9.29781
赂	-9.29869
造	-9.29887
社	-9.29896
千金	-9.29929
隆	-9.29967
产	-9.30004
太白	-9.30055
半	-9.30082
不下	-9.30139
且夫	-9.30363
阴阳	-9.3046
之心	-9.30463
未尝	-9.30494
男	-9.30831
主父	-9.30901
趣	-9.30906
脱	-9.30921
封为	-9.3125
目	-9.31485
博士	-9.31549
手	-9.3155
御史	-9.31553
高后	-9.3156
久矣	-9.3158
林	-9.31695
出入	-9.31752
所为	-9.31795
猎	-9.31804
诸吕	-9.31896
其父	-9.3201
不利	-9.32193
循	-9.32249
授	-9.32448
王翦	-9.32454
烧	-9.32473
黑	-9.32505
营	-9.32554
苍	-9.32571
何如	-9.32592
后稷	-9.32659
壮士	-9.32674
浮	-9.32704
四月	-9.32833
初立	-9.32925
孝公	-9.33068
粟	-9.33088
三晋	-9.33088
夷吾	-9.33201
书曰	-9.33308
精	-9.3342
放	-9.33424
三日	-9.33438
号为	-9.33769
或曰	-9.33918
转	-9.34074
欲杀	-9.34087
儿	-9.34159
太守	-9.3419
步	-9.34214
廷尉	-9.34364
验	-9.34414
之中	-9.34501
海	-9.34636
府	-9.34658
内史	-9.34735
完	-9.34881
上党	-9.34888
哀	-9.35103
削	-9.35144
悲	-9.35151
扬	-9.35188
君之	-9.35194
表	-9.35221
驾	-9.3523
樊哙	-9.35258
赎	-9.35299
鼓	-9.35317
敝	-9.3535
二十年	-9.35441
国除	-9.35477
田氏	-9.35493
上书	-9.35494
妇人	-9.35594
二十一年	-9.35638
其家	-9.35704
坏	-9.35734
於是上	-9.35862
耻	-9.36034
晋君	-9.36247
之功	-9.36404
谥为	-9.3687
靡	-9.36877
与秦	-9.37026
泣	-9.37075
为将	-9.37182
夫子	-9.37251
背	-9.37261
续	-9.37299
甘泉	-9.37391
於诸侯	-9.37457
宗室	-9.37578
是也	-9.37578
画	-9.37626
咎	-9.37639
上郡	-9.37644
席	-9.37687
省	-9.37746
财物	-9.37786
桀	-9.37852
驩	-9.37986
▁初	-9.38003
末	-9.38004
补	-9.38028
蛮夷	-9.38094
赵盾	-9.38212
武侯	-9.3833
以闻	-9.38342
为相	-9.3846
河南	-9.38587
克	-9.3885
以为然	-9.38853
郎	-9.3892
楚人	-9.39012
不足以	-9.39035
境	-9.39214
汉中	-9.39367
谓之	-9.39613
父子	-9.39616
功臣	-9.3963
用之	-9.39844
无功	-9.40069
罚	-9.40117
事秦	-9.4012
宠	-9.40134
还报	-9.40229
释之	-9.40235
十七年	-9.4066
医	-9.4081
虎	-9.40817
杀人	-9.40831
凶	-9.40917
辟阳侯	-9.40922
崔杼	-9.4094
仲尼	-9.40951
不忍	-9.41002
而归	-9.41078
日夜	-9.41177
长子	-9.41183
。”“	-9.41266
秦昭王	-9.41318
饮食	-9.41404
上下	-9.41632
友	-9.41716
怪	-9.41802
荆轲	-9.41926
从者	-9.41973
资	-9.41992
元	-9.42084
廷	-9.42556
太一	-9.42599
状	-9.42653
皆曰	-9.42818
二岁	-9.42854
王后	-9.42873
景	-9.429
十二	-9.43142
’	-9.43221
之子	-9.43365
熊	-9.4348
简公	-9.43562
旱	-9.43658
怒曰	-9.43743
遍	-9.43748
卧	-9.43819
诱	-9.43873
武安	-9.439
西伯	-9.43938
攻楚	-9.43962
此所谓	-9.44039
▁自	-9.44054
式	-9.44058
薨	-9.44065
一日	-9.44158
其先	-9.4447
吴起	-9.44502
厉	-9.44525
其子	-9.4456
闻其	-9.45009
嗣	-9.45015
汉军	-9.45267
国家	-9.4533
是故	-9.45401
况	-9.45495
小馀	-9.45552
谗	-9.45613
饥	-9.45653
乐毅	-9.45787
丹	-9.46056
乃止	-9.46299
成公	-9.46466
羊	-9.46496
以告	-9.46522
工	-9.46523
於是乃	-9.4654
脉	-9.46671
盾	-9.4675
临菑	-9.46751
卖	-9.46755
其明年	-9.46791
寒	-9.46805
祝	-9.46817
杂	-9.46833
堕	-9.46847
晁错	-9.46925
宫室	-9.46945
嗟乎	-9.46986
留侯	-9.47088
无道	-9.47245
商君	-9.47293
厉王	-9.47324
豪	-9.47398
少子	-9.47482
然而	-9.4756
伐之	-9.47664
午	-9.478
无罪	-9.4799
引兵	-9.48139
薛	-9.48157
不许	-9.48228
子弟	-9.48236
吾欲	-9.48668
知其	-9.48876
平王	-9.48901
骂	-9.48971
六国	-9.49033
谏曰	-9.49049
赵氏	-9.49186
太原	-9.49196
於王	-9.49196
四时	-9.49352
没	-9.49692
上帝	-9.49699
田常	-9.4979
刻	-9.4985
辰	-9.49858
其弟	-9.49893
逢	-9.49927
舆	-9.49935
慕	-9.49951
兽	-9.49981
惟	-9.50019
李牧	-9.50052
二十四年	-9.50272
二十八年	-9.50621
之礼	-9.50782
陈胜	-9.50793
范睢	-9.50937
面	-9.51045
六月	-9.51146
而君	-9.51183
楚之	-9.51293
昔者	-9.5141
为庶人	-9.51683
避	-9.51812
击匈奴	-9.51909
为郎	-9.51926
兼	-9.51996
於是天子	-9.51997
惠	-9.52029
见之	-9.52035
以兵	-9.52086
季	-9.52099
全	-9.52228
群	-9.52243
尉	-9.52261
子产	-9.52422
孟	-9.52605
有德	-9.52771
军中	-9.52798
树	-9.53029
绾	-9.53029
抵	-9.53047
屈	-9.53063
九月	-9.53178
而西	-9.53185
吕氏	-9.53221
季氏	-9.53305
汉兴	-9.53455
以报	-9.53527
晋文公	-9.53527
郡国	-9.53636
其人	-9.53782
币	-9.5389
诸生	-9.54199
飨	-9.54321
仁义	-9.54325
襄	-9.54414
之意	-9.54416
校尉	-9.54464
礼乐	-9.54725
庄王	-9.54875
黄金	-9.54884
项籍	-9.54932
▁其	-9.55009
之上	-9.55009
举兵	-9.55239
呼	-9.55258
达	-9.55537
险	-9.55561
先帝	-9.5568
孝景	-9.55703
名曰	-9.55865
豹	-9.56009
虽有	-9.56123
▁后	-9.5617
禅	-9.56204
顿首	-9.56339
衍	-9.56339
农	-9.56389
柱	-9.56469
倾	-9.56496
肥	-9.56513
殆	-9.56546
尤	-9.56547
环	-9.56572
伍子胥	-9.56617
武安君	-9.56656
寇	-9.56718
富贵	-9.56738
二十二年	-9.56871
莫能	-9.57135
救赵	-9.57379
不吉	-9.57553
病者	-9.57599
之兵	-9.57661
必有	-9.57754
东方	-9.5779
职	-9.57866
因以	-9.57929
乃召	-9.57998
宣王	-9.58055
安得	-9.58059
入关	-9.58071
小国	-9.58078
欲得	-9.58104
诸侯皆	-9.58188
以归	-9.58231
杜	-9.5835
老子	-9.58709
曲沃	-9.58756
无子	-9.58779
简	-9.58784
皇	-9.58872
儒	-9.58878
兰	-9.58883
▁是时	-9.59076
虞卿	-9.59441
为帝	-9.59587
与赵	-9.59598
泄	-9.596
渡河	-9.59636
共王	-9.59643
未至	-9.59645
君臣	-9.59669
置之	-9.59739
晋人	-9.59759
级	-9.59832
狄	-9.59852
渭	-9.59903
冢	-9.59923
草	-9.59928
陷	-9.59976
部	-9.59983
绌	-9.59984
温	-9.59993
矢	-9.59996
闰	-9.60006
每	-9.6001
契	-9.60025
缺	-9.60027
弓	-9.60034
既已	-9.60065
条侯	-9.60078
伯夷	-9.60088
其言	-9.60124
成侯	-9.60214
为乱	-9.60369
年少	-9.60412
十二月	-9.60467
公卿	-9.60569
而已	-9.60604
而王	-9.60697
月馀	-9.60715
为汉	-9.60738
云中	-9.60844
晋侯	-9.6085
大夏	-9.60928
楚兵	-9.60974
孰与	-9.61036
敖	-9.61366
以下	-9.61371
成皋	-9.61499
正月	-9.61626
大者	-9.61857
兹	-9.61995
命曰	-9.62034
不若	-9.6206
受之	-9.62073
人民	-9.62148
谋反	-9.62202
古者	-9.62346
之众	-9.62364
弗听	-9.62409
斩之	-9.62423
轸	-9.62456
忽	-9.62533
四人	-9.62627
骞	-9.62798
寡	-9.62858
日月	-9.62858
与战	-9.62863
楚怀王	-9.62943
蚤	-9.63051
莫不	-9.6308
臧	-9.63095
爱之	-9.63107
界	-9.63171
五人	-9.63281
召公	-9.63328
乙	-9.6339
粮	-9.63395
为侯	-9.63423
移	-9.6347
卷	-9.63524
萧何	-9.63527
狗	-9.63558
耕	-9.63561
逮	-9.63568
讨	-9.63585
齿	-9.63587
输	-9.63588
运	-9.63589
卢绾	-9.63594
田荣	-9.63598
径	-9.63599
抚	-9.63606
攻魏	-9.63651
幽王	-9.63695
入秦	-9.637
淮	-9.63761
北地	-9.6381
少年	-9.6385
城阳	-9.64006
入见	-9.64019
病死	-9.64119
幽	-9.64563
妇	-9.64679
往来	-9.64737
乃遂	-9.64752
短	-9.64797
再拜	-9.64857
贡	-9.65004
帛	-9.65007
康	-9.65039
秦缪公	-9.65188
孝王	-9.65198
与其	-9.6528
者皆	-9.65323
合从	-9.65336
问之	-9.65612
以东	-9.6566
陶	-9.65664
朝鲜	-9.65946
之道	-9.66153
与俱	-9.66192
乃立	-9.66321
牧	-9.66333
干	-9.66447
不肖	-9.66588
坛	-9.66648
越王	-9.66707
下吏	-9.6678
终不	-9.66837
丈	-9.6684
阙	-9.66846
谋曰	-9.66895
三十	-9.66895
三代	-9.66931
▁孔子	-9.67039
杨	-9.671
旧	-9.6716
治之	-9.67202
宝	-9.67217
革	-9.67224
导	-9.6727
刚	-9.67272
窦太后	-9.6728
巧	-9.6729
操	-9.67305
覆	-9.67308
增	-9.67311
选	-9.67313
誓	-9.67315
用兵	-9.67323
笞	-9.67328
乌孙	-9.67333
祭仲	-9.67341
京师	-9.67358
君王	-9.67407
县官	-9.67469
公仲	-9.67498
数年	-9.67575
箕子	-9.67594
女子	-9.67602
一岁	-9.67632
十八年	-9.67661
衣食	-9.6768
贾生	-9.67685
弊	-9.67831
楚庄王	-9.67873
和亲	-9.68038
大败	-9.68117
美人	-9.68385
怪之	-9.68419
灵王	-9.68524
军於	-9.68706
不欲	-9.68718
釐公	-9.68738
其下	-9.68831
来者	-9.68916
房	-9.69017
外国	-9.69168
陈涉	-9.69341
为我	-9.69384
以和	-9.69387
相与	-9.69447
如是	-9.69497
买	-9.69556
宜阳	-9.69772
礼之	-9.70155
其志	-9.70189
尸	-9.70216
山川	-9.70327
子婴	-9.70372
哀公	-9.70445
十一月	-9.70519
岂不	-9.7053
长沙	-9.70579
二十六年	-9.70657
至今	-9.70688
梦	-9.70755
泰一	-9.70771
尺	-9.70847
辛	-9.70917
仰	-9.70933
逃	-9.70949
什	-9.7107
弗能	-9.71071
管	-9.71086
鬼	-9.71104
狼	-9.71119
樗里子	-9.71148
朱虚侯	-9.71151
蛇	-9.71157
壬	-9.71168
亲戚	-9.71186
今君	-9.71205
即墨	-9.71258
高皇帝	-9.71285
方今	-9.71336
攻齐	-9.71373
由是	-9.7143
攻之	-9.71637
豨	-9.71698
出奔	-9.72096
四方	-9.72099
元王	-9.72215
以求	-9.72428
不受	-9.72431
之义	-9.72606
臣之	-9.72607
者乎	-9.72947
为秦	-9.73094
小人	-9.73117
不可胜数	-9.73209
病甚	-9.73247
三川	-9.73324
今陛下	-9.73381
▁六年	-9.73388
彭城	-9.73403
无以	-9.73483
特	-9.73582
之家	-9.73587
荐	-9.73662
其中	-9.73719
襄子	-9.73737
后宫	-9.73799
宾	-9.73821
王夫人	-9.73919
弑其君	-9.7394
吴楚	-9.73979
悔	-9.74009
誉	-9.74051
十万	-9.74053
冯	-9.74079
捐	-9.74135
▁夫	-9.74163
死者	-9.74287
所居	-9.74389
此其	-9.74427
鲁人	-9.74493
击破	-9.74503
胥	-9.74536
役	-9.74568
以来	-9.74647
乃复	-9.74719
六卿	-9.74737
庭	-9.74757
忌	-9.74847
细	-9.74897
甘	-9.74906
出兵	-9.74918
妻子	-9.74935
胡亥	-9.74967
穿	-9.75012
苏代	-9.75044
园	-9.75044
墨	-9.75046
注	-9.7508
将相	-9.75083
恭	-9.7509
闭	-9.75095
须	-9.75098
嫁	-9.75116
两人	-9.75132
赴	-9.7514
襃	-9.75149
壤	-9.75149
享国	-9.75162
篇	-9.75165
防	-9.75166
犀首	-9.75191
懿公	-9.752
兴师	-9.75246
若此	-9.75264
不绝	-9.75391
朝廷	-9.75391
周昌	-9.75434
陈轸	-9.75525
战胜	-9.75568
为吏	-9.75599
臣等	-9.75646
大宛	-9.75735
亦有	-9.76063
与韩	-9.7608
自立	-9.76131
其君	-9.76403
无穷	-9.76423
侯生	-9.76438
益封	-9.76472
康王	-9.76485
吕太后	-9.76499
三王	-9.76547
诊	-9.76576
亡走	-9.76614
可乎	-9.76811
攻秦	-9.76873
与楚	-9.76873
於天下	-9.76896
国之	-9.76926
攻赵	-9.76947
不当	-9.7704
三国	-9.77227
舞	-9.77307
其实	-9.77397
竭	-9.77438
之计	-9.77464
吏民	-9.77495
诸子	-9.77517
置酒	-9.77546
去之	-9.77549
皆以	-9.77577
御史大夫	-9.77789
项	-9.77829
莒	-9.78119
顷之	-9.78156
疑之	-9.78302
赍	-9.78448
为天子	-9.78477
吕不韦	-9.78477
破齐	-9.78525
郭	-9.78554
伪	-9.78608
大说	-9.7891
军吏	-9.78935
娶	-9.78964
恢	-9.78965
二十五年	-9.79039
丁	-9.79055
明堂	-9.79062
於燕	-9.79086
阳虎	-9.79092
楼船	-9.79123
毛	-9.79142
孙子	-9.79177
叶	-9.79182
刘氏	-9.79238
遵	-9.7925
越王句践	-9.79263
常山	-9.79265
骠骑	-9.79279
蔽	-9.79289
寄	-9.79294
履	-9.79297
格	-9.79306
叹	-9.79308
公孙弘	-9.79328
诫	-9.79342
汙	-9.79342
田忌	-9.79375
马邑	-9.79382
衡山王	-9.79477
昭侯	-9.79515
坚守	-9.79588
公子光	-9.79608
李	-9.79618
与王	-9.79638
体	-9.79687
礼义	-9.79818
无不	-9.79852
鞅	-9.79949
明日	-9.79974
而不能	-9.80071
五岁	-9.80203
罢兵	-9.80327
视之	-9.80341
父母	-9.80399
不服	-9.80442
於魏	-9.80475
子楚	-9.8052
怀公	-9.80655
不从	-9.80688
晋阳	-9.80863
得之	-9.80943
略地	-9.81146
王室	-9.81285
秦惠王	-9.81293
为诸侯	-9.8141
而使	-9.81516
月氏	-9.81536
申公	-9.81598
仇	-9.81785
初即位	-9.81811
慎	-9.81918
三岁	-9.81961
大行	-9.82001
灭之	-9.82099
未可	-9.82317
四海	-9.82428
审	-9.82558
考	-9.82564
隐公	-9.82631
拔之	-9.82698
海上	-9.82757
事之	-9.82887
徇	-9.82903
而东	-9.82941
季布	-9.82992
辽东	-9.83055
诣	-9.83148
带	-9.83172
回	-9.83246
挟	-9.83341
绛	-9.83341
出於	-9.83351
於晋	-9.83429
迟	-9.83432
戚	-9.83447
大惊	-9.83486
戍	-9.83492
欲立	-9.83494
驱	-9.83495
某	-9.83499
畤	-9.83508
震	-9.83519
第	-9.8352
纳	-9.83524
静	-9.83536
热	-9.83539
▁居	-9.83573
示	-9.83579
舒	-9.83609
嬴	-9.83616
痛	-9.83637
蚡	-9.83637
翼	-9.83639
否	-9.83645
菑	-9.83663
永	-9.83678
怠	-9.8368
巳	-9.83681
述	-9.83681
黔首	-9.83682
骨肉	-9.83684
伊尹	-9.83688
须贾	-9.83743
知伯	-9.83883
晏子	-9.83945
秦人	-9.83979
忠臣	-9.83985
赵衰	-9.84015
传曰	-9.8402
赏赐	-9.84022
外黄	-9.84217
伐魏	-9.84244
制曰	-9.84652
周室	-9.84794
万世	-9.84833
而欲	-9.84841
兵法	-9.84856
乃使人	-9.84893
张苍	-9.84903
可得	-9.84904
人皆	-9.84966
封泰山	-9.85138
二十	-9.85245
不便	-9.85357
人有	-9.85365
伐秦	-9.85384
皆有	-9.85421
人众	-9.85565
布衣	-9.85588
何为	-9.85643
▁九年	-9.85719
湣公	-9.85818
已定	-9.85869
尝与	-9.85917
救之	-9.86016
八月	-9.86046
五日	-9.86107
及其	-9.86145
栎阳	-9.86224
鄙	-9.86241
乃谓	-9.86435
▁卜	-9.86446
栗	-9.86481
烦	-9.86536
至此	-9.86559
西方	-9.86572
饶	-9.86605
苟	-9.86607
叔孙通	-9.8669
望见	-9.86786
今上	-9.86813
奢	-9.8683
为御史大夫	-9.86878
无礼	-9.86988
淮阴侯	-9.87021
缪	-9.87036
奏之	-9.87039
门下	-9.87054
湣王	-9.87083
先王之	-9.87165
恨	-9.87191
陆生	-9.87273
不成	-9.87455
秦拔我	-9.87537
今日	-9.87608
河东	-9.87674
乌	-9.87819
箕	-9.87859
虢	-9.8786
驷	-9.87896
索	-9.88029
妄	-9.88042
孝文皇帝	-9.88054
差	-9.88072
皋	-9.88123
邹	-9.88144
洛	-9.88148
暮	-9.88153
骠骑将军	-9.88159
睹	-9.88159
觉	-9.88161
躬	-9.88165
茂	-9.88195
繇	-9.88202
拘	-9.88203
溢	-9.8821
项伯	-9.8821
滑	-9.88215
抱	-9.88216
惮	-9.88229
依	-9.88229
有之	-9.88241
列为诸侯	-9.88245
张汤	-9.88357
无忌	-9.88437
三十三年	-9.88484
秦将	-9.88498
此两人	-9.88521
逾	-9.88548
以待	-9.8858
之政	-9.88626
亡去	-9.88673
不失	-9.88705
垣	-9.88762
将以	-9.88802
阖庐	-9.88815
於赵	-9.88908
晋国	-9.89006
居之	-9.8912
乃言	-9.89162
败之	-9.89176
小馀八	-9.89294
吏卒	-9.89331
所杀	-9.89396
数十万	-9.89416
文武	-9.89444
▁高祖	-9.89532
诸君	-9.89546
不治	-9.89578
夫以	-9.89656
之名	-9.89697
之人	-9.8975
曾	-9.89777
有一	-9.89778
以奉	-9.89907
孝文	-9.89972
▁十四年	-9.90025
予之	-9.90125
▁七年	-9.90152
奏事	-9.90234
骊姬	-9.90511
东北	-9.90644
不相	-9.90716
公主	-9.90903
符	-9.90916
不知其	-9.90956
秦使	-9.91043
百万	-9.91051
三十六年	-9.91127
向	-9.91167
不安	-9.91339
今臣	-9.91579
识	-9.91648
士大夫	-9.91714
侍中	-9.91751
亡国	-9.91884
听之	-9.91893
孔	-9.92003
五十	-9.92174
身死	-9.92184
万人	-9.92193
匡	-9.9226
琅邪	-9.92417
武安侯	-9.92418
损	-9.9242
中行	-9.92487
万民	-9.92594
谷	-9.92601
败走	-9.9261
而出	-9.92652
答	-9.92676
陇西	-9.92686
巴蜀	-9.92692
矫	-9.92695
狐	-9.92759
不合	-9.92764
统	-9.92791
惭	-9.92794
百馀人	-9.92813
向寿	-9.92821
穰	-9.92874
亭	-9.92879
妃	-9.92934
竹	-9.9295
四岁	-9.9295
辨	-9.9295
货	-9.92958
崇	-9.9296
鹿	-9.9296
柳	-9.9297
浅	-9.92975
妒	-9.92976
繁	-9.92976
跪	-9.92981
戌	-9.92984
舟	-9.92986
调	-9.92986
韩王	-9.92994
禽兽	-9.93006
田乞	-9.93009
其意	-9.93019
二十九年	-9.93113
良久	-9.93128
之利	-9.93138
百官	-9.93141
父老	-9.93167
济北王	-9.93243
齐湣王	-9.93288
其治	-9.93294
往往	-9.93332
击秦	-9.93334
太仆	-9.9334
西河	-9.934
西北	-9.93441
子曰	-9.93449
必矣	-9.93451
河上	-9.93485
奔齐	-9.93548
尝为	-9.93559
封於	-9.93678
然则	-9.93808
不食	-9.93829
今秦	-9.93832
甚众	-9.93833
退而	-9.93865
就国	-9.93982
数日	-9.9402
大喜	-9.94043
求之	-9.94098
▁三年	-9.94275
谒者	-9.9465
▁八年	-9.94674
定天下	-9.94829
入宫	-9.94841
所以知	-9.94946
乃封	-9.95032
之变	-9.95047
不义	-9.95069
不言	-9.95098
请以	-9.95141
谓曰	-9.95157
无有	-9.95187
丞	-9.95212
灵	-9.95214
令人	-9.95375
拜为	-9.95404
七月	-9.95471
之下	-9.95505
其俗	-9.95512
百里	-9.95593
▁十年	-9.95605
十馀	-9.9576
真	-9.95822
羞	-9.95823
魏其侯	-9.95945
失之	-9.95984
同姓	-9.96066
故也	-9.96162
赵之	-9.9622
非有	-9.96254
▁汉	-9.96265
不顾	-9.96334
妻之	-9.96386
不止	-9.96445
平原君曰	-9.96457
乃遣	-9.96486
行之	-9.965
卯	-9.96506
代之	-9.96602
其地	-9.96623
之业	-9.9681
委	-9.96939
七十	-9.96955
归汉	-9.97066
割地	-9.97126
大破	-9.97193
豪桀	-9.97227
范蠡	-9.97273
少时	-9.97295
文学	-9.97394
王道	-9.97458
田单	-9.97518
笃	-9.97562
郤	-9.97565
得脱	-9.97626
谕	-9.97631
吕禄	-9.97661
九江	-9.97719
其上	-9.97726
感	-9.97733
岐	-9.97799
郎中令	-9.97807
戴	-9.97832
血	-9.97838
与汉	-9.97855
庚	-9.97865
玄	-9.97891
继	-9.97899
铜	-9.97903
公孙	-9.97927
约束	-9.9793
误	-9.97932
楼	-9.97933
蜚	-9.97941
残	-9.97946
徼	-9.97952
扶	-9.97955
倚	-9.97956
遭	-9.97958
颍川	-9.97959
藉	-9.97966
溺	-9.97969
遮	-9.97969
锡	-9.97971
楼烦	-9.97973
亟	-9.97983
邺	-9.97987
皋陶	-9.97988
癸	-9.97988
尾	-9.97993
刀	-9.97995
人臣	-9.98006
里克	-9.98014
於韩	-9.98091
成功	-9.98105
康公	-9.98216
薛公	-9.98223
安邑	-9.98356
复入	-9.9844
家贫	-9.98629
善马	-9.98678
南方	-9.98724
吊	-9.98867
党	-9.98872
诸大夫	-9.98874
不疑	-9.98901
得幸	-9.99026
览	-9.99032
於周	-9.99124
至长安	-9.99129
陈留	-9.99156
不忘	-9.99225
常为	-9.9923
数千人	-9.99324
哀王	-9.99393
大农	-9.996
大国	-9.99767
代侯	-9.9982
为天下	-9.99841
相秦	-9.99946
取其	-10.0014
遂灭	-10.0019
不和	-10.002
当斩	-10.002
既立	-10.0032
惑	-10.007
祥	-10.0073
见其	-10.0077
之患	-10.0078
数百	-10.0085
典	-10.009
魏齐	-10.0092
诸公子	-10.0114
忍	-10.0119
其声	-10.0133
恐其	-10.0138
法令	-10.015
而民	-10.0158
苏	-10.0161
文侯	-10.017
阻	-10.0189
弥	-10.019
不闻	-10.0197
愿陛下	-10.0199
征	-10.0203
小子	-10.0206
不复	-10.0214
投	-10.0215
支	-10.0219
盐	-10.0224
梁孝王	-10.0228
白起	-10.0238
宰	-10.024
侍者	-10.024
威王	-10.0242
怯	-10.0244
小馀二十	-10.0247
享	-10.0267
公曰	-10.0267
司	-10.027
黥布	-10.0272
伐赵	-10.028
旅	-10.0284
涂	-10.029
菑川	-10.0291
左将军	-10.0293
千人	-10.0293
丙	-10.0294
桥	-10.0301
长公主	-10.0305
借	-10.0306
稷	-10.0308
早	-10.0309
荒	-10.0312
其能	-10.0317
羌	-10.0318
荧惑	-10.0318
穰苴	-10.0319
夹	-10.0319
渊	-10.032
胁	-10.032
铸	-10.0321
敦	-10.0321
叱	-10.0322
侈	-10.0322
援	-10.0322
漕	-10.0322
钧	-10.0322
焦	-10.0323
牢	-10.0323
渐	-10.0323
暴虐	-10.0324
楼缓	-10.0325
为天下笑	-10.0325
埶	-10.0325
雒	-10.0326
烹	-10.0326
甘罗	-10.0326
卜筮	-10.0326
智伯	-10.0327
由余	-10.0331
诗书	-10.0333
以占病	-10.0335
赵奢	-10.034
尚书	-10.0341
哀侯	-10.0341
受业	-10.0342
莫如	-10.0343
田婴	-10.0346
几何	-10.0346
王稽	-10.0349
韩厥	-10.035
齐威王	-10.0355
立其弟	-10.0364
贵贱	-10.0365
楚军	-10.0366
昆莫	-10.0375
自为	-10.0384
而卒	-10.0393
何故	-10.0397
今又	-10.0398
太傅	-10.0401
东胡	-10.0405
不明	-10.0406
秦必	-10.0407
陈豨	-10.041
击盗	-10.0413
而得	-10.0414
降者	-10.0419
故地	-10.0424
其兵	-10.0426
十六	-10.0433
公之	-10.0433
起兵	-10.0439
何谓	-10.044
诸侯王	-10.0443
当世	-10.0444
彊秦	-10.0448
鲁君	-10.0488
不以	-10.0497
名为	-10.05
齐之	-10.0502
攻燕	-10.0503
▁齐	-10.0503
桓	-10.0508
数千	-10.0514
而入	-10.0523
欲杀之	-10.0526
贵人	-10.0527
群臣皆	-10.0529
举事	-10.0556
千馀人	-10.0576
之德	-10.058
胶东	-10.0589
复归	-10.0595
於鲁	-10.061
太史	-10.0611
三子	-10.0623
平阳	-10.0636
相攻	-10.0638
王陵	-10.0665
以德	-10.0665
西至	-10.0666
江南	-10.0681
乃说	-10.0689
齐国	-10.0694
数万人	-10.0694
所言	-10.0707
鸣	-10.0721
於是遂	-10.0725
而自立	-10.0729
其德	-10.0744
乃得	-10.0758
为一	-10.076
以明	-10.0767
於此	-10.0767
弦	-10.0769
颂	-10.0771
越人	-10.0771
主父偃	-10.0772
世世	-10.0775
之罪	-10.0775
巴	-10.0777
城守	-10.0786
而有	-10.0789
阳生	-10.0816
睢	-10.0818
受其	-10.0829
诵	-10.083
顷公	-10.0834
邓	-10.0838
律	-10.0839
兴兵	-10.0845
上问	-10.0849
远方	-10.0852
封侯	-10.0852
又不	-10.0854
宅	-10.0858
腹	-10.086
六岁	-10.0863
定陶	-10.0863
皮	-10.0865
遂与	-10.0873
玺	-10.0873
貌	-10.0873
亚夫	-10.0873
侠	-10.0874
量	-10.0876
肆	-10.0876
搏	-10.0877
酉	-10.0878
髡	-10.0878
漆	-10.0878
员	-10.0879
忿	-10.0879
激	-10.0879
触	-10.088
抑	-10.088
斥	-10.088
淳于髡	-10.088
季札	-10.0881
彭祖	-10.0882
铸钱	-10.0882
董仲舒	-10.0883
许诺	-10.0884
下邳	-10.0884
周公旦	-10.0884
盗贼	-10.0884
屈原	-10.0885
天子曰	-10.0885
太伯	-10.0889
今乃	-10.089
弗许	-10.0892
公孙卿	-10.0894
燕军	-10.0904
数十	-10.0908
定公	-10.0912
戮	-10.0922
▁五年	-10.0929
之音	-10.0935
古之	-10.0938
南面	-10.0939
临晋	-10.0941
五大夫	-10.0948
朝歌	-10.0956
自立为	-10.0958
卫君	-10.0963
大将	-10.0966
桓子	-10.0968
晨出	-10.0968
方士	-10.0975
小者	-10.0979
郡县	-10.1001
以事	-10.1002
有馀	-10.1006
上书言	-10.1006
乃拜	-10.1011
为上	-10.1012
赵鞅	-10.1019
不乐	-10.1021
其道	-10.103
固已	-10.1042
十五	-10.106
▁十三年	-10.1063
观其	-10.1064
龙且	-10.1066
郑君	-10.1084
赖	-10.1091
贾人	-10.1091
欲诛	-10.1095
五星	-10.1107
欲与	-10.1108
武遂	-10.1126
所欲	-10.1132
以自	-10.1146
迁为	-10.1151
天子之	-10.1154
少君	-10.1154
轻重	-10.1156
其众	-10.116
之民	-10.1166
彊国	-10.117
皆为	-10.1176
夺之	-10.1179
宫中	-10.1184
不忠	-10.1188
砀	-10.1189
之於	-10.1195
无事	-10.1199
而行	-10.1223
而外	-10.1226
与诸侯	-10.1231
二十万	-10.1241
巡	-10.1244
子我	-10.1248
东海	-10.1253
汤武	-10.1256
有天下	-10.1268
秦攻	-10.1271
击胡	-10.1276
帝王	-10.1278
舜曰	-10.1281
济南	-10.1293
▁四年	-10.1297
有宠	-10.1304
为臣	-10.1307
自知	-10.1312
庶	-10.1319
自言	-10.1327
富人	-10.1332
东南	-10.1358
领	-10.136
止之	-10.1366
而天下	-10.1368
魏氏	-10.137
三百	-10.137
未得	-10.1373
雁门	-10.1374
夫差	-10.1384
贬	-10.1387
庄襄王	-10.1387
太子曰	-10.139
为齐王	-10.1393
霁	-10.1398
至咸阳	-10.1402
丈夫	-10.1407
仓	-10.1409
▁二年	-10.1409
及至	-10.141
嫣	-10.141
括	-10.1414
圉	-10.1423
北有	-10.1425
泗	-10.1426
尹	-10.1427
雅	-10.1433
自刭	-10.1434
句	-10.1435
胶西	-10.144
滋	-10.1451
栎	-10.1452
欲令	-10.1453
岁中	-10.1454
而攻	-10.1458
锺	-10.146
恩	-10.146
京	-10.1462
邸	-10.1462
凿	-10.1464
吕产	-10.1465
减	-10.1465
灌婴	-10.1466
严仲子	-10.1466
晚	-10.1466
闳	-10.1467
劾	-10.1467
均	-10.1467
腾	-10.1467
汲黯	-10.1468
季友	-10.1469
训	-10.1469
谈	-10.1469
雨不雨	-10.147
刘贾	-10.147
蔺相如	-10.147
蓬莱	-10.147
伍胥	-10.1471
鲧	-10.1471
草木	-10.1471
十馀日	-10.1472
乃去	-10.1473
死而	-10.1473
毋恤	-10.1474
周苛	-10.1474
晏	-10.1475
从其计	-10.1476
曹参	-10.1478
晋鄙	-10.1483
酒酣	-10.1483
不敬	-10.1485
男女	-10.1489
白马	-10.1493
语曰	-10.1497
长男	-10.1501
赵简子	-10.1502
其身	-10.1507
上林	-10.1519
五世	-10.1525
白公	-10.1527
高祖曰	-10.153
皇太后	-10.1532
臣愿	-10.1535
父兄	-10.1536
归报	-10.154
王太后	-10.154
以示	-10.154
西南	-10.1553
愿大王	-10.1554
魏文侯	-10.1554
会诸侯	-10.1569
有卻	-10.1572
次曰	-10.1574
桓侯	-10.1574
伐吴	-10.1582
赵地	-10.1583
长平	-10.1585
复见	-10.1585
与语	-10.1587
之口	-10.159
自度	-10.159
之谋	-10.159
无后	-10.1592
乃可	-10.1598
千馀	-10.1601
其在	-10.1611
川	-10.1613
何不	-10.1616
於外	-10.1621
其馀	-10.1646
其相	-10.1655
行者	-10.1658
所以为	-10.1662
更名	-10.1666
可使	-10.1666
之行	-10.1683
夕	-10.1692
如晋	-10.1695
舍之	-10.1701
以治	-10.1705
▁十一年	-10.1714
之贤	-10.1718
有能	-10.1718
仕	-10.1722
▁始皇	-10.1726
大馀	-10.1729
仙人	-10.1729
有过	-10.1743
▁维	-10.1747
天之	-10.1752
庆父	-10.1755
法度	-10.1756
杀其	-10.1758
一也	-10.1759
韩王信	-10.1775
别将	-10.1777
西有	-10.1792
城邑	-10.1793
朱	-10.18
下车	-10.1813
困於	-10.1824
卜之	-10.1825
与谋	-10.183
还至	-10.1847
平侯	-10.1851
於汉	-10.1857
忠信	-10.1882
东越	-10.1885
先人	-10.1887
安能	-10.1889
言於	-10.1897
屋	-10.1911
学者	-10.1913
说之	-10.1916
来救	-10.1917
秦王曰	-10.1924
缯	-10.193
诎	-10.1942
太后曰	-10.1947
恣	-10.195
李广	-10.1951
宋义	-10.1951
生得	-10.1953
无为	-10.1957
今者	-10.1961
淮阳	-10.1963
三分	-10.1967
乃为	-10.197
叛	-10.1972
;“	-10.1975
与人	-10.1986
读	-10.1988
贞	-10.199
有子	-10.1993
诚能	-10.1995
充	-10.2011
朔方	-10.2012
太史公	-10.2012
苗裔	-10.2017
宦	-10.2034
聂政	-10.2037
二十七年	-10.2037
堂	-10.204
卬	-10.2041
衡山	-10.2047
迫	-10.2048
岳	-10.2048
伍	-10.2055
灌	-10.2055
九卿	-10.2056
之臣	-10.206
矜	-10.206
天道	-10.206
践	-10.2062
掌	-10.2062
以死	-10.207
於宋	-10.2071
饭	-10.2075
此非	-10.2077
右贤王	-10.2077
三十年	-10.208
沮	-10.208
黥	-10.2081
俭	-10.2082
亢	-10.2082
翁	-10.2084
琴	-10.2085
摇	-10.2085
幕	-10.2086
勤	-10.2087
憎	-10.2088
其文	-10.2088
西周	-10.2089
犬	-10.209
共公	-10.2091
锋	-10.2091
柔	-10.2091
傍	-10.2091
缓	-10.2092
冒	-10.2093
荡	-10.2093
郅都	-10.2093
文信侯	-10.2093
介	-10.2093
禾	-10.2094
柯	-10.2094
刃	-10.2094
媾	-10.2094
绳	-10.2095
朱家	-10.2096
豫让	-10.2096
祭祀	-10.2096
华元	-10.2096
夷狄	-10.2097
栾书	-10.2097
宝器	-10.2097
清河	-10.2102
辰星	-10.2102
邓通	-10.2102
四岳	-10.2103
田横	-10.2104
高后崩	-10.2104
乳母	-10.2104
庶民	-10.2104
立太子	-10.2106
卫尉	-10.2107
无知	-10.2108
於民	-10.2108
宗族	-10.2109
耳目	-10.2122
?’	-10.2125
窃闻	-10.2131
三十四年	-10.2132
更立	-10.2132
之乱	-10.2138
始皇帝	-10.2146
立为王	-10.2146
赵括	-10.2149
十馀人	-10.2149
吾闻之	-10.2153
而上	-10.2158
庆封	-10.216
西乡	-10.216
其主	-10.2166
然其	-10.2168
燕昭王	-10.2182
商贾	-10.2183
於市	-10.2191
万馀人	-10.2194
▁十八年	-10.2204
亡归	-10.2205
楚昭王	-10.2207
关东	-10.2208
孝景帝	-10.2213
甚多	-10.2213
郎中	-10.2229
出公	-10.2234
河外	-10.2239
梁地	-10.2239
攻韩	-10.2246
是日	-10.2253
与我	-10.2255
之道也	-10.2257
贤人	-10.2272
卫将军	-10.2273
王也	-10.2279
不诛	-10.2286
伐韩	-10.2292
若是	-10.2294
其罪	-10.2298
父曰	-10.2306
汉之	-10.2316
告之	-10.2333
所闻	-10.2335
深入	-10.2342
▁秦	-10.2357
之孙	-10.2364
居无	-10.237
文子	-10.2376
秦皇帝	-10.2391
民之	-10.2392
不在	-10.2405
主之	-10.2416
不同	-10.2443
其故	-10.2448
切	-10.2449
食其	-10.2451
於卫	-10.2462
则楚	-10.2469
击楚	-10.2479
不得已	-10.2487
馀十六	-10.2489
楚使	-10.2495
送之	-10.2496
谥	-10.2499
顷	-10.25
而国	-10.2513
入海	-10.2529
大王之	-10.253
滇	-10.2536
其一	-10.2536
战於	-10.254
远矣	-10.2548
雠	-10.2556
不称	-10.2571
系者	-10.259
为代王	-10.2593
已破	-10.2604
言万物	-10.2608
则已	-10.2622
不宜	-10.2622
才	-10.2624
必不	-10.2629
从大将军	-10.2638
卿相	-10.2649
之彊	-10.2653
不反	-10.2659
信之	-10.2664
燕人	-10.2666
又使	-10.2676
已下	-10.2687
自是之后	-10.2695
五穀	-10.2702
冉	-10.2709
刘	-10.2714
其势	-10.2717
请得	-10.2718
穆	-10.272
愿得	-10.2723
熟	-10.2725
诸侯之	-10.2726
复立	-10.2732
默然	-10.2735
嗟	-10.2735
分其地	-10.2737
料	-10.2739
卵	-10.2739
贰师	-10.2741
以適	-10.2741
褚	-10.2744
购	-10.2745
风雨	-10.2747
井	-10.275
郁	-10.2752
扰	-10.2753
纠	-10.2753
戊	-10.2753
百里傒	-10.2756
纷	-10.2756
枝	-10.2757
悍	-10.2757
荀息	-10.2758
刘季	-10.2758
飞	-10.2758
宇	-10.2759
剖符	-10.2759
轶	-10.2759
荀卿	-10.2759
壹	-10.2759
洽	-10.2759
校	-10.2759
羹	-10.2759
赫	-10.276
掩	-10.276
巨万	-10.276
地入于汉	-10.2762
流涕	-10.2763
笑之	-10.2763
闻盗来	-10.2763
鸟兽	-10.2764
项氏	-10.2765
尤甚	-10.2769
九鼎	-10.277
二曰	-10.277
后有	-10.2771
三桓	-10.2772
造父	-10.2774
降汉	-10.278
修德	-10.2781
先登	-10.2781
浑邪王	-10.2781
归之	-10.2782
吕尚	-10.2782
不善	-10.2785
而令	-10.2787
蚤死	-10.2789
不说	-10.2789
终始	-10.279
三十九年	-10.279
三千人	-10.2791
城中	-10.2793
胡服	-10.2796
高后时	-10.2796
济北	-10.2801
乐乘	-10.2805
一旦	-10.2807
不得入	-10.2807
先君	-10.2813
长老	-10.2813
金钱	-10.2815
馀善	-10.2818
当是	-10.282
患也	-10.2831
▁十二年	-10.2834
楚国	-10.2835
三老	-10.2838
往击之	-10.2839
诛诸吕	-10.2841
琅邪王	-10.2841
季子	-10.2841
十七	-10.285
今吾	-10.285
然也	-10.2857
三公	-10.2861
裨将	-10.2862
吴广	-10.2864
为政	-10.2868
危矣	-10.2884
北面	-10.2887
常从	-10.2907
东周	-10.2917
吾君	-10.2925
北军	-10.2927
不取	-10.2929
之罪也	-10.2936
怒而	-10.2949
为后	-10.295
伐宋	-10.2952
因留	-10.2953
以上	-10.2961
缚	-10.2975
天命	-10.2984
三代之	-10.299
或言	-10.299
河西	-10.2993
围之	-10.3005
城父	-10.3007
十馀年	-10.3009
伐燕	-10.3011
秦女	-10.3015
精兵	-10.3015
栗姬	-10.302
歌曰	-10.3039
大臣皆	-10.3056
昼	-10.3075
时时	-10.3076
未尝不	-10.3085
臣窃	-10.3088
争之	-10.31
吾将	-10.3104
愈益	-10.311
赵禹	-10.3112
泾	-10.3115
程	-10.3127
或在	-10.3129
君其	-10.3138
僇	-10.314
太子建	-10.315
不通	-10.315
其名	-10.3155
恃	-10.3163
於戏	-10.3164
兵革	-10.3173
以法	-10.3175
子也	-10.318
讬	-10.3187
乃出	-10.3188
阳城	-10.3189
性	-10.3189
卫人	-10.3194
帝曰	-10.3196
为鲁	-10.321
行也	-10.3214
虽欲	-10.3221
独有	-10.3228
以礼	-10.3233
府库	-10.3234
河北	-10.3237
何足	-10.3238
万骑	-10.3244
王怒	-10.325
使人召	-10.3254
北边	-10.3256
不幸	-10.3263
七日	-10.327
之说	-10.3274
有诏	-10.3282
微子	-10.3284
君者	-10.3286
以相	-10.3294
祷	-10.3299
其行	-10.3322
其心	-10.3325
胜之	-10.3327
入于	-10.334
闾	-10.3345
而封	-10.3345
食邑	-10.3351
秦也	-10.3355
南夷	-10.3366
亨	-10.3367
秦穆公	-10.3374
▁及	-10.3375
乃解	-10.3382
丁公	-10.3384
持节	-10.3392
郑人	-10.3396
右渠	-10.3403
烈	-10.3409
诸将皆	-10.3411
孝惠帝	-10.3414
蔡泽	-10.3416
华阳	-10.3426
诸公	-10.3426
乏	-10.3429
姜	-10.343
令尹	-10.343
味	-10.3431
悼惠王	-10.3437
其将	-10.3438
焚	-10.3442
贷	-10.3443
揖	-10.3446
奚	-10.3449
屏	-10.345
称王	-10.3451
诡	-10.3452
雪	-10.3453
钜鹿	-10.3455
东有	-10.3456
僮	-10.3457
与燕	-10.3459
密	-10.3461
护	-10.3462
幼	-10.3462
之君	-10.3463
创	-10.3464
戟	-10.3466
兆	-10.3466
姑	-10.3467
贯	-10.3467
雄	-10.3467
圜	-10.3467
宪	-10.3468
乃请	-10.3469
督	-10.347
邛	-10.347
著书	-10.347
喻	-10.3471
旄	-10.3472
波	-10.3472
肩	-10.3472
鞭	-10.3473
庐	-10.3473
窘	-10.3473
机	-10.3473
▁大馀十	-10.3473
乍	-10.3474
辈	-10.3474
丽	-10.3474
中人	-10.3474
窦婴	-10.3474
嫪毐	-10.3475
毐	-10.3475
阪	-10.3475
赞	-10.3475
罗	-10.3475
欢	-10.3476
析	-10.3476
其失次	-10.3476
首仰足开	-10.3476
郯	-10.3476
晏婴	-10.3476
葆	-10.3476
股肱	-10.3476
律历	-10.3477
儒术	-10.3478
刑罚	-10.3478
坐法	-10.3479
众庶	-10.3479
剧孟	-10.348
孟舒	-10.348
博望侯	-10.3481
世俗	-10.3481
戚夫人	-10.3481
程婴	-10.3481
郤克	-10.3481
弃疾	-10.3483
遂以	-10.3483
行不遇	-10.3483
九州	-10.3484
驺忌子	-10.3486
郦山	-10.3487
东垣	-10.3489
旦日	-10.349
病得之	-10.3495
康居	-10.3495
七国	-10.3498
西戎	-10.35
妄言	-10.3501
未敢	-10.3507
新城	-10.3507
其北	-10.3511
庄生	-10.3511
四夷	-10.3511
不霁	-10.3512
任安	-10.3512
五伯	-10.3515
遂至	-10.3516
不祥	-10.3517
长城	-10.3517
之乐	-10.3518
而秦	-10.3523
为右	-10.3524
为楚	-10.353
因而	-10.3534
见於	-10.3535
江陵	-10.3544
各自	-10.3546
大司马	-10.3546
岂非	-10.3546
未发	-10.3549
之难	-10.355
盖闻	-10.3551
孝景时	-10.3553
出关	-10.3557
少梁	-10.356
恐惧	-10.3563
幸臣	-10.3566
其辞曰	-10.3567
之志	-10.3569
▁大馀五十	-10.3575
来朝	-10.3575
母曰	-10.3576
是谓	-10.3582
云云	-10.3582
岂可	-10.3583
居官	-10.3583
大将军青	-10.3583
乐者	-10.3585
城郭	-10.3591
周武王	-10.3591
士民	-10.3594
长吏	-10.3596
诚得	-10.3596
帝舜	-10.3604
在外	-10.3606
死罪	-10.3623
薄太后	-10.3626
安在	-10.3633
家居	-10.3636
不可得	-10.3638
▁十七年	-10.3639
必以	-10.3648
与魏	-10.3661
罪人	-10.3663
北方	-10.3664
东伐	-10.3672
尚有	-10.3687
齐侯	-10.369
’。”	-10.3696
伐陈	-10.3712
至荥阳	-10.3716
赵人	-10.372
广大	-10.3724
迁之	-10.3728
告急	-10.374
为赵王	-10.3743
则不	-10.3745
无他	-10.3758
献之	-10.377
吾所	-10.3775
韩氏	-10.3783
诗曰	-10.3785
破秦军	-10.3787
五国	-10.379
鼓琴	-10.3796
赵武	-10.38
而轻	-10.3812
肃	-10.382
相齐	-10.3826
并天下	-10.3843
效之	-10.385
北至	-10.3861
以给	-10.3871
乃求	-10.3882
昌邑	-10.3887
有身	-10.3891
佩	-10.3895
尧曰	-10.3907
於前	-10.3912
计之	-10.3915
弃之	-10.3919
十日	-10.393
人者	-10.3931
范睢曰	-10.394
者三	-10.394
不得立	-10.3943
子比	-10.3945
燕将	-10.3952
百金	-10.3959
亡秦	-10.3969
反国	-10.397
尽诛	-10.3979
后土	-10.398
客曰	-10.3985
怨望	-10.3986
所与	-10.3987
淮北	-10.3993
而听	-10.3996
居外	-10.3998
合谋	-10.3998
厌	-10.401
上有	-10.4012
智者	-10.4013
方与	-10.4019
不容	-10.4044
言也	-10.4051
为中	-10.4053
不平	-10.4053
何则	-10.4055
五行	-10.4059
后五日	-10.4069
侧	-10.4076
守之	-10.4077
南郡	-10.4111
为上将军	-10.4112
通於	-10.4115
其书	-10.4117
追之	-10.4117
立之	-10.4121
五千人	-10.4122
一时	-10.4124
秩	-10.4131
讳	-10.4135
长史	-10.4136
慢	-10.4136
岁星	-10.4137
一曰	-10.4152
韩之	-10.4158
当立	-10.4158
数百人	-10.4159
与晋	-10.4169
百馀	-10.4173
万石君	-10.4174
穆公	-10.4174
司空	-10.4177
鸡	-10.4178
不易	-10.4185
殃	-10.4186
桑	-10.4188
狂	-10.4189
稽	-10.4191
希	-10.4193
周君	-10.4196
天地之	-10.4196
鲜	-10.4196
待之	-10.4198
艾	-10.4199
率诸侯	-10.4199
墓	-10.4201
藩	-10.4209
於是乎	-10.4211
伦	-10.4213
主人	-10.4214
高帝曰	-10.4218
则是	-10.4219
遣之	-10.4223
黎	-10.4223
泰	-10.4224
羁	-10.4226
以北	-10.4226
乞	-10.4227
昏	-10.4227
似	-10.4228
卢	-10.423
亳	-10.4231
庶长	-10.4234
冲	-10.4234
媪	-10.4235
挑战	-10.4236
俯	-10.4236
踵	-10.4237
讲	-10.4238
匕首	-10.4238
域	-10.4238
育	-10.4239
英	-10.4239
猛	-10.4239
欣	-10.4239
提	-10.4239
杖	-10.424
蒯通	-10.424
股	-10.424
曾参	-10.424
拥	-10.4241
津	-10.4241
范增	-10.4241
灾	-10.4241
攘	-10.4241
甫	-10.4241
阬	-10.4242
囊	-10.4242
千馀里	-10.4242
掾	-10.4242
轩辕	-10.4242
鼠	-10.4242
濞	-10.4242
襃姒	-10.4243
烂	-10.4243
恬	-10.4243
敌国	-10.4243
敛	-10.4243
伍被	-10.4243
骨	-10.4244
缘	-10.4244
勋	-10.4244
侮	-10.4244
祕	-10.4244
诬	-10.4244
寅	-10.4244
新垣衍	-10.4245
蹶	-10.4245
濮阳	-10.4245
剽	-10.4245
杞	-10.4245
虫	-10.4245
筑长城	-10.4245
俎豆	-10.4245
筰	-10.4246
照	-10.4247
管叔	-10.4248
贯高	-10.4248
家室	-10.425
匹夫	-10.4251
喟然叹	-10.4251
居家室	-10.4255
欲往	-10.4258
诸侯相	-10.4258
狱吏	-10.4258
天下初定	-10.4259
上谷	-10.4261
卜式	-10.4263
参乘	-10.4264
当户	-10.4264
八百	-10.4267
击秦军	-10.4267
三十日	-10.4268
以百数	-10.4269
田宅	-10.4271
以西	-10.4272
所过	-10.4273
魏豹	-10.4274
景侯	-10.4277
而问	-10.4277
高辛	-10.4278
河间	-10.4281
有大	-10.4284
不入	-10.4284
十馀万	-10.4286
奇兵	-10.429
唯独	-10.4291
申生	-10.4292
与同	-10.4293
力战	-10.4293
召之	-10.4294
鲁连	-10.4295
魏王豹	-10.4299
遂杀	-10.43
臣意即	-10.4301
老父	-10.4301
所以养	-10.4304
康叔	-10.4312
文成	-10.4321
▁大馀三十	-10.4322
三河	-10.4325
叛之	-10.4328
▁项羽	-10.4329
不备	-10.433
乃上书	-10.434
具以	-10.4341
大馀二十	-10.4341
斩首	-10.4344
前日	-10.4344
黄帝时	-10.4347
孙也	-10.4349
夫秦	-10.4351
叔齐	-10.4351
霸上	-10.4352
不孰	-10.4352
三万人	-10.4361
车马	-10.4365
▁二十五年	-10.4365
在位	-10.4367
恶之	-10.4369
伐我	-10.4371
女也	-10.439
至河	-10.4391
神君	-10.4392
晋景公	-10.4394
遂行	-10.4396
▁命曰	-10.4397
后悔	-10.4398
长陵	-10.4403
迎之	-10.4407
于周	-10.4419
明於	-10.4424
不救	-10.4428
言其	-10.4428
大馀三十	-10.443
十二年卒	-10.443
当道	-10.4432
此乃	-10.4439
长安中	-10.4444
於陈	-10.4446
武关	-10.4448
圣人之	-10.445
阳侯	-10.4454
不亦	-10.4461
前后	-10.4465
郡守	-10.4469
所在	-10.4469
求见	-10.4473
此亦	-10.4488
此言	-10.4493
军败	-10.4498
▁桓公	-10.4504
众人	-10.4508
人之所	-10.451
二月	-10.4525
刺杀	-10.4529
又复	-10.4531
霸王	-10.4539
行事	-10.4545
有如	-10.4573
行义	-10.458
幸得	-10.4581
甚矣	-10.4586
君侯	-10.4587
亦不	-10.4598
射杀	-10.46
且欲	-10.4601
之内	-10.4617
为燕王	-10.462
如此则	-10.4633
霍	-10.4634
为大	-10.4638
乐之	-10.4638
为治	-10.4642
建元	-10.4645
神人	-10.4664
利也	-10.4665
周之	-10.467
然亦	-10.4671
明矣	-10.4675
敖仓	-10.4677
其义	-10.4679
为楚王	-10.4688
贤圣	-10.4692
田生	-10.4695
得以	-10.4701
罔	-10.4701
▁昭王	-10.4702
乘车	-10.4704
是何	-10.4708
知也	-10.4721
东至	-10.4728
察之	-10.4729
於朝	-10.4733
已立	-10.4735
以身	-10.4738
彘	-10.4751
三军	-10.4755
欲反	-10.4755
驰入	-10.4755
太常	-10.4757
河山	-10.4762
摄	-10.4774
数言	-10.478
国中	-10.4789
辱之	-10.4797
又何	-10.4801
皆属	-10.4801
其说	-10.4826
德公	-10.4826
与盟	-10.4828
逐之	-10.4828
往见	-10.4843
南有	-10.4856
於人	-10.4866
为郡	-10.4868
戾	-10.4868
肉袒	-10.4876
齐景公	-10.4879
为大将军	-10.4881
不中	-10.4882
囚之	-10.4888
皇后	-10.4892
国政	-10.4899
战而	-10.4903
反者	-10.4908
皆在	-10.4909
十人	-10.4917
安期生	-10.4919
秦时	-10.4921
今闻	-10.4922
此皆	-10.4926
报仇	-10.4927
▁卷一百	-10.4941
鄗	-10.4952
气也	-10.497
八岁	-10.4971
千户	-10.4973
不能得	-10.4975
召见	-10.4975
则有	-10.4975
治民	-10.4976
民人	-10.4978
伍奢	-10.4983
魏之	-10.4986
庶子	-10.4987
弟也	-10.5
倦	-10.5001
颜	-10.5007
其功	-10.5008
乘胜	-10.5008
彭	-10.5011
任侠	-10.5014
乃使使	-10.5017
复与	-10.502
专诸	-10.5022
昧死	-10.5023
温舒	-10.5023
谀	-10.5027
愧	-10.5034
信陵君	-10.5034
贲	-10.5035
临江王	-10.5035
渡淮	-10.5039
东瓯	-10.5039
无患	-10.504
未及	-10.5042
亥	-10.5046
厕	-10.5053
今大王	-10.5054
治也	-10.5057
平原	-10.5059
躁	-10.5064
顷襄王	-10.5065
汾	-10.5066
还定三秦	-10.5066
苛	-10.5066
太子丹	-10.5067
条	-10.5067
浊	-10.5068
怨之	-10.5069
倨	-10.507
雕	-10.5071
伉	-10.5072
荼	-10.5072
雷	-10.5073
珍	-10.5073
茅	-10.5073
启	-10.5073
齐使	-10.5074
西门豹	-10.5074
寝	-10.5074
斑	-10.5074
李园	-10.5074
矛	-10.5074
猾	-10.5074
丝	-10.5074
濡	-10.5074
烛	-10.5075
翔	-10.5075
编	-10.5075
戈	-10.5075
亚父	-10.5075
诸侯兵	-10.5076
揭	-10.5076
此人	-10.5076
粥	-10.5076
段	-10.5076
亩	-10.5076
斋戒	-10.5076
豪杰	-10.5076
州吁	-10.5076
钩	-10.5076
莫知	-10.5077
绐	-10.5077
汲	-10.5077
蚩尤	-10.5077
俎	-10.5077
岩	-10.5077
朴	-10.5077
不亦宜乎	-10.5078
哀姜	-10.5078
缮	-10.5078
孙膑	-10.5078
氐	-10.5078
淮阴	-10.5078
■	-10.5078
雍齿	-10.5078
夔	-10.5078
其於十二子为	-10.5078
棺	-10.5078
碣石	-10.5078
饬	-10.5078
湘	-10.5079
有应见	-10.5079
溉	-10.5079
床	-10.5079
田儋	-10.5079
抟	-10.5079
荆卿	-10.5079
优孟	-10.5079
燕王臧荼	-10.508
聊城	-10.508
有国	-10.508
营室	-10.508
赵王歇	-10.5081
筴	-10.5082
蜚廉	-10.5082
中行氏	-10.5082
犬戎	-10.5083
魏焻	-10.5084
慎夫人	-10.5085
朱公	-10.5087
太室	-10.5087
万里	-10.5087
抵罪	-10.5087
护军	-10.5088
武庚	-10.5089
美哉	-10.509
之本也	-10.5094
则必	-10.5095
由也	-10.5096
老弱	-10.5096
九原	-10.5096
律中	-10.5097
大馀五十	-10.5103
何者	-10.5103
竖子	-10.5104
常山王	-10.5104
高庙	-10.5106
弗敢	-10.5107
赵军	-10.511
太子申生	-10.511
悲夫	-10.5114
周市	-10.5117
太中大夫	-10.5118
地方	-10.512
贵幸	-10.5122
变化	-10.5128
吕礼	-10.513
发觉	-10.5132
赦天下	-10.5134
随何	-10.5136
安息	-10.5138
安国君	-10.5139
公叔	-10.514
衣服	-10.514
而反	-10.5142
乃归	-10.5143
悔之	-10.5145
一年	-10.5146
二日	-10.5148
攻下	-10.5149
使臣	-10.515
奔晋	-10.5152
以徇	-10.5155
问其故	-10.5161
戎翟	-10.5162
▁夏	-10.5166
▁二十七年	-10.5167
今足下	-10.5171
而已矣	-10.5171
二女	-10.5174
称病	-10.5174
子亹	-10.5176
遂去	-10.5177
而内	-10.5177
酒泉	-10.5183
朝晋	-10.5184
古公	-10.5186
子玉	-10.5197
周襄王	-10.5198
女弟	-10.5233
不务	-10.5235
左右皆	-10.524
之国也	-10.524
灭秦	-10.5242
之约	-10.5244
王不听	-10.5249
为嗣	-10.5253
故立	-10.5255
从官	-10.5258
名山	-10.5259
孝文时	-10.5269
为廷尉	-10.527
有司言	-10.5276
欲立之	-10.5303
日益	-10.5306
之声	-10.531
击项籍	-10.5318
三十二年	-10.532
属之	-10.533
围郑	-10.5331
晋之	-10.5333
入汉	-10.534
右将军	-10.5342
高阳	-10.5347
进兵	-10.5347
吴兵	-10.5353
富於	-10.5354
其军	-10.5362
其次	-10.5367
下之	-10.537
击赵	-10.5371
而不得	-10.5373
成败	-10.5374
之弟	-10.5378
可得而	-10.5378
之饶	-10.5384
耻之	-10.5384
於国	-10.5388
计事	-10.5389
之仇	-10.5395
免相	-10.5399
怜之	-10.5402
河决	-10.5405
鄙人	-10.5408
公怒	-10.5411
南至	-10.5412
将军印	-10.5417
王必	-10.5419
▁大馀	-10.542
有三	-10.5428
遂入	-10.543
愿君	-10.543
已得	-10.5431
沛公曰	-10.5433
既至	-10.544
疆	-10.5447
王离	-10.5447
明主	-10.5448
之际	-10.5453
瑟	-10.5454
不朝	-10.5461
为此	-10.5485
所见	-10.5492
老人	-10.5497
固请	-10.5501
为质	-10.5508
复以	-10.5515
▁昔	-10.5521
楚地	-10.5526
东门	-10.5529
此四	-10.554
而杀	-10.554
少府	-10.5551
畏秦	-10.5552
而乐	-10.5552
故人	-10.5554
游於	-10.5562
乃赐	-10.5562
立名	-10.5564
过矣	-10.5565
非也	-10.5566
於河	-10.5576
於郑	-10.5579
三曰	-10.5583
则天下	-10.5585
城门	-10.5592
北河	-10.5592
乃诏	-10.5594
使之	-10.5596
自谓	-10.5608
尽忠	-10.5615
於世	-10.5615
为列侯	-10.5617
守荥阳	-10.5646
为布衣	-10.5663
然之	-10.5669
乃悉	-10.5673
亡在	-10.5674
不去	-10.5684
扶苏	-10.569
且死	-10.5693
一言	-10.5694
而自	-10.5699
大军	-10.5702
怜	-10.5712
皆争	-10.5718
不爱	-10.5721
仙	-10.5734
秦灭	-10.5736
多矣	-10.5738
魏将	-10.574
不战	-10.5745
何其	-10.5746
有土	-10.5748
义帝	-10.575
万家	-10.576
苦之	-10.5766
偏	-10.5776
▁将军	-10.5778
燔	-10.5779
而立之	-10.5786
则无	-10.579
云梦	-10.5796
与鲁	-10.5813
子圉	-10.5817
数万	-10.5817
疑其	-10.582
王命	-10.5826
大战	-10.5826
二千	-10.5826
有不	-10.5831
以一	-10.5832
十九	-10.5833
殿	-10.5834
五百	-10.5839
老矣	-10.5843
攻城	-10.5846
武臣	-10.5852
至秦	-10.5853
卫鞅	-10.5857
泉	-10.5859
甲兵	-10.5864
大馀十	-10.5868
偿	-10.5878
辩士	-10.5885
戒	-10.5885
在秦	-10.5885
之法	-10.5886
民多	-10.589
之情	-10.5892
欲召	-10.5892
於道	-10.59
数千里	-10.591
三世	-10.5914
平曰	-10.5915
计谋	-10.5921
陆	-10.5922
狗马	-10.5923
大笑	-10.5928
近之	-10.5928
寤	-10.5936
使天下	-10.5938
翦	-10.5942
郦	-10.5943
竖	-10.5945
栾	-10.5947
三十一年	-10.5948
一军	-10.595
豫章	-10.5953
郁成	-10.5953
彗星	-10.5953
歇	-10.5961
又以	-10.5963
乾	-10.5966
义渠	-10.5967
巨	-10.5968
麾	-10.5969
王黄	-10.5969
倡	-10.5972
围邯郸	-10.5972
戎狄	-10.5973
鄢	-10.5974
大夫种	-10.5974
轵	-10.5975
武丁	-10.5976
二百	-10.5976
顿	-10.5977
我将	-10.5977
擢	-10.5977
太宰嚭	-10.5978
但	-10.5978
夜郎	-10.5979
虐	-10.5981
织	-10.5981
骚	-10.5981
露	-10.5981
子反	-10.5981
庶几	-10.5981
谤	-10.5982
掘	-10.5982
颛顼	-10.5982
谩	-10.5982
肺	-10.5982
根	-10.5983
巩	-10.5983
窥	-10.5983
珠	-10.5984
兑	-10.5984
嫉	-10.5985
纤	-10.5985
讼	-10.5985
蓟	-10.5985
辕	-10.5985
秏	-10.5985
橐	-10.5985
肾	-10.5985
绣	-10.5985
庞涓	-10.5985
貉	-10.5985
陂	-10.5985
捷	-10.5985
辜	-10.5985
秉	-10.5985
销	-10.5986
蕲	-10.5986
跃	-10.5986
馆	-10.5986
蔺	-10.5986
娄	-10.5986
番禺	-10.5986
昆仑	-10.5986
犁	-10.5986
网	-10.5986
求财物买臣妾马牛	-10.5986
上自	-10.5987
犹豫	-10.5987
孙叔敖	-10.5987
升	-10.5987
装	-10.5987
岁阴在	-10.5987
贰师将军	-10.5987
驯	-10.5988
桓叔	-10.5988
鲍叔	-10.5988
妫	-10.5988
枭	-10.5988
排	-10.5988
胃	-10.5989
洛阳	-10.5989
填星	-10.5989
群盗	-10.5989
积粟	-10.599
史记	-10.599
叔带	-10.5991
二十馀年	-10.5991
伯禽	-10.5991
鄂侯	-10.5991
诸儒	-10.5992
贵戚	-10.5993
黄池	-10.5993
发使	-10.5993
师旷	-10.5994
擅权	-10.5995
千石	-10.5995
王僚	-10.5997
太尉勃	-10.5997
烈侯	-10.5997
金玉	-10.5999
不韦	-10.5999
大人	-10.6002
捕虏	-10.6002
南海	-10.6002
追尊	-10.6002
阏与	-10.6003
彗星见	-10.6003
李将军	-10.6003
李信	-10.6004
四面	-10.6004
此之谓	-10.6004
之力也	-10.6005
平阳侯	-10.6005
匹	-10.6006
而实	-10.6006
其妻	-10.6008
系者出	-10.6009
击筑	-10.6011
见贵人	-10.6012
淫乱	-10.6013
绝祀	-10.6015
削地	-10.6015
有变	-10.6015
功业	-10.6016
奚齐	-10.6017
中大夫	-10.6017
赐之	-10.6018
无害	-10.6019
孺子	-10.6019
行者行	-10.6023
五刑	-10.6024
小白	-10.6025
从事	-10.6027
大馀四十	-10.6029
往年	-10.6031
郤至	-10.6031
当此之	-10.6032
江东	-10.6035
至霸上	-10.604
穆王	-10.604
胶西王	-10.604
其辞	-10.6042
谓秦王曰	-10.6044
蔡侯	-10.6044
谒居	-10.6046
不识	-10.6047
师傅	-10.6048
利害	-10.6049
善射	-10.6053
异日	-10.6053
唯恐	-10.6053
▁庄公	-10.6055
伐晋	-10.606
昭子	-10.6064
卿士	-10.6071
且陛下	-10.6073
兵罢	-10.6075
臣窃以为	-10.6078
骑将	-10.6079
之所以	-10.6081
睢阳	-10.6086
非独	-10.6086
晋惠公	-10.6091
孟子	-10.6092
予秦	-10.6095
星居	-10.6095
上泰山	-10.6096
武帝立	-10.6096
虽小	-10.6099
三星	-10.61
之威	-10.6102
之术	-10.6104
发丧	-10.6106
入郢	-10.611
▁大馀四十	-10.6115
好学	-10.6115
梁惠王	-10.6117
魏勃	-10.6117
称曰	-10.612
反间	-10.612
因言	-10.6124
庄子	-10.6124
幸於	-10.6129
三十五年	-10.6132
与国	-10.6133
今年	-10.6137
何如人	-10.6138
盛德	-10.6138
吴王夫差	-10.6141
去疾	-10.6141
不变	-10.6142
为秦将	-10.6145
十一	-10.6149
大父	-10.6151
存亡	-10.6158
婴齐	-10.6162
儒者	-10.6171
雍氏	-10.6178
武子	-10.6183
不待	-10.6184
汉法	-10.6198
有敢	-10.6201
东西	-10.6203
有一人	-10.6204
晋平公	-10.6212
治病	-10.6216
因说	-10.6217
文君	-10.6218
何哉	-10.622
甲子	-10.6221
十馀岁	-10.6221
藏於	-10.6233
此三	-10.6234
不好	-10.6235
事成	-10.6238
▁十九年	-10.6245
楚成王	-10.6255
孝文王	-10.6259
▁子贡	-10.6261
於下	-10.6262
非敢	-10.6264
受诏	-10.6267
小大	-10.6275
请之	-10.6276
吾所以	-10.6279
所得	-10.6281
终身	-10.6282
大星	-10.6288
用事者	-10.6288
宣太后	-10.6289
然后得	-10.6289
以次	-10.6292
子常	-10.6294
尚矣	-10.6298
化为	-10.6305
其不可	-10.6313
见天子	-10.6318
于秦	-10.6324
独与	-10.6336
以利	-10.635
必先	-10.6352
人或	-10.6354
顾谓	-10.6358
决於	-10.6359
葬之	-10.6363
晋兵	-10.6366
敬王	-10.6368
赵襄子	-10.6378
说者	-10.6385
居顷	-10.6393
为太常	-10.6398
为师	-10.6417
是非	-10.6417
臣不敢	-10.6418
晋献公	-10.6419
无异	-10.6435
随之	-10.6441
相之	-10.6451
试之	-10.6451
大乱	-10.6457
至如	-10.6459
有间	-10.6474
胡骑	-10.6477
射之	-10.6484
破秦	-10.6485
至丞相	-10.6499
渔	-10.6509
所立	-10.651
祸也	-10.6515
其母曰	-10.6516
民皆	-10.6524
爱人	-10.6534
今公	-10.6537
败我	-10.6539
其处	-10.6539
之祀	-10.654
进之	-10.6548
乃自	-10.655
道之	-10.6552
二十八	-10.6559
不脩	-10.6563
齐兵	-10.6568
如也	-10.6573
并起	-10.6581
益骄	-10.6586
三族	-10.6588
求入	-10.6596
而又	-10.6609
自请	-10.6609
足矣	-10.6611
为相国	-10.6627
而见	-10.6629
恐诛	-10.663
关内侯	-10.6637
为塞	-10.6648
助楚	-10.6651
赐爵	-10.6653
飨士	-10.6659
不知也	-10.666
之宫	-10.6662
司徒	-10.6669
今我	-10.6675
自归	-10.6691
不附	-10.6693
身自	-10.6703
视其所	-10.671
不自	-10.671
王孙	-10.672
十馀城	-10.6724
击齐	-10.6747
单	-10.6761
贤之	-10.6767
而相	-10.6773
子西	-10.6778
罢之	-10.679
归赵	-10.6804
活	-10.6808
▁秦王	-10.6812
兵彊	-10.6814
初定	-10.6815
釐侯	-10.6822
晨	-10.6823
亡人	-10.6827
万户	-10.683
最为	-10.6841
见疑	-10.6842
韩非	-10.6845
万乘之	-10.6848
殽	-10.6849
将死	-10.685
泾阳君	-10.6854
乃反	-10.6859
鸿	-10.6861
为乐	-10.6865
从军	-10.6869
勉	-10.687
击杀	-10.6879
行矣	-10.688
魏相	-10.688
将率	-10.6882
上天	-10.6885
车千乘	-10.6889
恤	-10.689
为事	-10.6891
虽无	-10.6901
畏之	-10.6901
悼	-10.6905
间行	-10.692
饿死	-10.6922
狭	-10.6927
絜	-10.6927
并力	-10.6927
其礼	-10.6929
鲍	-10.6933
诸神	-10.6934
问左右	-10.6935
芒	-10.6935
之野	-10.6937
欲求	-10.6942
漳	-10.6945
肯	-10.6951
胙	-10.6953
沙丘	-10.6956
六城	-10.6957
双	-10.6964
詹	-10.6965
公孙奭	-10.6965
於中	-10.6966
孔丘	-10.6969
遁	-10.6969
旷	-10.6971
为韩	-10.6973
疫	-10.6973
百馀里	-10.6974
讯	-10.6974
落	-10.6975
蒯聩	-10.6976
僻	-10.6977
旋	-10.6977
筮	-10.6979
泗水	-10.6979
桃	-10.6979
斋	-10.698
闾巷	-10.698
嗜	-10.698
肝	-10.698
铁	-10.6981
募	-10.6981
豳	-10.6981
甯	-10.6981
因问	-10.6981
蓺	-10.6981
邦	-10.6982
夜半	-10.6982
臂	-10.6982
汗	-10.6982
包	-10.6983
灸	-10.6983
伊阙	-10.6983
涕泣	-10.6983
陕	-10.6983
薪	-10.6984
含	-10.6984
阶	-10.6984
雾	-10.6984
菽	-10.6984
切其脉	-10.6985
壅	-10.6985
纯	-10.6985
刘敬	-10.6985
赋敛	-10.6985
氾	-10.6985
麟	-10.6985
緤	-10.6985
钺	-10.6985
诽谤	-10.6985
伊	-10.6985
牲	-10.6985
黄歇	-10.6985
麻	-10.6986
柴	-10.6986
百岁后	-10.6986
阸	-10.6986
堑	-10.6986
讙	-10.6986
尉史	-10.6986
慨	-10.6986
弹	-10.6986
颍	-10.6987
限	-10.6987
甄	-10.6987
头曼	-10.6987
百有馀年	-10.6987
鄢郢	-10.6987
(	-10.6987
)	-10.6987
▁卷九十	-10.6987
亏	-10.6988
▁卷八十	-10.6988
祓	-10.6988
桡	-10.6988
渔猎	-10.6988
▁卷七十	-10.6988
牵牛	-10.6988
殖	-10.6988
▁卷六十	-10.6988
栗腹	-10.6988
▁卷五十	-10.6988
总	-10.6988
▁卷四十	-10.6988
租税	-10.6988
兔	-10.6988
▁卷三十	-10.6989
钻	-10.6989
曰天	-10.6989
郑袖	-10.6989
李克	-10.699
▁卷二十	-10.699
韦丞相	-10.699
咎犯	-10.6991
乃曰	-10.6991
二千户	-10.6991
余读	-10.6991
范阳令	-10.6993
延年	-10.6993
勒兵	-10.6993
西南夷	-10.6993
郊雍	-10.6994
刻深	-10.6994
李良	-10.6994
好畤	-10.6995
乘舆	-10.6996
適嗣	-10.6996
吕嘉	-10.6997
黎民	-10.6997
乡里	-10.6998
郊迎	-10.6998
毕万	-10.7
▁卷十	-10.7001
朔旦冬至	-10.7001
岂敢	-10.7003
幸姬	-10.7004
重宝	-10.7005
上闻	-10.7005
妇女	-10.7006
公刘	-10.7007
废丘	-10.7008
。’”	-10.7008
论之	-10.7009
燕王喜	-10.701
济西	-10.7011
勇士	-10.7012
柏人	-10.7012
徙官不	-10.7014
相与谋曰	-10.7015
第一	-10.7015
共击	-10.7016
二千人	-10.7017
金千斤	-10.7018
长卿	-10.7019
各一人	-10.702
治国	-10.7021
河南地	-10.7022
毛遂	-10.7023
晋定公	-10.7023
太山	-10.7023
制度	-10.7024
田光	-10.7024
东乡	-10.7025
必得	-10.7025
赵穿	-10.7025
礼毕	-10.7026
朕甚	-10.7029
有顷	-10.7029
显名	-10.7031
而与	-10.7031
相见	-10.7032
得罪	-10.7032
者必	-10.7032
掌故	-10.7033
听其	-10.7035
张卿	-10.7036
如姬	-10.7041
击陈豨	-10.7041
大月氏	-10.7041
下有	-10.7042
百越	-10.7043
楚威王	-10.7044
奉祠	-10.7044
日至	-10.7045
惧诛	-10.7046
釐王	-10.7047
马陵	-10.7047
固其	-10.7049
度河	-10.7049
之粟	-10.705
菑川王	-10.7051
为太子时	-10.7052
安陵	-10.7053
中二千石	-10.7054
以我为	-10.7054
足肣	-10.7055
有兵	-10.7058
门外	-10.7061
骄恣	-10.7063
四星	-10.7064
莫若	-10.7068
军旅	-10.7069
弑君	-10.7069
不敢当	-10.7073
天神	-10.7074
楚灵王	-10.7074
所忠	-10.7076
辞谢	-10.7076
更始	-10.7081
天子为	-10.7082
东土	-10.7085
建德	-10.7086
臣谨	-10.7087
广陵	-10.7093
成汤	-10.7093
非所	-10.7094
三晋之	-10.7095
易水	-10.7096
入於	-10.7097
爱幸	-10.7099
五利	-10.7107
地动	-10.7111
南山	-10.7114
为人臣	-10.7116
声公	-10.7117
项燕	-10.7118
此二人	-10.7123
之东	-10.7125
者数十人	-10.7127
齐襄公	-10.7128
时有	-10.7132
攻战	-10.7132
武城	-10.7136
十九人	-10.7138
自将	-10.7141
九十	-10.7143
万乘	-10.7144
读之	-10.7146
候神	-10.7146
且至	-10.7148
明德	-10.7154
▁卷一百二十	-10.7155
建国	-10.7157
九岁	-10.7159
灶	-10.716
文公卒	-10.7162
晋乱	-10.717
命也	-10.7177
赵同	-10.7188
大小	-10.7188
梁父	-10.7191
贤主	-10.7194
齐也	-10.7194
命之	-10.7195
上使	-10.7195
祠之	-10.7199
详为	-10.72
子虚	-10.7204
愿王	-10.7208
乃敢	-10.721
於吴	-10.721
天子既	-10.7211
从容	-10.7213
楚围	-10.7217
徙都	-10.7219
以将军	-10.7221
置吏	-10.7223
不能用	-10.7229
十城	-10.723
病免	-10.7239
终无	-10.7246
从亲	-10.7246
出子	-10.7256
少子也	-10.7258
者众	-10.7259
於上	-10.7259
其舍人	-10.7259
东徙	-10.726
收其	-10.726
图之	-10.7261
礼者	-10.7268
道哉	-10.7271
胡公	-10.7275
召平	-10.7276
号令	-10.7283
▁明年	-10.7284
之命	-10.7284
其城	-10.7289
东阳	-10.7292
周天子	-10.7292
上以为	-10.73
归而	-10.7304
失道	-10.7306
还走	-10.7314
各以其	-10.732
亡命	-10.732
▁大馀二十	-10.7321
非常	-10.7324
之怨	-10.7327
百乘	-10.7333
恶言	-10.7339
实不	-10.7349
其时	-10.7357
兵起	-10.736
东郡	-10.7367
且王	-10.7367
之初	-10.7369
而止	-10.7376
越之	-10.7389
并兼	-10.7393
定襄	-10.7402
拔我	-10.7405
其业	-10.7406
远者	-10.7414
何必	-10.7417
者死	-10.7423
万匹	-10.7428
是后	-10.7436
故其	-10.7437
从此	-10.7437
如有	-10.7438
楚将	-10.7438
傅之	-10.7439
以是	-10.7442
以其故	-10.7443
郡太守	-10.7444
太子死	-10.7445
上坐	-10.7447
汉使者	-10.7457
与吴	-10.7459
兵於	-10.746
更以	-10.7463
共立	-10.7463
分之	-10.7477
千乘	-10.7477
服之	-10.7477
攻杀	-10.7485
▁是岁	-10.7485
今夫	-10.749
千乘之	-10.7493
请救	-10.7494
二国	-10.7496
犹有	-10.7502
行德	-10.7503
张王	-10.7504
秦嘉	-10.7506
上古	-10.7507
之势	-10.7508
而好	-10.751
至燕	-10.7515
有光	-10.753
以应	-10.7536
此二	-10.7536
之处	-10.7538
劳苦	-10.754
君也	-10.756
天王	-10.7565
语在	-10.7568
功多	-10.7571
率诸侯伐	-10.7572
又曰	-10.7573
为左丞相	-10.7578
之位	-10.7579
谢罪	-10.7581
吴人	-10.7586
使使召	-10.7593
以安	-10.7594
其兄	-10.7597
楚相	-10.7599
赦之	-10.7602
既见	-10.7604
急击	-10.761
是王	-10.7612
楚平王	-10.7614
秦始	-10.7619
幸之	-10.7619
蒙骜	-10.7625
病也	-10.7644
以赐	-10.7648
谢病	-10.7664
子家	-10.7671
之日	-10.7672
亡奔	-10.7683
佐之	-10.7688
之外	-10.7691
今楚	-10.7695
忧也	-10.7699
悟	-10.7706
灭吴	-10.7708
必亡	-10.7715
不就	-10.7728
成子	-10.7736
八十	-10.7738
易王	-10.7742
未必	-10.7746
赵城	-10.7752
而求	-10.7753
生於	-10.7754
吞	-10.7755
为其	-10.7757
围赵	-10.7761
成而	-10.7764
皆复	-10.7765
而信	-10.7771
常以	-10.7784
以齐	-10.7787
出塞	-10.7794
能行	-10.7796
不彊	-10.7799
为中大夫	-10.7801
下诏	-10.7803
其骑	-10.7804
颜色	-10.7813
诸大臣	-10.7814
自称	-10.7817
为赵	-10.7819
以前	-10.782
为梁王	-10.7827
质於齐	-10.7831
近於	-10.7831
遂亡	-10.7833
见人不	-10.7836
而前	-10.7837
乃分	-10.7837
无所不	-10.784
社稷之	-10.7842
益发	-10.7843
岂有	-10.7849
而遣	-10.7851
▁孔子曰	-10.7854
安所	-10.786
得地	-10.7863
七人	-10.7866
皆可	-10.7873
二君	-10.7885
取天下	-10.789
突	-10.7893
各以	-10.7894
至国	-10.7901
至齐	-10.7906
赵相	-10.7909
魏绛	-10.7915
马之	-10.7917
行者不	-10.7918
归於	-10.7921
百人	-10.7922
爽	-10.7934
孔氏	-10.7937
赢	-10.7949
轨	-10.795
六日	-10.7954
阴谋	-10.7958
过之	-10.7961
定国	-10.7965
不虚	-10.7966
其族	-10.7967
江都	-10.7969
侵地	-10.7974
使将军	-10.7984
又有	-10.7986
为右丞相	-10.7986
尊之	-10.7987
固有	-10.7988
以危	-10.7989
泽中	-10.799
亦各	-10.8001
并将	-10.8002
有宠於	-10.8006
所以不	-10.8008
十万之众	-10.8013
毅	-10.8014
馀皆	-10.802
之议	-10.8033
五六	-10.8039
吴楚反	-10.804
如前	-10.8042
至甘泉	-10.8046
孺	-10.8047
乃谢	-10.8057
奔吴	-10.8057
功德	-10.8058
饿	-10.8059
饮酒	-10.8059
驺	-10.806
浑邪	-10.8062
丹朱	-10.8066
沙	-10.8068
佚	-10.807
鄂	-10.8073
已平	-10.8073
算	-10.8073
至尊	-10.8073
骇	-10.8074
泥	-10.8075
出东方	-10.8075
锐	-10.808
苑	-10.8083
辇	-10.8083
祠官	-10.8083
驹	-10.8086
瑞	-10.8087
以罪	-10.8088
辍	-10.8089
东阿	-10.8089
披	-10.809
厚赐	-10.809
束	-10.809
立皇子	-10.809
先之	-10.8091
扞	-10.8092
倒	-10.8092
卤	-10.8092
葛	-10.8092
}	-10.8092
纣之	-10.8093
{	-10.8093
何敢	-10.8093
渎	-10.8093
米	-10.8093
婢	-10.8093
牙	-10.8094
傥	-10.8094
浸	-10.8094
嚭	-10.8094
钟	-10.8094
李兑	-10.8095
茀	-10.8095
谿	-10.8095
荷	-10.8095
膑	-10.8095
按	-10.8095
蠡	-10.8095
俾	-10.8096
迩	-10.8096
戹	-10.8096
强	-10.8096
裘	-10.8096
须臾	-10.8096
协	-10.8096
疵	-10.8096
舌	-10.8096
斩首八万	-10.8096
妪	-10.8096
挚	-10.8096
颠	-10.8097
曼	-10.8097
凤	-10.8097
侔	-10.8097
坟	-10.8097
钜	-10.8097
干戈	-10.8097
厩	-10.8097
勤劳	-10.8097
冻	-10.8097
孽	-10.8097
萌	-10.8097
婚	-10.8097
当此时	-10.8097
讫	-10.8097
罴	-10.8097
易服色	-10.8097
陨	-10.8098
百里奚	-10.8098
班	-10.8098
蹈	-10.8098
千亩	-10.8098
沐	-10.8098
兕	-10.8098
曹沫	-10.8098
违	-10.8098
穴	-10.8098
瞽叟	-10.8098
警	-10.8098
高渐离	-10.8098
匪	-10.8098
拊循	-10.8099
枕	-10.8099
内外相应	-10.8099
绍	-10.8099
名山大川	-10.8099
伍员	-10.8099
椁	-10.8099
奴婢	-10.8099
昴	-10.8099
漂	-10.8099
珪币	-10.8099
陆贾	-10.8099
司寇	-10.8099
杓	-10.8099
小馀七百	-10.81
▁卷一百一十	-10.81
冠带	-10.81
跸	-10.81
弋	-10.81
而下	-10.8101
太子伋	-10.8101
岁稼	-10.8101
渔阳	-10.8101
汾阴	-10.8101
六蓺	-10.8101
昆明	-10.8102
尊卑	-10.8102
四渎	-10.8102
淮夷	-10.8103
栾布	-10.8103
司直	-10.8103
锺离	-10.8103
度量	-10.8104
石乞	-10.8104
卫子夫	-10.8105
世家言	-10.8105
二千馀里	-10.8105
比干	-10.8105
张廷尉	-10.8106
君何不	-10.8107
戎王	-10.8107
宾服	-10.8107
曲逆	-10.8107
尊宠	-10.8107
周厉王	-10.8108
贫贱	-10.8108
有隙	-10.8108
郭解	-10.8108
亦已	-10.8109
吴王僚	-10.8109
重黎	-10.8109
景监	-10.811
不尽	-10.811
薄姬	-10.811
穷困	-10.811
吴楚反时	-10.8111
东井	-10.8111
灌将军	-10.8111
百穀	-10.8111
每朝	-10.8112
争宠	-10.8112
律令	-10.8112
肥义	-10.8112
平阳主	-10.8113
中行说	-10.8113
牛酒	-10.8113
人所	-10.8114
少康	-10.8114
季历	-10.8114
威振	-10.8115
臣意诊其脉	-10.8116
有瘳	-10.8116
楼船将军	-10.8116
破奴	-10.8118
各如其	-10.8118
愿足下	-10.8118
三十六	-10.8119
齐悼惠王子	-10.8119
国者	-10.812
昭帝	-10.8121
亭长	-10.8121
寿春	-10.8122
哀之	-10.8122
与秦战	-10.8123
谁能	-10.8123
三百里	-10.8124
决河	-10.8125
三尺	-10.8125
季父	-10.8127
白金	-10.8127
虞舜	-10.8129
悼子	-10.8131
三十七年	-10.8135
俱死	-10.8136
犯法	-10.8137
徙官	-10.8137
应之	-10.8137
帝尧	-10.8137
益衰	-10.8138
淫乐	-10.8138
侯王	-10.814
独不	-10.814
秦国	-10.8142
首恶	-10.8143
太师	-10.8143
没入	-10.8144
杀其君	-10.8144
悼王	-10.8144
小弱	-10.8145
彭王	-10.8146
之极也	-10.8147
乃下诏	-10.8148
田仁	-10.8149
臣窃为大王	-10.8149
为胶东王	-10.815
传舍	-10.8152
十数	-10.8153
李太后	-10.8154
不得见	-10.8155
陈蔡	-10.8156
云气	-10.8156
伐越	-10.8157
申侯	-10.8159
而远	-10.816
长久	-10.816
益甚	-10.8161
率师	-10.8161
宁成	-10.8162
是为文公	-10.8163
乃还	-10.8164
至彭城	-10.8166
献侯	-10.8167
五色	-10.8167
奉邑	-10.8168
救郑	-10.8169
土德	-10.8169
幸甚	-10.8171
好恶	-10.8177
盐铁	-10.8178
不德	-10.8181
聚兵	-10.8182
在於	-10.8183
客有	-10.8185
恐天下	-10.8186
徐行	-10.8187
厚遇之	-10.8188
数十年	-10.819
王恢	-10.819
三万	-10.8192
行赏	-10.8193
礼官	-10.8196
食饮	-10.8199
两主	-10.8201
北门	-10.8201
康子	-10.8203
武灵王	-10.8203
生男	-10.8204
罢归	-10.8204
若不	-10.8206
未定	-10.8206
上庸	-10.8211
开封	-10.8213
师败	-10.8218
二千里	-10.8219
乃作	-10.8219
渔者	-10.822
乐间	-10.822
戒之	-10.8221
降匈奴	-10.8223
射中	-10.8231
尽以	-10.8232
会诸侯於	-10.8233
而事	-10.8233
诛杀	-10.8233
▁楚	-10.8233
今以	-10.8239
小吏	-10.824
不轨	-10.8242
伐卫	-10.8242
成矣	-10.8243
相爱	-10.8246
少弟	-10.8247
齐桓	-10.8247
公子成	-10.8248
不可得也	-10.8248
尊位	-10.825
非所以	-10.825
足开	-10.8252
吏治	-10.8253
上许之	-10.8255
为卿	-10.8255
缗钱	-10.826
贤士	-10.8262
五藏	-10.8262
为寿	-10.8267
具告	-10.8268
好利	-10.8269
南郑	-10.8269
吾能	-10.8276
失期	-10.8276
不报	-10.8277
议之	-10.8278
齐宣王	-10.828
家属	-10.8281
为皇后	-10.8282
顷王	-10.8287
袭秦	-10.8295
战国	-10.8295
公宫	-10.8296
▁二十六年	-10.8297
而说之	-10.8299
▁汉兴	-10.8299
活之	-10.83
日食	-10.83
百年	-10.8302
为寇	-10.8304
齐王信	-10.8305
使人谓	-10.8309
出猎	-10.8311
遣使	-10.8311
载之	-10.8312
人道	-10.8313
乃许	-10.8315
▁项王	-10.8323
吾属	-10.8324
封之	-10.8324
为秦所	-10.8335
於薛	-10.8337
上方	-10.8339
为内史	-10.834
赵将	-10.8341
凡六	-10.8341
说汉王	-10.8341
地图	-10.8342
▁四月	-10.8346
报曰	-10.835
陆生曰	-10.8351
而弗	-10.836
其姊	-10.8361
后嗣	-10.8364
其祸	-10.8366
为大王	-10.8369
将其兵	-10.837
立其子	-10.8373
卫平	-10.8375
甚於	-10.8385
士之	-10.8388
将卒	-10.8389
天下之大	-10.839
宫门	-10.8396
乃夜	-10.8396
从死	-10.8399
於心	-10.84
当死	-10.8412
宋襄公	-10.8413
千万	-10.8413
而攻秦	-10.8414
秦复	-10.8415
乃徙	-10.8419
行道	-10.8421
乃罢	-10.8422
以为能	-10.8426
乃引兵	-10.8429
欲自	-10.8434
上幸	-10.8436
国有	-10.8438
之所在	-10.8441
▁子路	-10.8441
之险	-10.8445
母死	-10.8445
坐法失	-10.8448
相鲁	-10.8449
士也	-10.845
其口	-10.8451
可用	-10.8451
则民	-10.8453
必轻	-10.8453
有忧	-10.8454
少帝	-10.8454
太行	-10.8457
已杀	-10.8461
后一岁	-10.8463
汶	-10.8464
大泽	-10.8468
免於	-10.8469
高祖时	-10.847
公卿请	-10.8472
道德	-10.8473
上蔡	-10.8475
不具	-10.848
贫者	-10.8482
乐也	-10.8487
为诸侯王	-10.8491
与天下	-10.8497
何乃	-10.8498
不杀	-10.8499
以文	-10.8499
幸而	-10.8504
复召	-10.8506
卫灵公	-10.8507
即为	-10.8508
不敢言	-10.851
至则	-10.8511
氏女	-10.8511
如何	-10.8515
治道	-10.8524
又谓	-10.8524
将诛	-10.8526
上怒	-10.8532
必喜	-10.8533
幽公	-10.8534
人人自	-10.8543
乃告	-10.8543
臣以为	-10.855
子夫	-10.8557
周宣王	-10.856
三年卒	-10.8566
异母	-10.8567
贤大夫	-10.857
桀纣	-10.8572
之路	-10.8574
哭之	-10.8581
其后世	-10.8583
而有之	-10.8584
他人	-10.8587
以广	-10.8593
发卒	-10.8595
奇计	-10.8599
杀王	-10.8599
此一	-10.8601
往使	-10.8608
魏惠王	-10.8611
▁臣闻	-10.8615
周道	-10.8617
如法	-10.8617
之族	-10.8623
家人	-10.8639
丞相陈平	-10.8643
能成	-10.8643
攻梁	-10.8644
无怨	-10.8648
子夏	-10.8655
合而	-10.8656
谓其	-10.8663
所善	-10.8664
▁至	-10.8666
能得	-10.8667
长者也	-10.8668
晋军	-10.8675
所从来	-10.8676
非其	-10.8677
为伯	-10.8681
今将军	-10.8682
饮之	-10.8682
大恐	-10.8683
略定	-10.8685
事也	-10.8687
得意	-10.8689
无过	-10.8698
安知	-10.8704
请间	-10.8704
何罪	-10.871
以尊	-10.8712
其气	-10.8713
出西方	-10.8723
韩必	-10.8731
能知	-10.8732
齐相	-10.8738
楚太子	-10.874
三王之	-10.8741
先至	-10.8747
臣主	-10.8748
因立	-10.875
善待之	-10.8752
此必	-10.8754
庶人	-10.8761
暴彊	-10.8761
通使	-10.8764
去矣	-10.8764
东行	-10.8769
无名	-10.877
分其	-10.8774
主上	-10.8775
其二	-10.8779
楚人也	-10.8779
而弃之	-10.878
皆非	-10.8784
至关	-10.8785
归国	-10.8787
高祖崩	-10.8787
从约	-10.8788
尽得	-10.8788
秦地	-10.8791
天下共	-10.8796
败吴	-10.8797
之利也	-10.8797
死矣	-10.8799
引兵东	-10.8804
而况	-10.882
将行	-10.882
子帝	-10.8825
君长	-10.8826
其出	-10.8832
将兵居	-10.8836
欲入	-10.8841
数百里	-10.8843
己之	-10.8844
五曰	-10.8846
追至	-10.8856
以临	-10.8856
无行	-10.8867
要之	-10.8871
衣冠	-10.8874
之郡	-10.8876
臣者	-10.889
为郡县	-10.8892
立以为	-10.8892
百家	-10.8894
四曰	-10.8909
有内	-10.8926
天子以为	-10.8928
古者天子	-10.8933
必将	-10.8943
大道	-10.8945
所出	-10.8952
边境	-10.8953
为齐	-10.8959
则从	-10.896
吴王阖庐	-10.896
起於	-10.8964
已上	-10.897
民不	-10.8995
有急	-10.8996
之子也	-10.8996
与太子	-10.9001
毋令	-10.9005
用也	-10.9005
与汉王	-10.9005
为都尉	-10.9005
即有	-10.901
之神	-10.9013
其外	-10.9025
死生	-10.9034
闻也	-10.9034
复之	-10.9036
而重	-10.9057
右丞相	-10.906
亦可	-10.9062
十岁	-10.9067
行而	-10.9068
终身不	-10.907
事君	-10.9073
为质於	-10.908
无敢	-10.9082
为变	-10.9083
而弃	-10.9086
主也	-10.9102
鲁元	-10.9102
填	-10.9103
於此矣	-10.9103
间者	-10.9117
即死	-10.9127
善人	-10.9129
而加	-10.913
父死	-10.9131
亡地	-10.9135
乃见	-10.9139
子朝	-10.9141
在前	-10.9144
有人	-10.9146
之弊	-10.9148
赵绾	-10.915
阳气	-10.9151
牵	-10.9152
快	-10.9161
年二十	-10.9162
不敢入	-10.9166
於今	-10.9168
吾尝	-10.9175
为太子太傅	-10.9176
破楚	-10.9178
与匈奴	-10.918
举国	-10.9186
人言	-10.9189
有女	-10.9192
或不	-10.9202
忧之	-10.9205
不遣	-10.9205
六县	-10.9208
而不知	-10.9214
欲为	-10.9214
朕闻	-10.9216
恶能	-10.9218
大矣	-10.9223
二十人	-10.9224
返	-10.9225
废太子	-10.9225
固当	-10.9231
赵使	-10.9235
滕公	-10.9241
晋楚	-10.9241
海中	-10.9244
毕公	-10.9245
冯驩	-10.9249
一国	-10.925
以臣	-10.9254
言阳气	-10.926
大事	-10.9264
旦暮	-10.9265
是吾	-10.9266
棘	-10.927
厚遇	-10.9271
计也	-10.9275
以为将	-10.9275
弃市	-10.9278
胶	-10.9282
之至也	-10.9287
祟	-10.9289
僣	-10.9292
不顺	-10.9293
为燕	-10.9297
不能无	-10.9297
悦	-10.9298
罢去	-10.9298
豫	-10.9298
寸	-10.9299
传之	-10.9299
谓左右	-10.9302
太子立	-10.9303
缑氏	-10.9306
其党	-10.9306
女为	-10.9306
地形	-10.9307
其力	-10.9308
童	-10.9314
柏	-10.9316
莱	-10.9317
邻	-10.9318
叔向	-10.9319
征伐	-10.9319
真定	-10.932
裂	-10.9321
得无	-10.9322
蕃	-10.9322
▁孝文帝	-10.9323
武信君	-10.9324
反覆	-10.9326
劲	-10.9327
成安君	-10.9327
乳	-10.9327
南北	-10.9327
之难也	-10.9329
昧	-10.9329
侯之	-10.9329
赵孝成王	-10.9329
帷	-10.933
终不得	-10.933
濮	-10.9331
黔中	-10.9332
彰	-10.9334
臣青翟	-10.9335
陉	-10.9335
孔子卒	-10.9335
蓍	-10.9336
惠文王	-10.9337
拂	-10.9337
难以	-10.9337
董	-10.9339
蛮	-10.934
吉凶	-10.934
溃	-10.934
张黡	-10.934
武安君白起	-10.9341
爵邑	-10.9341
稍稍	-10.9342
络	-10.9342
瞋目	-10.9342
罕	-10.9342
三十里	-10.9342
瑕	-10.9342
仅	-10.9342
桐	-10.9343
紫	-10.9343
卓氏	-10.9343
轩	-10.9343
囿	-10.9344
雌雄	-10.9344
沟	-10.9344
殄	-10.9344
为内应	-10.9344
丛	-10.9344
樊於期	-10.9345
长八尺	-10.9345
翠	-10.9345
般	-10.9345
稼	-10.9345
犀	-10.9345
垓下	-10.9345
响应	-10.9345
孔悝	-10.9345
摧	-10.9345
伏波	-10.9345
叔牙	-10.9345
颈	-10.9345
款	-10.9345
徂	-10.9345
蕢聩	-10.9345
祈	-10.9346
敞	-10.9346
写	-10.9346
粗	-10.9346
郑当时	-10.9346
吁	-10.9346
规矩	-10.9346
腐	-10.9346
函谷	-10.9346
偕	-10.9346
苑囿	-10.9346
燎	-10.9346
其子曰	-10.9346
诰	-10.9346
带剑	-10.9346
鬲	-10.9346
魁	-10.9346
骜	-10.9346
播	-10.9346
十有馀年	-10.9346
滨	-10.9346
砥	-10.9346
譬若	-10.9347
浞野侯	-10.9347
破军杀将	-10.9347
液	-10.9347
速	-10.9347
镇抚	-10.9347
旌	-10.9347
狩	-10.9347
谄	-10.9347
夸	-10.9347
隅	-10.9347
吕媭	-10.9347
滥	-10.9347
超	-10.9347
公孙敖	-10.9347
齧桑	-10.9347
伟	-10.9347
苍梧	-10.9348
坠	-10.9348
司马季主	-10.9348
除前所食	-10.9348
廪	-10.9348
改正朔	-10.9348
浴	-10.9348
从代来	-10.9348
缩	-10.9348
叛逆	-10.9348
汭	-10.9348
首仰足肣	-10.9348
槐里	-10.9348
绝河津	-10.9348
绥	-10.9348
釜	-10.9348
一都会也	-10.9348
齐桓公始霸	-10.9348
瓦解	-10.9348
巿	-10.9348
靳尚	-10.9349
夏后氏	-10.9349
优旃	-10.9349
以千数	-10.9349
恚	-10.9349
小馀一百	-10.9349
稼穑	-10.9349
盈	-10.9349
▁问臣意	-10.9349
蓝田	-10.9349
郑安平	-10.935
旬	-10.935
苏厉	-10.935
原宪	-10.935
群儒	-10.935
莫大焉	-10.935
小馀六百	-10.935
雁	-10.9351
大破楚军	-10.9351
冯亭	-10.9351
九江王布	-10.9351
小馀三百	-10.9351
皮氏	-10.9351
辽西	-10.9351
长乐宫	-10.9351
鉏	-10.9351
程不识	-10.9352
求财物	-10.9352
周幽王	-10.9352
立为汉王	-10.9352
公孙杵臼	-10.9353
干戚	-10.9353
曲沃武公	-10.9353
尉他	-10.9353
奎	-10.9353
与神通	-10.9353
灵丘	-10.9353
狐疑	-10.9353
四十馀万	-10.9353
身毒国	-10.9354
襄仲	-10.9354
自此始	-10.9354
若夫	-10.9354
儿宽	-10.9354
吴王濞	-10.9354
卻敌	-10.9354
臧儿	-10.9354
华阳夫人	-10.9355
带甲	-10.9355
缴	-10.9355
赵夙	-10.9356
颜渊	-10.9357
入武关	-10.9357
营丘	-10.9357
襄陵	-10.9357
扰乱	-10.9357
空虚	-10.9358
赂遗	-10.9359
东莱	-10.9359
任王后	-10.936
伍举	-10.936
为齐相	-10.936
迁为御史大夫	-10.936
之罘	-10.936
太公望	-10.9362
燕太子丹	-10.9362
移徙	-10.9362
贤不肖	-10.9363
许由	-10.9363
共工	-10.9363
太子蒯聩	-10.9363
怪物	-10.9363
赵惠文王	-10.9363
二百里	-10.9364
耕田	-10.9364
甘心	-10.9364
嬖臣	-10.9364
人情	-10.9364
亦去	-10.9367
乐羊	-10.9368
不逊	-10.9369
期年	-10.9369
定魏地	-10.9369
异姓	-10.937
并海上	-10.9371
帝位	-10.9372
邻国	-10.9372
山海	-10.9372
不必	-10.9372
江河	-10.9373
渭南	-10.9373
阳翟	-10.9373
霸陵	-10.9374
齐伐鲁	-10.9375
累世	-10.9376
郑伯	-10.9376
富厚	-10.9376
栾大	-10.9377
好音	-10.9377
戴公	-10.9378
人或说	-10.9378
都关中	-10.9379
孙武	-10.9379
乡邑	-10.938
不悦	-10.938
杜周	-10.938
屈平	-10.938
倍约	-10.9381
致之	-10.9383
材能	-10.9383
大赦天下	-10.9384
田叔	-10.9384
之会	-10.9385
古文	-10.9386
是故先王	-10.9387
七星	-10.9387
同母	-10.9387
惠帝	-10.9388
上林中	-10.9388
殷富	-10.939
不佞	-10.9391
四十三年	-10.9391
脉法曰	-10.9392
汝南	-10.9393
乃阴	-10.9394
尽复	-10.9395
乃命	-10.9395
七岁	-10.9395
久留	-10.9396
为太尉	-10.9396
游学	-10.9396
八神	-10.9397
近世	-10.9398
为大夫	-10.94
得志	-10.94
伐蜀	-10.94
臣下	-10.9401
其土	-10.9402
荆地	-10.9403
务在	-10.9403
群臣议	-10.9404
故能	-10.9404
侵夺	-10.9405
异物	-10.9405
为祟	-10.9406
得毋	-10.9408
故事	-10.9409
事不成	-10.9409
田文	-10.9409
晋悼公	-10.9412
闻陈王	-10.9413
大抵	-10.9413
步兵	-10.9415
畏诛	-10.9416
为小吏	-10.9419
棘门	-10.9419
人人	-10.9419
欲为乱	-10.942
▁三十七年	-10.9423
敢问	-10.9423
必危	-10.9425
争彊	-10.9427
三百人	-10.9428
留意	-10.943
刑名	-10.9432
疏远	-10.9433
不辞	-10.9434
数使使	-10.9435
驰道	-10.9436
称疾不	-10.9436
七年卒	-10.9437
公子卬	-10.9438
皇子	-10.9438
伐宛	-10.9438
千斤	-10.9439
为郎中令	-10.9439
薄氏	-10.944
▁三十一年	-10.9441
田间	-10.9442
牛羊	-10.9443
约从	-10.9444
更命	-10.9445
于天	-10.9446
真人	-10.945
子房	-10.945
比周	-10.9451
有大功	-10.9452
入则	-10.9454
秦始皇帝	-10.9454
西河之外	-10.9456
伏生	-10.946
之术也	-10.946
遣使者	-10.946
待诏	-10.9461
之纪	-10.9461
不事	-10.9462
赵尧	-10.9464
终日	-10.9465
泄公	-10.9466
知我	-10.9469
蔡女	-10.9471
死后	-10.9471
连兵	-10.9472
亦欲	-10.9474
异之	-10.9474
▁自是之后	-10.9475
先生之	-10.9476
稍迁至	-10.9476
西夷	-10.9477
出游	-10.9482
桓王	-10.9488
男子	-10.9491
故谓之	-10.9498
老母	-10.9499
共攻	-10.95
未尝有	-10.95
▁定公	-10.9501
此三者	-10.9504
宗庙社稷	-10.9506
自立为王	-10.9506
受封	-10.9511
郊见	-10.9512
诸客	-10.9513
▁文侯	-10.9514
不请	-10.9515
未成	-10.9516
发书	-10.9518
战不胜	-10.9519
其方	-10.9521
齐桓公卒	-10.9523
遂东	-10.9523
封邑	-10.9524
益彊	-10.9527
王诸吕	-10.9529
不厌	-10.9531
万国	-10.9531
德不	-10.9538
礼节	-10.9539
良夫	-10.954
无所得	-10.9541
听政	-10.9542
荆王	-10.9551
所言者	-10.9551
方城	-10.9551
恶来	-10.9552
从高帝	-10.9554
四国	-10.9558
欲自杀	-10.9564
以伐	-10.9564
取容	-10.9566
而诛	-10.9567
益多	-10.9572
吕公	-10.9572
用其计	-10.9573
黥布反	-10.9573
其计	-10.9574
▁哀公	-10.9575
▁十一月	-10.9575
近者	-10.9577
属国	-10.958
文法	-10.9581
非邪	-10.9581
割齐	-10.9585
将而攻	-10.9587
居处	-10.9588
同时	-10.9591
而忘	-10.9591
持兵	-10.9591
建立	-10.9592
弗与	-10.9594
备矣	-10.9594
已去	-10.9596
征之	-10.9598
秦师	-10.9599
小馀二百	-10.9603
於梁	-10.9604
以行	-10.9607
败韩	-10.9611
者不来	-10.9612
▁项籍	-10.9613
胶东王	-10.9613
告归	-10.9615
治天下	-10.9615
与大臣	-10.9617
所由	-10.9617
於内	-10.9619
以重	-10.9619
名山川	-10.962
留之	-10.9621
弗知	-10.9621
无故	-10.9623
自此	-10.9624
雍王	-10.9625
而汉	-10.9626
此五	-10.9628
生也	-10.9629
斩其	-10.9629
相属	-10.9636
王季	-10.9644
名姓	-10.9644
不害	-10.9648
从沛公	-10.9649
奉法	-10.965
使将	-10.9652
不道	-10.9652
礼也	-10.9656
被甲	-10.9656
我者	-10.9659
其本	-10.966
始於	-10.966
宋地	-10.9667
而单于	-10.9667
其尸	-10.9668
郑国	-10.967
韩广	-10.9673
不可胜	-10.9675
太王	-10.9675
为解	-10.9675
代地	-10.9677
不祀	-10.9678
得罪於	-10.968
以天下为	-10.9685
▁齐王	-10.9688
四年卒	-10.9691
遂西	-10.9692
封君	-10.9693
无采	-10.9695
母家	-10.9696
王许之	-10.9697
有病	-10.9698
阴事	-10.9699
卿曰	-10.97
国乱	-10.9705
称臣	-10.9706
大说之	-10.9707
之官	-10.9709
兵事	-10.9713
三千	-10.9714
北斗	-10.9718
自古	-10.9726
救宋	-10.9729
何以得	-10.9731
而走	-10.9737
争立	-10.9742
乃遗	-10.975
而身	-10.9751
加之	-10.9754
往者	-10.9758
绛侯勃	-10.9759
尚何	-10.9761
齐必	-10.9761
日中	-10.9762
各有	-10.9765
危之	-10.9769
以御史大夫	-10.9772
而迎	-10.9772
以往	-10.9772
谁可	-10.9776
以国	-10.978
库	-10.9781
伐纣	-10.9785
西取	-10.9788
至平城	-10.9791
所爱	-10.9798
滇王	-10.9798
以成	-10.9802
力不能	-10.9807
寡人之	-10.981
王召	-10.9813
良将	-10.9813
王先生	-10.9814
人心	-10.982
歌者	-10.9822
成王少	-10.9828
▁文帝	-10.9829
成君	-10.9835
在赵	-10.9836
之师	-10.9844
卜者	-10.9845
彊秦之	-10.9854
不孝	-10.9855
之战	-10.9859
一郡	-10.9863
出代	-10.9867
不察	-10.9868
国亡	-10.987
言语	-10.9872
乡者	-10.9876
同日	-10.9876
其术	-10.9876
而崩	-10.9879
於代	-10.9879
党与	-10.9881
视其	-10.9885
谋臣	-10.9888
扁鹊曰	-10.9893
之食	-10.9895
相应	-10.9897
降秦	-10.9898
今有	-10.99
之北	-10.9901
安乐	-10.9905
买臣	-10.9906
取我	-10.9906
之急	-10.9908
为周	-10.9913
为郎中	-10.9915
为博士	-10.992
欲发兵	-10.9923
绝齐	-10.9925
齐楚	-10.9925
卒然	-10.9927
既死	-10.9931
水上	-10.9933
汉家	-10.9952
名将	-10.9957
欲攻	-10.9963
十一年卒	-10.9969
德厚	-10.9981
六人	-10.9983
上将军	-10.9985
贤君	-10.9986
適齐	-10.9987
上乃	-11.0008
不直	-11.001
不立	-11.0014
阳武	-11.0016
明王	-11.0018
或说	-11.0019
何忧	-11.0021
业已	-11.0021
与寡人	-11.0022
可伐	-11.0023
万户侯	-11.0023
庄公卒	-11.0024
由此怨	-11.0024
皆得	-11.0026
故礼	-11.0031
不能去	-11.0032
欲内	-11.0039
则齐	-11.0046
不意	-11.0047
相去	-11.0056
乎哉	-11.0061
匈奴大入	-11.0063
▁右	-11.0074
而魏	-11.0074
匈奴亦	-11.0078
不正	-11.0083
诸侯咸	-11.0084
在后	-11.0085
鼓之	-11.0086
乃从	-11.0087
无能	-11.0089
次子	-11.0091
以武	-11.0092
当有	-11.0096
之分	-11.0103
楚国之	-11.0105
殷纣	-11.0108
遂取	-11.0109
伐取	-11.0114
楚使者	-11.0118
▁景公	-11.0121
亦皆	-11.0124
汉亦	-11.0126
不宁	-11.0128
已出	-11.0132
我何	-11.0133
明也	-11.0134
御之	-11.0136
奔楚	-11.0137
道也	-11.0143
未也	-11.0149
之军	-11.015
于海	-11.0152
其冬	-11.0156
国小	-11.0158
二十四	-11.0163
天下皆	-11.0178
之敝	-11.0183
不息	-11.0184
动摇	-11.0187
复请	-11.0191
女不	-11.0198
之语	-11.0198
为官	-11.0206
不伐	-11.0213
伐周	-11.0215
其位	-11.0217
有言	-11.0227
出焉	-11.023
为言	-11.023
有淫	-11.0237
亦以	-11.0239
比至	-11.0242
政教	-11.0243
重於	-11.0246
事已	-11.0246
以故得	-11.0248
示天下	-11.025
告齐	-11.0254
子男	-11.0256
败於	-11.0257
不加	-11.027
来奔	-11.0271
降楚	-11.0274
不重	-11.0275
秦韩	-11.0277
汤曰	-11.0277
安阳	-11.0279
不发	-11.0281
复生	-11.0281
毋伤	-11.0283
不终	-11.0286
自如	-11.0291
右北平	-11.0298
有气	-11.0303
得入	-11.0306
至陈	-11.031
兄子	-11.0313
击魏	-11.0313
老臣	-11.0323
阳陵	-11.0324
以养	-11.0325
子将	-11.033
伐鲁	-11.0333
配	-11.0334
先入	-11.0336
斩首虏	-11.034
诛暴	-11.0347
任用	-11.0349
生一	-11.035
不经	-11.0356
各一	-11.0362
麾下	-11.0363
粮食	-11.0367
为夫人	-11.038
之权	-11.0381
异於	-11.0383
见贵人吉	-11.0393
进谏	-11.0393
此两	-11.0396
有五	-11.0402
即不	-11.0403
从击	-11.0405
於是楚	-11.0408
功名	-11.0412
定王	-11.0418
年四十	-11.0422
高世	-11.0424
骑士	-11.0426
请为	-11.0437
亡卒	-11.044
而免	-11.0442
事中	-11.0443
高祖自	-11.0445
为用	-11.0449
为中尉	-11.047
十二岁	-11.047
有常	-11.0471
上以	-11.0475
楚也	-11.0476
千岁	-11.0481
而不用	-11.0484
平子	-11.0492
如齐	-11.0493
亡匿	-11.0493
遂发	-11.0495
而更	-11.0498
之门	-11.0498
败楚	-11.0499
江淮之间	-11.05
安宁	-11.0507
遂死	-11.051
以备	-11.051
天下之士	-11.0518
不避	-11.0519
不起	-11.0521
得齐	-11.0529
长安君	-11.053
其前	-11.0536
兵未	-11.0538
之序	-11.0539
之郊	-11.0545
前有	-11.0546
知者	-11.0547
赵亦	-11.0548
居于	-11.0554
於后世	-11.0555
故齐	-11.0556
秦楚	-11.0559
釐	-11.0562
后五年	-11.0562
商臣	-11.0564
观津	-11.057
之士也	-11.0571
允	-11.0572
何以为	-11.0573
概	-11.0576
而心	-11.0576
之西	-11.0598
要以	-11.0606
汉王之	-11.0607
乃有	-11.0607
居代	-11.0611
得见	-11.0615
在齐	-11.0625
以义	-11.0629
虏其将	-11.063
文辞	-11.063
其法	-11.0632
杵臼	-11.0634
皆去	-11.0637
客之	-11.0643
民疾疫	-11.0643
爰	-11.0649
贩	-11.0665
函谷关	-11.0667
莫之	-11.067
令天下	-11.067
勒	-11.0674
至者	-11.0679
七百	-11.0681
立为赵王	-11.0688
难之	-11.069
所将卒	-11.0692
不亲	-11.0693
彊大	-11.0695
秦所	-11.0699
恭敬	-11.0701
且以	-11.0702
太上皇	-11.0711
复用	-11.0714
乃入	-11.0714
以便	-11.0714
佞	-11.0717
广陵王	-11.0719
齐悼惠王	-11.072
嬖	-11.072
秦孝公	-11.0722
畔逆	-11.0725
谮	-11.0725
税	-11.0727
斤	-11.0728
嫂	-11.0729
芮	-11.0729
二十日	-11.0729
闚	-11.073
於边	-11.073
爵禄	-11.0731
广地	-11.0735
即以	-11.0739
▁宣公	-11.074
随会	-11.0743
东国	-11.0743
轲	-11.0744
成名	-11.0744
窋	-11.0745
二相	-11.0745
舞阳	-11.0745
宝鼎	-11.0747
临邛	-11.0748
广川	-11.075
卦	-11.075
考烈王	-11.075
徐州	-11.0753
大体	-11.0755
乱也	-11.0755
谬	-11.0756
鲍牧	-11.0759
闵	-11.076
无得	-11.076
聪	-11.076
卓王孙	-11.076
廉颇将	-11.076
愁	-11.0761
弄	-11.0762
制诏御史	-11.0762
夭	-11.0762
芒卯	-11.0764
伯阳	-11.0764
而食	-11.0764
如意	-11.0765
抗	-11.0765
饟	-11.0765
茎	-11.0765
敏	-11.0766
慈	-11.0766
磬	-11.0766
纲	-11.0767
即欲	-11.0767
蹇叔	-11.0767
优	-11.0768
卮酒	-11.0768
卮	-11.0769
副	-11.0769
摄提格	-11.0769
再拜稽首	-11.077
揆	-11.077
掠	-11.077
淖齿	-11.0771
恒	-11.0771
蹇	-11.0771
悼襄王	-11.0771
桂	-11.0771
驽	-11.0771
爵一级	-11.0772
浑	-11.0772
饱	-11.0772
扈	-11.0772
枯	-11.0772
究	-11.0772
骨髓	-11.0772
润	-11.0772
小馀五百	-11.0772
毂	-11.0772
袒	-11.0772
蹑	-11.0772
自立为齐王	-11.0772
基	-11.0772
涌	-11.0773
椎	-11.0773
剖	-11.0773
骋	-11.0773
墟	-11.0773
亿	-11.0773
弓高侯	-11.0773
规	-11.0773
先祖	-11.0773
豕	-11.0773
涤	-11.0774
南面称孤	-11.0774
较	-11.0774
隄	-11.0774
劓	-11.0774
儋	-11.0774
污	-11.0774
躯	-11.0774
棠	-11.0774
离骚	-11.0774
态	-11.0774
供	-11.0774
庄贾	-11.0774
姚	-11.0774
奏未央宫	-11.0774
王子比干	-11.0774
忌讳	-11.0774
啗	-11.0774
镇	-11.0774
馈	-11.0774
唇	-11.0774
谐	-11.0774
媚	-11.0774
挫	-11.0774
楼兰	-11.0774
贾谊	-11.0774
牡	-11.0774
秽	-11.0775
偷	-11.0775
左贤王	-11.0775
逝	-11.0775
冶	-11.0775
平津侯	-11.0775
欤	-11.0775
针	-11.0775
骥	-11.0775
篡	-11.0775
丹沙	-11.0775
潘	-11.0775
惨	-11.0775
嬗	-11.0775
蚕食	-11.0775
絮	-11.0775
俯仰	-11.0775
洗沐	-11.0775
弧	-11.0776
厚币	-11.0776
桂林	-11.0776
蔑	-11.0776
伊陟	-11.0776
》	-11.0776
孰计之	-11.0776
潜	-11.0776
庶孽	-11.0776
枣	-11.0776
鄣	-11.0776
揜	-11.0776
衣上黄	-11.0776
遫	-11.0776
餔	-11.0776
甬道	-11.0776
公孙支	-11.0776
臧荼	-11.0776
录	-11.0776
欧	-11.0776
盂	-11.0776
孟轲	-11.0776
溲	-11.0777
坐酎金失侯	-11.0777
屠岸贾	-11.0777
洒	-11.0777
庞	-11.0777
蒙毅	-11.0777
习兵	-11.0777
谱	-11.0777
潏	-11.0777
窦姬	-11.0777
年九十馀	-11.0777
羡门	-11.0777
公室卑	-11.0777
国惠子	-11.0777
卑湿	-11.0777
游说诸侯	-11.0777
訾	-11.0777
餽	-11.0777
堙	-11.0777
若横吉安	-11.0777
身节折	-11.0777
尉佗	-11.0777
▁商横	-11.0777
以万数	-11.0777
者过半	-11.0777
樽	-11.0777
	-11.0777
寐	-11.0777
年五十	-11.0778
单阏	-11.0778
填抚	-11.0778
陋	-11.0778
数十里	-11.0778
凤皇	-11.0778
少孔子四十	-11.0778
呜呼	-11.0778
谿谷	-11.0778
少孔子三十	-11.0778
戮力	-11.0778
晦	-11.0778
郦食其	-11.0778
谴	-11.0778
公孙诡	-11.0778
事皆决於	-11.0778
仓廪	-11.0778
芝	-11.0778
邳郑	-11.0778
叔孙氏	-11.0779
膺	-11.0779
剧辛	-11.0779
彊弩	-11.0779
眩	-11.0779
季桓子	-11.0779
负黍	-11.0779
整齐	-11.0779
不可失也	-11.0779
季康子	-11.0779
好读书	-11.078
以便宜	-11.078
赵王如意	-11.078
市井	-11.078
夷三族	-11.078
鲁元公主	-11.0781
报雠	-11.0781
恒山	-11.0781
阜	-11.0782
靖侯	-11.0782
冀遇	-11.0782
稽首	-11.0782
黄锺	-11.0782
遁走	-11.0782
鄢陵	-11.0782
淮南厉王	-11.0782
路中大夫	-11.0782
八人	-11.0783
车裂	-11.0783
城濮	-11.0783
楚王戊	-11.0783
適戍	-11.0783
张骞	-11.0784
前殿	-11.0784
燕王卢绾	-11.0784
闭关	-11.0785
懿侯	-11.0785
当其时	-11.0785
广武君	-11.0785
英布	-11.0785
熊绎	-11.0785
善遇之	-11.0785
弘羊	-11.0785
弓矢	-11.0786
郊祀	-11.0786
洛邑	-11.0787
韩宣子	-11.0787
五千户	-11.0787
高昭子	-11.0787
奔莒	-11.0787
冉求	-11.0787
颇采	-11.0787
汶山	-11.0787
帝颛顼	-11.0787
荒服	-11.0788
思虑	-11.0788
厚赂	-11.0788
孔甲	-11.0789
者数矣	-11.0789
仲由	-11.0789
在焉	-11.0789
张唐	-11.0789
句注	-11.079
唐叔	-11.079
百工	-11.079
避席	-11.079
婴儿	-11.079
兰陵	-11.079
用驹	-11.079
公子纠	-11.079
郤等	-11.0791
水草	-11.0792
祠上帝	-11.0792
贫困	-11.0793
河东守	-11.0793
籍福	-11.0793
休息	-11.0793
雍丘	-11.0793
番君	-11.0793
高密	-11.0794
敝邑	-11.0795
林胡	-11.0795
南皮	-11.0796
武王伐纣	-11.0796
客卿	-11.0796
丁未	-11.0798
爰及	-11.0798
大骆	-11.0798
魏冉	-11.0799
四百里	-11.0799
今见	-11.0799
馀祭	-11.0799
解扬	-11.0799
关市	-11.0799
鲁隐公	-11.0801
游戏	-11.0802
羊胜	-11.0802
一切	-11.0803
先驱	-11.0803
襄城	-11.0803
意者	-11.0803
蒙氏	-11.0803
亡在外	-11.0803
为上客	-11.0804
云中守	-11.0804
勇力	-11.0804
安侯	-11.0805
奉宗庙	-11.0805
之状	-11.0805
厚葬	-11.0806
就舍	-11.0806
之教	-11.0807
得宝鼎	-11.0807
河伯	-11.0808
山戎	-11.0809
罢兵归	-11.081
殿上	-11.0811
献遗	-11.0811
定矣	-11.0811
西面	-11.0812
变色	-11.0812
而未	-11.0812
阙下	-11.0813
宗正	-11.0813
一统	-11.0813
器物	-11.0813
於是汉	-11.0814
出雁门	-11.0814
未集	-11.0814
长平侯	-11.0814
最亲	-11.0815
三川守	-11.0815
壶遂	-11.0815
非忠臣	-11.0818
亲郊	-11.0819
乃肯	-11.082
非特	-11.082
屏人	-11.082
曷为	-11.0821
痤	-11.0821
昭襄王	-11.0821
赋税	-11.0823
▁昭阳	-11.0823
番吾	-11.0823
夫妇	-11.0823
轻车将军	-11.0823
其官	-11.0825
道不通	-11.0825
大国之	-11.0826
百物	-11.0826
论次	-11.0826
从骠骑将军	-11.0827
之愿也	-11.0828
张胜	-11.0828
侵伐	-11.0829
里疾	-11.0829
美女	-11.0829
大长公主	-11.0829
吴师	-11.083
赵王敖	-11.083
日月所	-11.0831
辞让	-11.0831
鲁哀公	-11.0831
缪侯	-11.0831
心感	-11.0831
泗上	-11.0832
大惭	-11.0832
具言	-11.0832
甚厚	-11.0833
禁方	-11.0833
故不	-11.0833
熊渠	-11.0836
归楚	-11.0836
陈泽	-11.084
楚惠王灭	-11.0841
王贲	-11.0841
百世	-11.0841
监止	-11.0842
匈奴入	-11.0842
仪法	-11.0843
闻言不	-11.0843
今陛下能	-11.0843
孝侯	-11.0843
汉五年	-11.0845
邪气	-11.0846
▁四十二年	-11.0846
获罪	-11.0846
邓公	-11.0846
罢朝	-11.0846
乃引兵归	-11.0847
为常山王	-11.0848
公室	-11.0848
迁徙	-11.0849
见梦	-11.0849
共和	-11.085
公子曰	-11.0853
丑父	-11.0853
附焉	-11.0854
郡中	-11.0855
百二十日	-11.0856
宰相	-11.0857
臣恐	-11.0857
浿水	-11.0858
西界	-11.0858
赵王遂	-11.0859
故云	-11.086
▁颜	-11.0861
亲附	-11.0861
劳军	-11.0861
守节	-11.0862
臣无	-11.0864
富者	-11.0864
行仁义	-11.0864
苏君	-11.0864
而多	-11.0866
宗周	-11.0867
广武	-11.0867
数十人	-11.0868
岁时	-11.0868
召陵	-11.0869
相距	-11.0869
五十年	-11.087
大旱	-11.087
大饥	-11.0871
元公	-11.0872
宠臣	-11.0872
孝公卒	-11.0873
悉发	-11.0873
皆呼万岁	-11.0873
蚤卒	-11.0876
侯伯	-11.0876
两周	-11.0877
所将卒斩	-11.0877
从容言	-11.0877
重罪	-11.0879
士卒多	-11.0881
▁三十五年	-11.0883
子熊	-11.0884
固陵	-11.0884
秦献公	-11.0885
地者	-11.0885
数谏	-11.0887
不恤	-11.0888
冯驩曰	-11.0888
云阳	-11.0889
尽灭	-11.0889
善之	-11.0892
吴王闻之	-11.0893
宫车	-11.0893
公卿大夫	-11.0894
成公卒	-11.0894
上疏	-11.0898
文章	-11.0899
沛令	-11.0899
晋文公卒	-11.0899
相聚	-11.09
为令尹	-11.0903
善也	-11.0904
北至於	-11.0906
卿大夫	-11.0907
见人	-11.0907
为多	-11.0907
之日久矣	-11.0908
华山	-11.091
诸官	-11.0911
蜀汉	-11.0912
骑射	-11.0912
非吾	-11.0913
九侯	-11.0913
赵孤	-11.0914
君王后	-11.0915
欲废太子	-11.0916
最大	-11.0916
阴德	-11.0917
臣愚	-11.0917
汉王亦	-11.0919
楚之彊	-11.092
作春秋	-11.0921
遂使	-11.0923
入之	-11.0924
功也	-11.0927
▁乐者	-11.0927
合战	-11.0928
辎车	-11.093
大吕	-11.0931
国阴事	-11.0933
而射之	-11.0933
城坏	-11.0934
文书	-11.0934
王又	-11.0935
未易	-11.0935
相印	-11.0935
手足	-11.0936
▁三十年	-11.0936
晋伐郑	-11.0937
军破	-11.094
臣之计	-11.0941
所有	-11.0942
惧焉	-11.0943
三县	-11.0945
子羽	-11.0946
争利	-11.0946
战士	-11.0946
少师	-11.0948
欲伐齐	-11.0948
利则	-11.095
其臣	-11.0952
长沙王	-11.0952
欲去	-11.0952
盖公	-11.0954
帝纣	-11.0954
秦破	-11.0955
不仁	-11.0956
请和	-11.0957
后人	-11.0958
好德	-11.0958
无足	-11.096
计画	-11.0961
合於秦	-11.0961
救鲁	-11.0962
太子迁	-11.0963
之资也	-11.0963
召臣意	-11.0964
王臧	-11.0965
弱国	-11.0967
必死	-11.0967
外家	-11.0967
野人	-11.0968
辞去	-11.0968
请罪	-11.0971
厌之	-11.0973
西入秦	-11.0975
方略	-11.0976
百六十	-11.0976
乃益	-11.0979
勃海	-11.0979
太牢具	-11.098
伏诛	-11.0981
当诛	-11.0982
厉王母	-11.0982
子允	-11.0983
布军	-11.0984
帝命	-11.0986
盟而去	-11.0988
可见	-11.0989
外孙	-11.0991
君子曰	-11.0995
齐王广	-11.0995
休矣	-11.0997
之节	-11.0999
愿请	-11.1004
祷祠	-11.1008
周德	-11.101
作难	-11.1012
阳周	-11.1012
使人问	-11.1013
异时	-11.1013
三十万	-11.1017
出亡	-11.1018
贫人	-11.1018
前将军	-11.102
给事	-11.1022
好礼	-11.1023
臣恐天下	-11.1023
上变	-11.1024
父子俱	-11.1024
城南	-11.1025
所至	-11.1027
臣也	-11.103
水中	-11.1031
困辱	-11.1031
以列侯	-11.1033
少主	-11.1033
於当世	-11.1035
天子亲	-11.1036
东城	-11.1036
出则	-11.1037
复收	-11.1042
侯立	-11.1043
於野	-11.1043
为中郎将	-11.1045
五德	-11.1046
游诸侯	-11.1046
伯立	-11.1047
北逐	-11.105
不谨	-11.1051
从入关	-11.1053
其傅	-11.1054
十万户	-11.1057
破军	-11.1061
及即位	-11.1061
六年卒	-11.1063
都彭城	-11.1064
自以	-11.1065
为王者	-11.1066
靡不	-11.1067
秦患	-11.1067
而燕	-11.1068
使於齐	-11.107
何益	-11.1073
太后怒	-11.1086
之败	-11.1088
成事	-11.1089
莫及	-11.1097
淮阳王	-11.1098
公等	-11.1104
书传	-11.1107
代相	-11.1108
▁成公	-11.111
物有	-11.1111
尝从	-11.1119
诗人	-11.1119
见上	-11.1122
诸侯或	-11.1126
未尝见	-11.1126
将兵救	-11.113
可得闻	-11.1132
以攻	-11.1132
置相	-11.1135
君命	-11.1137
乱天下	-11.1139
诎於	-11.1139
自喜	-11.114
平定	-11.1142
或为	-11.1145
不顾其	-11.1145
深矣	-11.1146
上书告	-11.1149
之学	-11.1153
乃引	-11.1154
道家	-11.1165
车中	-11.1165
而守之	-11.117
欲诛之	-11.1172
周人	-11.1174
所不	-11.118
收齐	-11.1182
景帝时	-11.1188
於是始皇	-11.1188
不相见	-11.119
秦始皇	-11.1194
其势不	-11.1201
官至	-11.1206
地千里	-11.1206
兵弱	-11.1207
其私	-11.1207
攻秦军	-11.1211
仰天	-11.1213
袭杀	-11.1216
汉方	-11.1219
出走	-11.122
不事秦	-11.1222
守相	-11.1226
王关中	-11.123
▁武公	-11.1232
▁燕	-11.1233
乙卯	-11.1234
当之	-11.1235
冬至	-11.124
为三公	-11.1244
为请	-11.125
生平	-11.1252
来伐	-11.1254
同俗	-11.1254
不亡	-11.1255
义不	-11.1255
王侯	-11.1257
同车	-11.1259
以知	-11.126
为舍人	-11.1262
善哉	-11.1262
二者	-11.1265
死士	-11.1267
而出之	-11.127
其西	-11.1273
从攻	-11.1274
皆以为	-11.128
▁悼公	-11.1283
悉召	-11.1291
降下	-11.1292
燕国	-11.1293
从政	-11.1294
先后	-11.1295
已服	-11.1299
十有二	-11.1301
而守	-11.1302
魏公子	-11.1303
死于	-11.1306
山中	-11.1308
然独	-11.1308
常侍	-11.1308
使者至	-11.1308
而泣	-11.131
魏丞相	-11.1311
还攻	-11.1314
长女	-11.1314
四十二年	-11.1317
何异	-11.1324
▁中	-11.1326
愿闻	-11.1327
毋为	-11.133
目之	-11.1331
为公子	-11.1339
宣公卒	-11.1342
九合	-11.1344
未有所	-11.1348
义也	-11.1351
汉中地	-11.1352
▁三月	-11.1355
杀其将	-11.136
然不能	-11.136
已诛	-11.1367
竟以	-11.1373
且又	-11.1375
何为者	-11.1384
太初元年	-11.1384
▁惠公	-11.1385
大水	-11.1387
以为汉	-11.1395
击破之	-11.1405
并杀	-11.1405
数十百	-11.1409
浮江	-11.1411
夫子之	-11.1411
不生	-11.1412
▁成王	-11.1413
王必欲	-11.1417
复位	-11.1418
天下所	-11.1418
而问之	-11.1419
忘之	-11.142
以教	-11.1422
不得意	-11.1424
殷王	-11.1425
陶朱	-11.1431
何待	-11.1433
予我	-11.1437
必败	-11.1438
之灵	-11.1443
不甚	-11.1444
女则	-11.1451
不得食	-11.1455
必信	-11.1456
女无	-11.1463
不归	-11.1464
令丞	-11.1464
▁景帝	-11.1469
两将	-11.1469
之病	-11.1469
切之	-11.147
所宜	-11.1474
皆废	-11.1474
难与	-11.1475
过赵	-11.1477
为民	-11.148
之邑	-11.1481
所以然	-11.1485
汉二年	-11.1496
以伐齐	-11.1501
利者	-11.1505
秦法	-11.1507
汤乃	-11.1514
至前	-11.1515
相立	-11.1519
程姬	-11.1521
乃许之	-11.1523
还归	-11.1524
国事	-11.1526
被刑	-11.1529
安矣	-11.154
於是以	-11.1541
人乎	-11.1543
人有言	-11.1546
之长安	-11.1547
三岁而	-11.1548
二万	-11.1549
因谓	-11.1549
与高祖	-11.1552
於天	-11.156
助之	-11.1563
▁武王	-11.1569
国君	-11.1571
不求	-11.1578
臣有	-11.1579
合符	-11.1587
身无	-11.1588
生民	-11.16
罪也	-11.16
▁孟尝君	-11.1607
秦王必	-11.161
诸樊	-11.1615
▁二世	-11.1615
得王	-11.1621
待我	-11.1625
太戊	-11.1625
来归	-11.1625
即令	-11.1626
平齐	-11.1627
责之	-11.1627
天下有	-11.1627
立功	-11.1629
为重	-11.1633
欲见	-11.1634
军功	-11.1637
诏书	-11.1643
后三年	-11.1645
禁之	-11.1652
恐不得	-11.1654
和之	-11.1655
绝其	-11.1656
为谁	-11.1656
为方	-11.1656
冥	-11.1661
为校尉	-11.1673
仰视	-11.1693
郑之	-11.1695
而朝	-11.1698
心知	-11.171
自若	-11.1716
吾地	-11.172
以至	-11.1721
仕於	-11.1721
生之	-11.1722
河中	-11.1723
分天下	-11.1738
秦王之	-11.1739
弗见	-11.1739
而盟	-11.174
上食	-11.1746
韩魏	-11.1751
则以为	-11.1752
计策	-11.1754
於长安	-11.1755
两国	-11.176
乃发	-11.1763
之救	-11.1764
▁惠王	-11.1765
汉元年	-11.177
三万户	-11.1774
巡狩	-11.1774
以为非	-11.1777
封弟	-11.1778
徙王	-11.1779
朝请	-11.1785
还军	-11.1786
就之	-11.1788
天下事	-11.1788
之后也	-11.1795
己也	-11.1795
筑朔方	-11.1797
戏下	-11.1798
入海求蓬莱	-11.18
甲午	-11.1804
其两	-11.1806
以地	-11.1807
阴使	-11.181
逐其	-11.1816
南郊	-11.1818
大罪	-11.1821
建成侯	-11.1829
敦煌	-11.1829
十四	-11.1835
纣为	-11.1836
乃取	-11.1836
上书请	-11.1842
以仁义	-11.1849
母弟	-11.1849
畔秦	-11.1849
未见	-11.1855
求救	-11.1864
围我	-11.187
以兵车	-11.1879
张羽	-11.188
常在	-11.1882
出击匈奴	-11.1883
修政	-11.1885
其间	-11.1892
上复	-11.1893
拜谒	-11.1894
先言	-11.1898
何以知	-11.19
后必	-11.1906
害之	-11.1913
已来	-11.1916
之资	-11.192
而起	-11.1922
以章	-11.1927
百馀万	-11.1928
之诛	-11.1933
为务	-11.1934
失其	-11.1934
与之同	-11.1935
往视	-11.1936
▁会	-11.1939
智者不	-11.1946
君亦	-11.1947
数人	-11.1948
官属	-11.1951
其士卒	-11.1953
以卫	-11.1954
射伤	-11.1958
以丞相	-11.1961
及高祖	-11.1964
而敢	-11.1969
之赋	-11.1971
柰何以	-11.1979
往说	-11.1983
书以	-11.1983
於匈奴	-11.1983
负海	-11.2
必不敢	-11.2001
以内	-11.2003
弗用	-11.2004
望也	-11.2007
太后崩	-11.2008
▁鲁	-11.2016
终不能	-11.2023
泰山下	-11.2025
有谋	-11.2025
使人言	-11.2026
为单于	-11.2028
国危	-11.2031
▁孝文	-11.2033
而退	-11.2033
太仓	-11.2034
之世	-11.2046
翕侯	-11.2047
以览	-11.2049
内外	-11.2056
晋文	-11.2058
高门	-11.2059
居上	-11.2061
不收	-11.2063
乃下	-11.2068
收兵	-11.2073
陪臣	-11.2078
夷公	-11.2079
使人杀	-11.2086
为客	-11.2087
失侯	-11.2095
▁骞	-11.2096
叩头	-11.2099
东巡	-11.2107
所当	-11.2109
王若	-11.2113
楚复	-11.2114
边邑	-11.2115
施於	-11.2117
兵至	-11.2118
破燕	-11.2126
不礼	-11.2127
东宫	-11.213
光明	-11.2132
执政	-11.2137
相谓	-11.2139
救韩	-11.2141
▁汉王	-11.2144
请谒	-11.2149
虽不	-11.2151
遇之	-11.2157
群臣莫	-11.2158
牧野	-11.216
合诸侯	-11.2162
为置	-11.2164
不离	-11.2165
奉高	-11.2166
其南	-11.2167
赵国	-11.2167
救魏	-11.2168
▁周	-11.2168
五城	-11.2169
今已	-11.2183
天下之心	-11.2184
反乎	-11.2185
是使	-11.2185
卫青	-11.2189
遣太子	-11.219
分为	-11.22
神龟	-11.22
多欲	-11.221
成周	-11.221
为皇帝	-11.2213
献子	-11.2214
而望	-11.2216
神明	-11.2217
万事	-11.2219
因使	-11.2231
上谒	-11.2241
其语	-11.2241
十二人	-11.2241
遂定	-11.2242
懿王	-11.2243
相望	-11.2246
胡陵	-11.2249
使复	-11.2251
代郡	-11.2256
者甚众	-11.2257
项羽乃	-11.2259
於君	-11.2259
有后	-11.2269
师之	-11.2271
秦中	-11.2276
坐而	-11.2277
愿与	-11.2292
自卫	-11.2294
东出	-11.2295
於彭城	-11.2305
养老	-11.2313
吾知	-11.2315
所兴	-11.2317
不快	-11.232
讥	-11.2322
相事	-11.2323
为太仆	-11.2323
用此	-11.2326
不解	-11.2327
状貌	-11.2334
▁信	-11.2336
乱者	-11.2343
拔剑	-11.2343
以全	-11.2344
必出	-11.2349
出之	-11.235
终不可	-11.235
重之	-11.2354
斯乃	-11.2356
为二千石	-11.2357
丞相平	-11.2363
为太中大夫	-11.2364
以正	-11.2369
为大王计	-11.2371
天雨	-11.2372
徵舒	-11.2373
柰	-11.2375
骊	-11.2375
遣将	-11.2376
曷	-11.2379
而公	-11.2381
元光	-11.2384
阿房宫	-11.2385
子侯	-11.2386
辽	-11.2392
田角	-11.2392
镐	-11.2393
令其	-11.2394
武库	-11.2401
不昌	-11.2401
僚	-11.2405
庐江	-11.2406
宠姬	-11.2407
樊	-11.241
徙居	-11.241
景驹	-11.2414
瘳	-11.2415
明法	-11.2417
腊	-11.242
军法	-11.2423
袖	-11.2424
帐	-11.2425
而和正	-11.2425
臣固	-11.2425
逸	-11.2427
虎狼	-11.2427
家在	-11.2427
招致	-11.2429
队	-11.243
雌	-11.243
垒	-11.243
者宜歌	-11.2432
下令	-11.2432
填沟壑	-11.2432
寻	-11.2432
奄	-11.2432
聊	-11.2433
蚀	-11.2434
俞	-11.2434
筋	-11.2435
棘矜	-11.2435
伋	-11.2435
鳞	-11.2435
测	-11.2435
阅实其罪	-11.2435
湖	-11.2435
傲	-11.2435
翕	-11.2436
艺	-11.2436
棁	-11.2436
峻	-11.2436
鼻	-11.2436
瓦	-11.2436
畅	-11.2436
邯	-11.2436
陇	-11.2436
元朔	-11.2437
瞿	-11.2437
朋	-11.2437
定三秦	-11.2437
鞠	-11.2437
脯	-11.2437
科	-11.2438
邢	-11.2438
弛	-11.2438
镂	-11.2438
题	-11.2438
黍	-11.2438
故长於	-11.2438
以千三百户封	-11.2438
盘庚	-11.2438
簪	-11.2438
问政	-11.2438
将吏	-11.2438
羡	-11.2439
阏氏	-11.2439
东郭先生	-11.2439
遁逃	-11.2439
聘	-11.2439
屦	-11.2439
箸	-11.2439
麃	-11.2439
颍阴侯	-11.2439
慴	-11.2439
荦	-11.2439
齧	-11.2439
季平子	-11.244
肿	-11.244
辕固生	-11.244
摩	-11.244
骛	-11.244
斫	-11.244
消	-11.244
邵	-11.244
杨熊	-11.244
待罪行间	-11.244
巷	-11.244
万乘之国也	-11.244
诋	-11.244
转输	-11.244
韶	-11.244
户牖	-11.244
拨	-11.244
万馀骑	-11.244
膏	-11.244
鲁仲连	-11.244
肠	-11.244
媵	-11.2441
阻险	-11.2441
柱国	-11.2441
鹄	-11.2441
乖	-11.2441
隔	-11.2441
租	-11.2441
祁	-11.2441
血脉	-11.2441
鞍	-11.2441
部署	-11.2441
墙	-11.2441
渴	-11.2441
品	-11.2441
灼	-11.2441
梓	-11.2442
绪	-11.2442
胡人	-11.2442
醴	-11.2442
虏其王	-11.2442
沂	-11.2442
衣褐	-11.2442
麋	-11.2442
吠	-11.2442
濯	-11.2442
椒	-11.2442
申包胥	-11.2442
海滨	-11.2442
练	-11.2442
疾疫	-11.2442
臣意切其脉	-11.2442
凌	-11.2442
仍	-11.2442
日月星辰	-11.2442
槃	-11.2442
酸枣	-11.2442
蜂	-11.2442
道不拾遗	-11.2442
鸡鸣	-11.2442
褐	-11.2442
逞	-11.2442
植	-11.2443
愠	-11.2443
窦长君	-11.2443
财匮	-11.2443
拙	-11.2443
幡	-11.2443
酺	-11.2443
世世勿绝	-11.2443
砥柱	-11.2443
宰孔	-11.2443
棋	-11.2443
炙	-11.2443
证	-11.2443
政事	-11.2443
冉季	-11.2443
丕郑	-11.2443
皆阬之	-11.2443
姑苏	-11.2443
豫且	-11.2443
曹沬	-11.2443
得胡首虏	-11.2443
令军中曰	-11.2443
请谒追亡人渔猎	-11.2443
曼丘臣	-11.2443
小馀四百	-11.2443
不忍致法	-11.2443
师尚父	-11.2443
顽	-11.2443
汤沐邑	-11.2443
黔牟	-11.2443
旨	-11.2443
隘	-11.2443
炊	-11.2443
炭	-11.2443
珠玉	-11.2443
蛊	-11.2443
匈	-11.2443
行遇盗	-11.2443
厨	-11.2443
奉阳君	-11.2443
帝太甲	-11.2443
钜野	-11.2443
赤奋若	-11.2444
不可胜计	-11.2444
十一月甲子朔旦冬至	-11.2444
曲沃庄伯	-11.2444
白圭	-11.2444
缨	-11.2444
外高内下	-11.2444
齐田常弑其君简公	-11.2444
各得其所	-11.2444
▁彊梧	-11.2444
▁祝犁	-11.2444
堂谿	-11.2444
e	-11.2444
▁横艾	-11.2444
呜呼哀哉	-11.2444
俊	-11.2444
脩封	-11.2444
笼	-11.2444
陬	-11.2444
▁命曰首仰足肣	-11.2444
五百户	-11.2444
▁徒维	-11.2444
地方千里	-11.2444
审食其	-11.2444
战於蓝田	-11.2444
譬如	-11.2444
为吕王	-11.2444
孔仅	-11.2444
万馀级	-11.2444
叔瞻	-11.2444
骠骑将军去病	-11.2444
旷日	-11.2444
豪俊	-11.2444
郁郁	-11.2444
姜姓	-11.2444
谍	-11.2444
孕	-11.2444
殷馀民	-11.2444
绵	-11.2444
白旄	-11.2444
锺离眛	-11.2444
任鄙	-11.2445
永巷	-11.2445
稍蚕食	-11.2445
吹	-11.2445
自媚於	-11.2445
十馀辈	-11.2445
冤	-11.2445
柄	-11.2445
率其众	-11.2445
绛侯周勃	-11.2445
转漕	-11.2445
拟於天子	-11.2445
四海之内	-11.2445
奢侈	-11.2445
神祠	-11.2445
肆志	-11.2445
负刍	-11.2445
黎庶	-11.2445
大行王恢	-11.2445
庾	-11.2445
不亦可乎	-11.2445
穨当	-11.2445
持戟	-11.2445
沔	-11.2445
芷	-11.2445
医药	-11.2445
刀笔吏	-11.2446
谦让	-11.2446
无恙	-11.2446
以忧死	-11.2446
聪明	-11.2446
嘻	-11.2446
晏孺子	-11.2446
驰骋	-11.2446
荆蛮	-11.2446
险阻	-11.2446
骄奢	-11.2446
季文子	-11.2446
以秦之彊	-11.2446
宛贵人	-11.2446
以朝诸侯	-11.2446
席卷	-11.2446
宣言	-11.2446
变名姓	-11.2447
容貌	-11.2447
肥饶	-11.2447
李息	-11.2447
嬴姓	-11.2447
有司皆曰	-11.2447
形势	-11.2447
莫肯	-11.2447
孤竹	-11.2447
枞公	-11.2447
伯嚭	-11.2447
未睹	-11.2447
月蚀	-11.2447
揖让	-11.2447
穿渠	-11.2447
眛	-11.2447
刘泽	-11.2447
委质	-11.2448
邢夫人	-11.2448
无兵	-11.2448
张敖	-11.2448
区	-11.2448
巫祝	-11.2448
西面而事秦	-11.2448
孝武皇帝	-11.2449
帝太戊	-11.2449
他日	-11.2449
能治	-11.2449
表里	-11.2449
弦歌	-11.2449
犬丘	-11.245
哭泣	-11.245
十馀里	-11.245
燕王绾	-11.245
年十五	-11.245
公孙龙	-11.245
祠灶	-11.245
玄孙	-11.245
五羖大夫	-11.245
盐泽	-11.245
称病不朝	-11.2451
谷口	-11.2451
田不礼	-11.2451
五湖	-11.2451
司马错	-11.2451
驺衍	-11.2451
暑	-11.2451
三苗	-11.2452
五利将军	-11.2452
弗忍	-11.2452
开章	-11.2452
榆中	-11.2452
宰予	-11.2452
诸吕用事	-11.2452
殊俗	-11.2453
叔孙生	-11.2453
清庙	-11.2453
郧公	-11.2453
魏安釐王	-11.2453
乌获	-11.2453
前为寿	-11.2453
鸿水	-11.2453
入于海	-11.2454
平陆	-11.2454
御府	-11.2454
辛巳	-11.2454
三寸	-11.2455
权衡	-11.2455
伍尚	-11.2455
卫康叔	-11.2455
薄昭	-11.2455
剔成	-11.2455
乡曲	-11.2455
祭器	-11.2455
未知所	-11.2456
仲雍	-11.2456
图籍	-11.2456
延寿	-11.2456
积聚	-11.2456
茂陵	-11.2456
庄助	-11.2456
精神	-11.2456
六百里	-11.2456
引兵而去	-11.2457
长孺	-11.2457
陈皇后	-11.2457
本末	-11.2457
司马相如	-11.2457
乏食	-11.2457
灌氏	-11.2457
东击项籍	-11.2458
张禄	-11.2458
百馀岁	-11.2458
女为夫人	-11.2458
古今之	-11.2458
下令国中	-11.2459
腹心	-11.2459
六尺	-11.2459
乞食	-11.2459
仆妾	-11.2459
封疆	-11.2459
虞仲	-11.2459
节俭	-11.246
曩者	-11.246
涂山	-11.246
群神	-11.246
田蚡	-11.2461
司命	-11.2461
不暇	-11.2462
窃以为	-11.2462
贱妾	-11.2462
邹阳	-11.2462
三十馀万	-11.2462
十倍	-11.2462
入匈奴	-11.2462
执徐	-11.2462
李氏	-11.2462
五岳	-11.2462
勿救	-11.2462
汉初定	-11.2462
大悦	-11.2463
代邸	-11.2463
十二县	-11.2464
命也夫	-11.2464
除害	-11.2464
任职	-11.2465
幸甘泉	-11.2465
冬十月	-11.2465
引兵归	-11.2465
之原	-11.2465
布帛	-11.2465
吾王	-11.2466
公孙彊	-11.2466
曲直	-11.2467
敬仲	-11.2467
孟氏	-11.2467
问於	-11.2468
丹阳	-11.2468
战而胜	-11.2468
进退	-11.2469
安其处	-11.2469
群公	-11.2469
伯宗	-11.247
其色	-11.247
而天下治	-11.247
持满	-11.2471
龙门	-11.2472
守职	-11.2472
葬雍	-11.2472
豪吏	-11.2473
诸儒生	-11.2473
勿予	-11.2473
高阙	-11.2473
射牛	-11.2473
▁汉既	-11.2473
侵盗	-11.2474
西畤	-11.2474
毋寡	-11.2474
罢酒	-11.2474
瓠子	-11.2474
水旱	-11.2475
勿听	-11.2475
相曰	-11.2475
善用兵	-11.2475
首虏	-11.2475
秦舞阳	-11.2476
田畜	-11.2477
诗云	-11.2477
谀臣	-11.2477
於是天子始	-11.2478
知其谋	-11.2478
氏有	-11.2478
西击秦	-11.2479
四十馀年	-11.2479
未到	-11.2479
守丰	-11.248
沛人也	-11.2481
谋作乱	-11.2481
中贵人	-11.2481
争权	-11.2482
水衡	-11.2482
楚顷襄王	-11.2482
灵侯	-11.2483
魏献子	-11.2484
以谢天下	-11.2485
田假	-11.2485
遗诏	-11.2486
遗朕	-11.2486
厚遗	-11.2486
从臣	-11.2487
▁三十八年	-11.2488
襄公卒	-11.2488
散乱	-11.2489
此真	-11.2489
秦围邯郸	-11.2489
太阴	-11.249
不堪	-11.2491
此特	-11.2491
益疏	-11.2491
慎公	-11.2491
复使	-11.2491
谨受	-11.2492
非刘氏	-11.2493
叶公	-11.2493
无诡	-11.2493
朕既不	-11.2494
昭明	-11.2494
义渠君	-11.2494
临江	-11.2494
秦败我	-11.2494
遗风	-11.2495
夷门	-11.2495
病愈	-11.2496
念哉	-11.2497
脩武	-11.2497
不赡	-11.2498
圣王之	-11.2498
东泰山	-11.2499
可击	-11.2499
岐下	-11.25
儒生	-11.25
论议	-11.2501
轻骑	-11.2502
他广	-11.2502
襄国	-11.2502
称伯	-11.2503
得数万人	-11.2503
僇辱	-11.2503
淮南王安	-11.2503
西周君	-11.2504
田甲	-11.2504
上默然	-11.2504
伯服	-11.2505
未就	-11.2505
中岳	-11.2506
尹齐	-11.2507
宋昌	-11.2507
封功臣	-11.2508
负约	-11.2508
苏代谓	-11.2509
攻胡陵	-11.251
唯唯	-11.251
所卖	-11.251
振恐	-11.251
左师	-11.2511
为武安君	-11.2511
金石	-11.2512
元封	-11.2512
力政	-11.2515
安敢	-11.2516
任氏	-11.2516
惠后	-11.2517
徙治	-11.2518
大雅	-11.2519
秦庄襄王	-11.252
名显	-11.2521
四十一年	-11.2521
封其子	-11.2522
卜日	-11.2523
居延	-11.2524
会盟	-11.2525
纪信	-11.2525
六星	-11.2526
礼仪	-11.2526
才子	-11.2527
从东方	-11.2528
两越	-11.2528
周书曰	-11.2529
以军功	-11.2529
天下谓之	-11.2529
文深	-11.2529
帝乙	-11.253
论功	-11.2531
不与焉	-11.2531
先轸曰	-11.2532
所指	-11.2532
齐王建	-11.2533
深谋	-11.2535
未葬	-11.2536
乐成侯	-11.2536
以天下	-11.2536
中庶子	-11.254
黄龙	-11.2541
公子章	-11.2542
之涂	-11.2542
二世皇帝	-11.2543
君子讥	-11.2544
莫能得	-11.2546
丈人	-11.2546
哀怜	-11.2547
四十年	-11.2547
除道	-11.2548
畔周	-11.2548
陈婴	-11.2548
二十城	-11.2548
西至于	-11.255
百日	-11.255
有司请	-11.255
魏伐赵	-11.2552
其昌	-11.2552
章平	-11.2552
使人告	-11.2553
相工	-11.2554
若斯	-11.2554
权利	-11.2555
将渠	-11.2555
丞相斯	-11.2557
乃行	-11.2558
居雍	-11.2558
周丘	-11.2558
宣言曰	-11.2559
去就	-11.2559
初置	-11.2561
逐客	-11.2563
其旁	-11.2564
同师	-11.2565
秦惠王卒	-11.2567
当弃市	-11.2568
战于	-11.2568
九江王	-11.257
为临江王	-11.257
是为桓公	-11.257
赵朔	-11.2571
未当	-11.2571
至矣	-11.2571
於莒	-11.2571
盟于	-11.2572
子带	-11.2572
私通	-11.2573
边兵	-11.2573
山崩	-11.2575
所夺	-11.2577
可也	-11.2577
大路	-11.2579
六世	-11.2581
无益於	-11.2583
八年卒	-11.2583
迁于	-11.2584
一月	-11.2586
中野	-11.2586
博闻	-11.2587
之费	-11.2587
郑文公	-11.259
名实	-11.2591
车服	-11.2591
▁二月	-11.2593
亲属	-11.2595
杀龙且	-11.2596
必重	-11.2596
财用	-11.2598
不倦	-11.2599
不享	-11.2599
文身	-11.26
尽力	-11.2602
田安	-11.2604
破宋	-11.2608
伏兵	-11.2608
四门	-11.261
其乐	-11.2611
勉之	-11.2612
贫民	-11.2612
相与共	-11.2614
或以	-11.2614
称帝	-11.2615
降城	-11.2616
秦失其	-11.2618
公卿议	-11.2618
东收	-11.2619
之符	-11.262
在其中	-11.2622
以右丞相	-11.2622
直道	-11.2622
好女	-11.2623
制之	-11.2624
不全	-11.2625
徵兵	-11.2629
周文王	-11.2631
道路	-11.2633
相类	-11.2633
吏捕	-11.2634
周成王	-11.2635
命者	-11.2635
益广	-11.2635
驰传	-11.2636
方急	-11.2636
汉兵至	-11.2637
简王	-11.2638
是乎	-11.2639
颇有	-11.264
王生	-11.2641
孝文帝即位	-11.2642
得之矣	-11.2643
委於	-11.2644
觉之	-11.2646
临天下	-11.2646
不能取	-11.2647
不省	-11.2648
之役	-11.2649
过听	-11.2649
以为神	-11.265
卫鞅曰	-11.265
晋昭公	-11.265
周章	-11.2652
命之曰	-11.2652
世家	-11.2655
孝文帝崩	-11.2656
方数千里	-11.2656
孔子闻之	-11.2661
除去	-11.2662
所亡	-11.2663
各三	-11.2664
魏章	-11.2664
其图之	-11.2664
苗裔也	-11.2664
贤能	-11.2668
兴焉	-11.2673
又怨	-11.2675
者百馀人	-11.2675
言万物皆	-11.2678
败赵	-11.2678
直入	-11.2679
不予	-11.2683
呼曰	-11.2684
燕惠王	-11.2685
及诸	-11.2685
失计	-11.2687
则诸侯	-11.2688
天马	-11.2688
▁七月	-11.2689
不欺	-11.2689
公卿皆	-11.2692
其王	-11.2692
▁二十九年	-11.2695
其女弟	-11.2696
夫齐	-11.2697
夷侯	-11.2699
信都	-11.2699
贤哉	-11.2699
公家	-11.27
赐食	-11.27
魏之兵	-11.2701
江上	-11.2702
复攻	-11.2703
不敢出	-11.2706
不如也	-11.2707
者数千人	-11.2708
所以得	-11.2711
献公卒	-11.2714
故圣人	-11.2715
益食	-11.2715
鲁桓公	-11.2716
兴居	-11.2719
战攻	-11.2723
灭亡	-11.2725
刺之	-11.2727
上封	-11.2727
之过也	-11.2729
而待	-11.273
孔氏之	-11.2732
死节	-11.2733
居家	-11.2736
乡使	-11.2737
随人	-11.2737
而晋	-11.2738
为坛	-11.2741
威重	-11.2741
自危	-11.2745
四万	-11.2746
至於此	-11.2748
尝有	-11.2749
诈伪	-11.275
之侵地	-11.275
决事	-11.2753
来年	-11.2753
於唐	-11.2756
告之曰	-11.2758
名声	-11.2759
号称	-11.2763
二十馀	-11.2764
亦有所	-11.2766
谋计	-11.277
九人	-11.2772
乐其	-11.2773
五年卒	-11.2776
其内	-11.2778
十有馀	-11.2778
其真	-11.2778
威德	-11.278
阳晋	-11.2781
赵良	-11.2781
告我	-11.2782
以十月	-11.2786
或以为	-11.2786
欲从	-11.2789
谁为	-11.2789
▁正月	-11.2791
故王	-11.2793
王假	-11.2794
则脩	-11.2798
地广	-11.2799
大风	-11.28
七十三	-11.2803
五十二	-11.2805
假王	-11.2808
复问	-11.2809
其大父	-11.2813
子张	-11.2813
羞之	-11.2814
畜牧	-11.2816
谥为文	-11.2818
不敢复	-11.2818
罪之	-11.2822
不治也	-11.2825
宫人	-11.2825
知名	-11.2829
秦襄公	-11.2832
多怨	-11.2833
明天子	-11.2833
识之	-11.2833
伐戎	-11.2834
桓公卒	-11.2834
不拔	-11.2835
公车	-11.2836
示之	-11.284
多者	-11.2845
至邯郸	-11.2848
无声	-11.2848
居平阳	-11.285
自临	-11.2851
四十六年	-11.2852
良臣	-11.2852
其劳	-11.2853
夷立	-11.2855
不敢自	-11.2857
往从之	-11.2858
反鲁	-11.286
为人长	-11.2862
非其人	-11.2863
申子	-11.2864
居前	-11.2864
▁荆轲	-11.2868
好辞	-11.287
夏后	-11.287
诛死	-11.287
以备胡	-11.2871
击晋	-11.2874
见齐王	-11.2876
五霸	-11.2877
汉将	-11.2877
吾甚	-11.2878
常有	-11.288
弗信	-11.2883
初起	-11.2884
间使	-11.2891
为奴	-11.2892
病已	-11.2893
通侯	-11.2894
称之	-11.2894
下兵	-11.2894
取鲁	-11.2895
即不能	-11.2898
中外	-11.2898
始出	-11.2904
两子	-11.2904
数起	-11.2909
所用	-11.2909
捐之	-11.2909
魏人	-11.291
勿与	-11.2911
不遇	-11.2913
五千里	-11.2918
荐之	-11.292
至赵	-11.2921
卫氏	-11.2921
故有	-11.2924
多病	-11.2925
之母	-11.293
大夫皆	-11.2931
以为太子	-11.2933
宣子	-11.2939
▁平公	-11.294
孰能	-11.2941
世传	-11.2949
任之	-11.295
不悖	-11.295
追北	-11.2958
必至	-11.296
以厚	-11.2962
当国	-11.2964
见欺	-11.2964
安之	-11.2964
为人仁	-11.2969
亦发兵	-11.2972
孝文帝时	-11.2973
子兰	-11.2979
礼祠	-11.2984
至门	-11.2984
已尽	-11.2986
非所以为	-11.2991
男也	-11.2991
一举	-11.2993
▁献公	-11.2993
▁平原君	-11.2993
无相	-11.2995
而三	-11.2996
复起	-11.3002
燕君	-11.3003
将屯	-11.301
我死	-11.3011
为辅	-11.3015
雍州	-11.3021
或至	-11.3021
天下称	-11.3022
罪至	-11.3022
以时	-11.3022
赐食邑	-11.3022
赐死	-11.3023
於是汉王	-11.3025
而利	-11.3027
难矣	-11.3027
宝者	-11.303
因令	-11.3034
欲还	-11.3034
为太史	-11.3035
非能	-11.3038
王天下	-11.3038
大县	-11.304
当今	-11.3041
使使告	-11.3045
乃私	-11.3045
骂之	-11.3046
不可以为	-11.3048
七十二	-11.3048
使匈奴	-11.3052
内自	-11.3052
于河	-11.3052
复往	-11.3054
而合	-11.3054
穨	-11.3064
天乎	-11.3065
爵关内侯	-11.3067
西入关	-11.3068
之赵	-11.307
二年卒	-11.3071
往击	-11.3073
吾方	-11.3074
上观	-11.3076
至雒阳	-11.3077
职也	-11.308
不可用	-11.3081
以吾	-11.3082
必用	-11.3085
魏也	-11.309
所治	-11.3093
道远	-11.3094
有所不	-11.3094
大义	-11.3095
不听政	-11.3095
遂反	-11.3099
外交	-11.3119
亦足	-11.312
公孙臣	-11.312
而食之	-11.312
行政	-11.3122
身正	-11.3123
年老	-11.3123
自彊	-11.3123
称病不	-11.3131
不果	-11.314
守城	-11.3141
为主	-11.3141
先帝之	-11.3145
昭王曰	-11.3146
无用	-11.3149
玑	-11.3153
眇	-11.3158
不能死	-11.3159
东游	-11.316
还报曰	-11.3162
过失	-11.3166
不能进	-11.3167
人马	-11.3169
▁昭公	-11.3175
在此	-11.3175
复反	-11.3177
物之	-11.3177
兄也	-11.3182
况於	-11.3184
益大	-11.3188
其祠	-11.3189
不遂	-11.3197
于齐	-11.3197
好兵	-11.3206
屠之	-11.3207
未行	-11.3208
▁厉公	-11.3216
为御	-11.3217
王武	-11.322
明者	-11.3225
中立	-11.3227
进兵击	-11.3229
欲发	-11.323
之燕	-11.3232
荥阳城	-11.3232
不谢	-11.3233
言事	-11.3235
因进	-11.3236
入咸阳	-11.3239
报德	-11.3239
已矣	-11.3242
奉诏	-11.3248
家令	-11.3251
人怜之	-11.3262
大礼	-11.3265
声也	-11.3266
复作	-11.3266
为卫	-11.3272
说齐王	-11.3273
仁孝	-11.3283
於后	-11.3306
长幼之	-11.3307
市人	-11.3309
午立	-11.3313
必致	-11.3316
朝周	-11.3317
又恶	-11.3323
与公卿	-11.333
谢之	-11.3333
追击	-11.3334
小臣	-11.3339
使人间	-11.3341
辅之	-11.3347
而匈奴	-11.3348
秦攻韩	-11.3351
自往	-11.3357
道德之	-11.3362
此子	-11.3363
以卜有求	-11.3366
者不可胜数	-11.3373
子羔	-11.3374
无已	-11.3383
有功者	-11.3389
相通	-11.3399
十匹	-11.3404
皆来	-11.3406
之乐也	-11.3407
以诛	-11.3413
吾亦	-11.3413
欲急	-11.3414
其子孙	-11.3414
使其子	-11.3415
居中	-11.342
以卜有求不	-11.3422
民也	-11.3427
习於	-11.3431
而赤	-11.3439
诈为	-11.344
见我	-11.3442
入塞	-11.3445
成人	-11.3451
不分	-11.3451
高陵	-11.3452
子襄	-11.3456
察其	-11.3458
以此知	-11.3461
黄帝之	-11.3462
於是有	-11.347
知其意	-11.3472
则韩	-11.3484
为九卿	-11.3484
昭鱼	-11.3484
醢	-11.3494
上至	-11.3496
贤於	-11.3499
刑戮	-11.3502
自天子	-11.3509
食之	-11.3515
之戎	-11.3517
无常	-11.3524
则不得	-11.3525
物故	-11.3526
袭郑	-11.3528
商人	-11.3528
十三岁	-11.3529
之宝	-11.3532
秦仲	-11.3533
之事也	-11.3536
善言	-11.3541
际	-11.3543
楚王怒	-11.3548
乃前	-11.3548
▁参	-11.3555
逆天	-11.3555
以辅	-11.3557
同列	-11.356
以牛	-11.3561
之台	-11.3563
此臣之所	-11.3567
不谋	-11.3567
贱人	-11.3571
之山	-11.3574
义之	-11.3574
而代立	-11.3574
不师	-11.3581
周公乃	-11.3583
五万人	-11.3585
之辞	-11.3586
使来	-11.3588
除之	-11.3593
相救	-11.3599
百斤	-11.3604
何自	-11.3605
可令	-11.3607
共定	-11.3608
▁始	-11.3622
西楚	-11.3638
之谓也	-11.3639
恐不能	-11.364
而韩	-11.3641
太子母	-11.3652
肃侯	-11.366
数也	-11.3661
王不如	-11.3661
百家之	-11.3664
善楚	-11.3664
孔子去	-11.3665
贤人也	-11.3666
不得脱	-11.3668
习之	-11.367
吴王阖闾	-11.3682
有力焉	-11.3687
多言	-11.3689
归乎	-11.3691
未尽	-11.3691
辱我	-11.3692
未知	-11.3692
五十一年	-11.3695
太后欲	-11.3695
韩子	-11.3707
降之	-11.3707
以下皆	-11.3709
素闻	-11.3711
楚亦	-11.3714
不知人	-11.3722
徒以	-11.3724
▁高帝	-11.3725
北海	-11.3726
吴王之	-11.3727
献其	-11.3729
阴晋	-11.3732
有众	-11.3732
兵数十万	-11.3735
相魏	-11.3737
不应	-11.3742
其师	-11.3742
利公	-11.3749
祭后土	-11.3756
侵犯	-11.3757
倍之	-11.3757
车骑将军	-11.3758
得汉	-11.376
奔鲁	-11.3771
使得	-11.3772
不习	-11.3774
著之	-11.3776
说王曰	-11.3783
遂发兵	-11.3783
武士	-11.3785
晋国之	-11.3786
雍州之	-11.379
使诸侯	-11.3791
因复	-11.3793
入中	-11.3795
孔子適	-11.3798
吾恐	-11.3798
通大夏	-11.3804
敢任	-11.3812
事急	-11.3813
寿梦	-11.3815
而觉	-11.3818
▁秋	-11.3821
四月乙	-11.3829
二万人	-11.3835
而歌	-11.3837
诛灭	-11.3837
所赐	-11.384
攻破	-11.3842
使人请	-11.3847
杀我	-11.3849
悖	-11.3852
死事	-11.3852
不会	-11.3853
大呼	-11.387
遂拔	-11.3871
其职	-11.3878
为大农	-11.3881
居官家室	-11.389
亡矣	-11.3897
豨将	-11.3899
以自为	-11.3905
遂破	-11.3906
应曰	-11.3908
之福也	-11.3923
以下至	-11.393
子击	-11.3936
夷王	-11.3949
数困	-11.3951
秦彊	-11.3954
破吴	-11.3955
居二年	-11.3959
不定	-11.3961
是无	-11.3963
果有	-11.3967
为害	-11.3969
以恶	-11.397
亲幸	-11.3973
皆多	-11.3973
漳水	-11.3996
数称	-11.3999
相攻击	-11.4001
使公子	-11.4003
距之	-11.4004
其命	-11.4006
安危	-11.4007
苏秦之	-11.4016
祠神	-11.4021
以变	-11.4023
周西伯	-11.4025
成之	-11.4031
里中	-11.4033
而从	-11.4047
平城	-11.4064
之气	-11.4065
者哉	-11.4068
鱼盐之	-11.4068
为卫君	-11.4072
将兵围	-11.4072
齐军	-11.4075
不喜	-11.4078
来还	-11.4082
引兵去	-11.4086
舜之	-11.4091
出境	-11.4094
立为帝	-11.4097
无诸	-11.41
不能下	-11.4107
子孝	-11.4113
沛公军	-11.4113
至郢	-11.4114
安平	-11.4116
逆行	-11.4118
兵败	-11.4119
罪过	-11.4121
秦时为	-11.4122
入齐	-11.4124
南子	-11.4141
殷民	-11.4144
欲事	-11.4147
及诸侯	-11.4151
之衰也	-11.4162
君能	-11.4165
而先	-11.4165
并争	-11.4165
久远	-11.4169
韩安国	-11.417
年七十	-11.4171
斩首十	-11.4195
杀太子	-11.4195
始吾	-11.4197
复国	-11.4197
杀义帝	-11.4202
我一	-11.4205
足开首仰	-11.4209
制礼	-11.4212
召入	-11.4212
以发	-11.4217
隰朋	-11.4219
悬	-11.422
欲一	-11.4221
事无	-11.4229
惜	-11.4238
不进	-11.424
来降	-11.4241
归我	-11.4242
奔郑	-11.4244
则汉	-11.4247
尊官	-11.4251
七十馀人	-11.4256
豨所	-11.4262
六七	-11.4265
反楚	-11.4273
拜受	-11.4273
其难	-11.4282
上计	-11.4282
於秦也	-11.4282
至孝文	-11.4286
辎重	-11.4288
山下	-11.4297
秦取我	-11.4299
齐女	-11.4302
未有以	-11.4306
四方之	-11.4306
入盗	-11.4314
十五年卒	-11.4317
白起攻	-11.4317
盟津	-11.4325
歌之曰	-11.4325
唯君	-11.4338
军门	-11.4339
之辩	-11.4342
子朔	-11.4342
临淄	-11.4346
此乎	-11.4349
赵兵	-11.435
神灵	-11.4352
去病	-11.4354
孔父	-11.436
▁孝景	-11.4368
▁沛公	-11.437
曾孙	-11.4371
韦	-11.4371
昆	-11.4372
周文	-11.4373
管仲曰	-11.4374
亦知	-11.4375
天性	-11.4377
景公问	-11.438
阏	-11.4381
百有馀	-11.4381
壶	-11.4382
先轸	-11.4382
七十馀	-11.4386
伐蔡	-11.4387
未足	-11.4393
陵侯	-11.4394
二公子	-11.4396
年三十	-11.44
而归之	-11.4401
翳	-11.4401
盟於	-11.4405
为业	-11.441
四十八年	-11.441
骆	-11.4411
诊其脉	-11.4412
攻伐	-11.4412
长史欣	-11.4413
未央宫	-11.4413
昭阳	-11.4417
以让	-11.442
经术	-11.4422
惶	-11.4422
榆	-11.4422
靖	-11.4425
郝	-11.4426
与魏王会	-11.4427
悝	-11.4427
泾阳	-11.4428
畴	-11.4429
而独	-11.4429
瓜	-11.4429
匮	-11.4429
啬	-11.443
趋而进	-11.4431
巢	-11.4431
如其方	-11.4431
冀	-11.4432
弩	-11.4432
食不甘	-11.4432
熙熙	-11.4432
籥	-11.4433
缗	-11.4434
酷	-11.4434
皆令	-11.4434
苗	-11.4435
麋鹿	-11.4435
松	-11.4435
鸾	-11.4435
周东徙	-11.4435
伎	-11.4435
埋	-11.4436
漏	-11.4436
蚕	-11.4436
畜产	-11.4436
莫知其	-11.4436
无父而生	-11.4436
版	-11.4436
帷帐	-11.4437
识其	-11.4437
郅	-11.4437
还军霸上	-11.4437
迂	-11.4437
组	-11.4437
尃	-11.4438
泉阳	-11.4438
盗跖	-11.4438
祉	-11.4438
崔	-11.4438
沫	-11.4438
谦	-11.4438
乞骸骨	-11.4438
袪	-11.4438
岑娶	-11.4438
迭	-11.4439
促	-11.4439
骍	-11.4439
洗	-11.4439
祝融	-11.4439
睦	-11.4439
坟墓	-11.4439
千八百户	-11.4439
沱	-11.4439
巫妪	-11.4439
蹄	-11.4439
穹	-11.4439
岸	-11.444
奈何	-11.444
攸	-11.444
梅	-11.444
瞽	-11.444
尼	-11.444
盘	-11.444
途	-11.444
谯	-11.444
横海将军	-11.444
战胜攻取	-11.444
未晚也	-11.444
裁	-11.444
残贼	-11.444
僵	-11.444
张次公	-11.444
谪	-11.444
▁武帝时	-11.444
埽	-11.444
喟然而叹	-11.444
邾	-11.444
彭蠡	-11.444
豆	-11.4441
姒	-11.4441
檐	-11.4441
愉	-11.4441
技	-11.4441
驴	-11.4441
叔孙	-11.4441
轮	-11.4441
不死之药	-11.4441
屈匄	-11.4441
衽	-11.4441
不远千里	-11.4441
妙	-11.4441
郈氏	-11.4441
鸿沟	-11.4441
枉	-11.4441
牍	-11.4441
衰绖	-11.4441
苦秦久矣	-11.4441
酖	-11.4441
辐凑	-11.4441
邢丘	-11.4441
谄谀	-11.4442
拊	-11.4442
彻	-11.4442
滑稽	-11.4442
阑	-11.4442
七十子之徒	-11.4442
僰	-11.4442
平阳公主	-11.4442
一匡天下	-11.4442
挈	-11.4442
疽	-11.4442
阵	-11.4442
廊	-11.4442
布告天下	-11.4442
圃	-11.4442
从间道	-11.4442
沸	-11.4442
熊罴	-11.4442
肠胃	-11.4442
身死国亡	-11.4442
狡	-11.4442
殡	-11.4442
雉	-11.4442
吸	-11.4442
涉流沙	-11.4442
频阳	-11.4442
鲋	-11.4442
符瑞	-11.4442
掖	-11.4442
莽	-11.4442
不以此时	-11.4442
渚	-11.4442
犨	-11.4442
竿	-11.4442
駹	-11.4442
禀	-11.4442
惰	-11.4442
禺	-11.4442
幹	-11.4442
闇	-11.4442
斟	-11.4442
从入汉中	-11.4443
堵	-11.4443
蛟龙	-11.4443
课	-11.4443
辑	-11.4443
邽	-11.4443
合骑侯	-11.4443
惩	-11.4443
磨	-11.4443
茏城	-11.4443
骀	-11.4443
呕血	-11.4443
岱宗	-11.4443
走芒卯	-11.4443
辚	-11.4443
澹	-11.4443
唐眛	-11.4443
段干	-11.4443
油	-11.4443
洞	-11.4443
万金	-11.4443
元狩二年	-11.4443
眼	-11.4443
臣意诊脉	-11.4443
丸	-11.4443
伏斧质	-11.4443
裸	-11.4443
涿	-11.4443
酂	-11.4443
坼	-11.4443
富商大贾	-11.4443
街	-11.4443
介子推	-11.4443
牂柯江	-11.4443
暴露	-11.4443
阖闾	-11.4443
妖	-11.4443
病主在	-11.4443
绩	-11.4443
聂翁壹	-11.4443
陛下必欲	-11.4443
▁命曰横吉	-11.4443
大渊献	-11.4443
陂池	-11.4443
延颈而	-11.4443
当阳君	-11.4443
晓	-11.4443
溲血	-11.4443
狡兔	-11.4443
绶	-11.4443
鸟鼠	-11.4443
姓姬氏	-11.4443
措	-11.4443
茝	-11.4443
东牟侯	-11.4443
闳夭	-11.4443
准	-11.4443
千三百户	-11.4443
为河伯娶妇	-11.4444
卫将军舍人	-11.4444
吕王产	-11.4444
娥	-11.4444
娄敬	-11.4444
历下军	-11.4444
呈兆	-11.4444
求财物买臣妾马牛请谒追亡人渔猎	-11.4444
河亶甲	-11.4444
纡	-11.4444
鼋	-11.4444
游说之士	-11.4444
灊	-11.4444
前后溲	-11.4444
发愤	-11.4444
季子札	-11.4444
酱	-11.4444
睔	-11.4444
游击将军	-11.4444
煇	-11.4444
诗书礼乐	-11.4444
肸	-11.4444
即天子位	-11.4444
楚太子商臣弑其父成王代立	-11.4444
因祸为福	-11.4444
失亡多	-11.4444
玄嚣	-11.4444
旃裘	-11.4444
泮	-11.4444
以校尉从大将军	-11.4444
召公奭	-11.4444
可不敬与	-11.4444
有骄色	-11.4444
狐突	-11.4444
▁尚章	-11.4444
三年之丧	-11.4444
以岁时祠	-11.4444
婿	-11.4444
骐骥	-11.4444
挥	-11.4444
塞王欣	-11.4444
赀	-11.4444
栖	-11.4444
乐臣公	-11.4444
公子虔	-11.4444
春平君	-11.4444
胶西王卬	-11.4444
元鼎	-11.4444
小雅	-11.4444
瘖	-11.4444
枪	-11.4444
轧	-11.4445
牺牲	-11.4445
耿	-11.4445
其势必	-11.4445
籴	-11.4445
荆王刘贾	-11.4445
兢兢	-11.4445
朕甚不取	-11.4445
巂	-11.4445
泣数行下	-11.4445
真番	-11.4445
作者数万人	-11.4445
廓	-11.4445
令祠官	-11.4445
桓齮	-11.4445
放蔡叔	-11.4445
大经也	-11.4445
冠盖相望	-11.4445
燮	-11.4445
蓍龟	-11.4445
诸侯恣行	-11.4445
俟	-11.4445
师涓	-11.4445
髡钳	-11.4445
拟於	-11.4445
阖	-11.4445
嗛	-11.4445
毋望之	-11.4445
润泽	-11.4445
纷纷	-11.4445
懈	-11.4445
胥童	-11.4445
蚡冒	-11.4445
鼎湖	-11.4445
晋公子重耳	-11.4446
蘧伯玉	-11.4446
韩王信於代	-11.4446
嗜酒	-11.4446
巫蛊	-11.4446
无可柰何	-11.4446
朱虚侯刘章	-11.4446
觞	-11.4446
赐爵列侯	-11.4446
秦将白起	-11.4446
钓	-11.4446
乙亥	-11.4446
沃野	-11.4446
絺	-11.4446
桑麻	-11.4446
史佚	-11.4446
知与不知	-11.4446
赴秦军	-11.4446
朱亥	-11.4446
祖伊	-11.4446
蔡叔度	-11.4446
雍五畤	-11.4446
神祇	-11.4446
江淮间	-11.4446
累千金	-11.4446
闾里	-11.4447
朽	-11.4447
丞史	-11.4447
唐虞之际	-11.4447
楚庄王围郑	-11.4447
负薪	-11.4447
累巨万	-11.4447
夷蛮	-11.4447
清静	-11.4447
▁文公元年	-11.4447
八卦	-11.4447
大王诚能听臣	-11.4447
朝冉阝	-11.4447
屈丐	-11.4447
新秦中	-11.4447
产业	-11.4447
公孙鞅	-11.4448
番阳	-11.4448
骖乘	-11.4448
周宣王即位	-11.4448
吕省	-11.4448
朱公长男	-11.4448
将下军	-11.4448
南面而王	-11.4448
辅翼	-11.4448
雨雪	-11.4448
明月之珠	-11.4448
田需	-11.4448
元封元年	-11.4448
五铢钱	-11.4449
细柳	-11.4449
置东郡	-11.4449
李由	-11.4449
姜原	-11.4449
蒲陶	-11.4449
脩成君	-11.4449
减宣	-11.4449
右臂	-11.4449
燿	-11.4449
群臣皆贺	-11.4449
屈完	-11.4449
下井陉	-11.4449
建汉家	-11.4449
根本	-11.445
耨	-11.445
未有所定	-11.445
羁旅之臣	-11.445
文学之士	-11.445
祁连山	-11.445
招摇	-11.445
陵迟	-11.445
暴戾	-11.445
赏罚	-11.445
高垒	-11.445
宽舒	-11.445
五百斤	-11.445
孙文子	-11.445
并吞	-11.445
入宿卫	-11.4451
建为郎中令	-11.4451
未肯	-11.4451
鲍氏	-11.4451
帷中	-11.4451
困敦	-11.4451
惜哉	-11.4451
寒暑	-11.4451
王赧	-11.4451
悉起兵	-11.4451
仲弓	-11.4451
迷	-11.4451
接舆	-11.4451
翟犬	-11.4452
为内臣	-11.4452
孤寡	-11.4452
流血	-11.4452
乃使蒙恬	-11.4452
践土	-11.4452
祠后土	-11.4452
之统	-11.4453
晚节	-11.4453
五百岁	-11.4453
属汉	-11.4453
诞	-11.4453
十五岁	-11.4453
伎能	-11.4453
弑其君厉公	-11.4453
赵使廉颇将	-11.4453
樊将军	-11.4453
吕臣军	-11.4453
牢具	-11.4453
黄老言	-11.4453
屠咸阳	-11.4453
孔子在陈	-11.4453
玉灵	-11.4454
秦下甲	-11.4454
施惠	-11.4454
姑师	-11.4454
宛朐	-11.4454
百鬼	-11.4454
会垓下	-11.4454
不相袭	-11.4454
市买	-11.4454
彊弱之	-11.4454
大逆无道	-11.4454
为从长	-11.4455
终而复始	-11.4455
孝惠帝崩	-11.4455
今上即位	-11.4455
厉公突	-11.4455
居巢	-11.4455
通西南夷	-11.4455
所杀伤	-11.4455
单父	-11.4455
天瑞	-11.4455
六寸	-11.4455
食不重	-11.4456
西域	-11.4456
为外臣	-11.4456
太宰	-11.4456
为上卿	-11.4456
财币	-11.4457
管蔡	-11.4457
以拒	-11.4457
死不恨矣	-11.4457
生子三人	-11.4457
二匹	-11.4457
符玺	-11.4457
千秋	-11.4458
性命	-11.4458
动静	-11.4458
卫皇后	-11.4459
形容	-11.4459
卬等	-11.4459
亢父	-11.4459
桃侯	-11.4459
不敏	-11.446
丹徒	-11.446
求仙人	-11.446
玩	-11.446
楚灭陈	-11.446
吴太宰嚭	-11.446
己酉	-11.446
姬姓	-11.446
犯禁	-11.4461
射猎	-11.4461
委命	-11.4461
乾侯	-11.4461
秦王跽	-11.4461
萧相国	-11.4461
为大逆	-11.4462
鬼臾区	-11.4462
白公胜	-11.4462
勿许	-11.4462
闭门	-11.4463
血食	-11.4463
灭智伯	-11.4463
梁王彭越	-11.4463
太祖	-11.4463
慕义	-11.4463
摄政	-11.4464
胡衍	-11.4464
轵道	-11.4464
许历	-11.4464
莫府	-11.4464
注意	-11.4464
数千万	-11.4464
少恩	-11.4464
戎姬	-11.4464
绝无后	-11.4464
追亡人	-11.4465
中牟	-11.4465
益食邑	-11.4465
诸侯并起	-11.4465
范叔	-11.4465
烈士	-11.4465
失职	-11.4466
亢礼	-11.4466
堂下	-11.4466
虎狼之国	-11.4466
弗克	-11.4467
食顷	-11.4467
破布军	-11.4467
千馀家	-11.4467
通经术	-11.4468
穆侯	-11.4468
朱方	-11.4468
如厕	-11.4469
沛公引兵	-11.4469
以令诸侯	-11.4469
何面目	-11.4469
祸及	-11.4469
专权	-11.4469
反梁地	-11.4469
上下和	-11.4469
乾封	-11.4469
救火	-11.447
窃为陛下	-11.447
百姓不亲	-11.447
兆民	-11.447
祝官	-11.447
折节	-11.447
之要	-11.4471
结怨	-11.4471
立楚后	-11.4472
淫佚	-11.4472
日暮	-11.4472
韩王成	-11.4473
廉直	-11.4473
躁公	-11.4473
会稽郡	-11.4473
避世	-11.4474
免冠谢	-11.4474
为符	-11.4474
与楚战	-11.4475
范阳	-11.4475
章台	-11.4475
节奏	-11.4475
子共侯	-11.4475
河西地	-11.4475
苟能	-11.4475
豨等	-11.4475
秦灭魏	-11.4476
▁汉三年	-11.4476
陈豨反	-11.4476
声音	-11.4476
成康	-11.4476
蒙武	-11.4476
魏败我	-11.4477
岁孰	-11.4477
封为列侯	-11.4477
不敢复言	-11.4477
年月	-11.4477
季胜	-11.4478
虞夏之	-11.4478
遂围邯郸	-11.4478
纵酒	-11.4478
孤弱	-11.4479
厕中	-11.4479
小儿	-11.448
楚考烈王	-11.4481
可图也	-11.4481
一舍	-11.4481
为右内史	-11.4481
乡风	-11.4482
济阳	-11.4482
诸侯畔秦	-11.4482
王翳	-11.4482
承意	-11.4482
司马尚	-11.4482
家僮	-11.4482
骑劫	-11.4482
奇物	-11.4483
许负	-11.4483
望祀	-11.4483
春秋之义	-11.4483
奉璧	-11.4483
渔父	-11.4483
爱姬	-11.4483
行收兵	-11.4484
公子胡亥	-11.4484
召忽	-11.4484
灭南越	-11.4485
三郤	-11.4485
卧内	-11.4485
汝阴	-11.4485
禄父	-11.4486
申徒	-11.4486
周幽王为犬戎所	-11.4486
白帝	-11.4486
出武关	-11.4486
脱身	-11.4486
▁其夏	-11.4487
交疏	-11.4487
以国从	-11.4488
肃然	-11.4488
象郡	-11.4488
太子圉	-11.4488
於徐州	-11.4489
如其故	-11.4489
图书	-11.4489
境内	-11.4489
无双	-11.4489
帝武丁	-11.449
共攻秦	-11.449
终不肯	-11.449
或谓	-11.449
杨信	-11.4491
西垂	-11.4491
将闾	-11.4491
千里马	-11.4491
北救赵	-11.4492
庐江王	-11.4492
取妇	-11.4492
何能为	-11.4492
闻命	-11.4493
色白	-11.4493
分散	-11.4494
诈力	-11.4494
不窋	-11.4494
明廷	-11.4495
政由	-11.4495
万岁	-11.4495
奸邪	-11.4496
遂自刭	-11.4497
离石	-11.4497
无厌	-11.4498
之伦	-11.4498
哀哉	-11.4499
九泽	-11.4499
迁蜀	-11.4499
夏姬	-11.4499
吏二千石	-11.45
先王之道	-11.45
少傅	-11.4501
周兰	-11.4501
逃去	-11.4501
未形	-11.4501
高奴	-11.4502
大破秦军	-11.4502
可致也	-11.4503
公季	-11.4503
十分	-11.4503
众口	-11.4504
以赡	-11.4504
无伤也	-11.4504
丞相李斯	-11.4505
自恣	-11.4505
深而	-11.4506
庆郑	-11.4506
是为平王	-11.4506
之为人也	-11.4507
驺子	-11.4508
诛吕氏	-11.4508
旧闻	-11.4508
荣名	-11.4508
中热	-11.4508
义纵	-11.4509
击彭越	-11.4509
赤帝	-11.451
袁盎等	-11.451
上柱国	-11.4511
私学	-11.4511
共伯	-11.4511
见舞	-11.4511
成纪	-11.4512
奔走	-11.4512
周平王	-11.4512
信谗	-11.4512
许田	-11.4514
不为礼	-11.4514
八风	-11.4514
九河	-11.4516
蒲将军	-11.4516
亦且	-11.4517
六里	-11.4517
东壁	-11.4517
与秦平	-11.4518
天下莫不	-11.4518
吕太后时	-11.4519
败散	-11.4519
岁首	-11.4519
无益也	-11.4521
立诸吕为	-11.4521
泗水王	-11.4523
吾不能	-11.4524
车甲	-11.4524
能忍	-11.4525
守御	-11.4525
苦身	-11.4525
夷灭	-11.4527
病不死	-11.4528
中衍	-11.453
遗单于	-11.4531
生少子	-11.4532
东取	-11.4533
大索	-11.4533
失礼	-11.4533
高唐	-11.4534
诸将相	-11.4534
徐来	-11.4534
田先生	-11.4535
战斗	-11.4535
入临菑	-11.4535
择焉	-11.4536
鲍子	-11.4536
利几	-11.4536
韩康子	-11.4536
不乏	-11.4536
陵母	-11.4537
便利	-11.4537
两城	-11.4537
周鼎	-11.4537
东击楚	-11.4538
子胡亥	-11.4538
十一人	-11.4538
遍天下	-11.4538
丞相弘	-11.4538
北伐齐	-11.4538
新安	-11.4539
!’	-11.4539
宗彊	-11.4539
发兵攻	-11.4539
梁伯	-11.454
关内	-11.4541
七十人	-11.4541
施于	-11.4541
匡人	-11.4543
’?	-11.4543
王温舒	-11.4543
冉有	-11.4543
尊周室	-11.4544
甘言	-11.4545
五十五年	-11.4545
使人报	-11.4546
廷中	-11.4547
霸王之业	-11.4547
奉教	-11.4548
太平	-11.4549
梦见	-11.4549
王年少	-11.4549
公子重耳	-11.4549
不敢进	-11.4549
兴也	-11.4549
是为灵公	-11.4549
魏有信陵	-11.4551
得所欲	-11.4551
居室	-11.4551
成王命	-11.4552
宁能	-11.4552
▁汉五年	-11.4552
天之所	-11.4553
正直	-11.4553
首山	-11.4554
夏桀	-11.4554
府中	-11.4554
丞相嘉	-11.4555
破赵	-11.4555
不愧	-11.4555
使我	-11.4555
子共公	-11.4556
不寤	-11.4556
上下相	-11.4556
候在	-11.4556
七世	-11.4557
历数	-11.4558
长策	-11.4558
赵王迁	-11.4559
一都尉	-11.4559
交易	-11.456
为孝文皇帝	-11.456
成王既	-11.456
之始也	-11.4561
百数	-11.4561
过期	-11.4561
田和	-11.4565
哀王立	-11.4565
好气	-11.4566
文理	-11.4566
请为君	-11.4567
法章	-11.4567
狱中	-11.4568
请谨	-11.4569
臣愿得	-11.4569
明白	-11.457
王闻	-11.457
欲与俱	-11.4571
一岁中	-11.4572
宿留	-11.4572
独擅	-11.4573
小邑	-11.4576
其为人	-11.4577
庄伯	-11.4577
十馀世	-11.4577
刚毅	-11.4577
阴令	-11.4577
交通	-11.4578
学士	-11.4578
日久	-11.4578
燕哙	-11.4579
官爵	-11.458
孝成王	-11.4582
田都	-11.4582
其雠	-11.4583
辟彊	-11.4583
徐君	-11.4584
趋出	-11.4584
公孙喜	-11.4585
弗诛	-11.4585
葬於	-11.4586
乃详	-11.4587
学者多	-11.4588
最后	-11.4589
则生	-11.4589
三千里	-11.4591
喜士	-11.4593
背楚	-11.4594
自出	-11.4594
谏说	-11.4594
仙者	-11.4594
力士	-11.4594
禁中	-11.4596
独柰何	-11.4596
在侧	-11.4598
王何不	-11.4598
於明堂	-11.4599
约降	-11.46
雨霁	-11.4601
以法诛	-11.4601
三长史	-11.4603
有口	-11.4603
至函谷关	-11.4604
尊主	-11.4607
太卜	-11.4607
数万骑	-11.4608
辄复	-11.4608
曾子	-11.4608
遂登	-11.4608
而敬	-11.4608
慎毋	-11.4609
人或谓	-11.4609
流亡	-11.4609
无咎	-11.4609
民疾疫有	-11.4614
弗取	-11.4614
顿首谢	-11.4615
有力	-11.4616
喜怒	-11.4617
为敌国	-11.4617
德焉	-11.4618
可谓无	-11.462
言诗	-11.4621
秦王觉	-11.4621
亲近	-11.4622
已拔	-11.4622
焉而死	-11.4622
未知其	-11.4623
为楚相	-11.4624
两军	-11.4624
世间	-11.4624
立为皇后	-11.4625
缪王	-11.4626
守也	-11.4627
夏阳	-11.4627
事情	-11.4629
齐襄王	-11.463
引归	-11.463
异哉	-11.463
子哀公	-11.463
大圣	-11.4633
为楚将	-11.4633
当单于	-11.4634
诸物	-11.4635
太子即位	-11.4636
势异	-11.4637
尽灭之	-11.4637
弥子	-11.4637
於是缪公	-11.4637
欲作乱	-11.464
与萧何	-11.4643
至九卿	-11.4644
共侯	-11.4644
举贤	-11.4644
年六十	-11.4647
▁孝惠帝	-11.4649
背秦	-11.465
乘传	-11.465
於庭	-11.4651
立沛公为汉王	-11.4651
楚惠王	-11.4655
弱燕	-11.4655
始都	-11.4656
时变	-11.4657
受书	-11.4658
平阴	-11.4658
桓楚	-11.4658
因袭	-11.466
知其贤	-11.4661
进食	-11.4665
数让	-11.4665
公族	-11.4666
方士言	-11.4666
多变	-11.4666
击黥布	-11.4667
入蜀	-11.4667
果反	-11.467
陈侯	-11.467
辄死	-11.4671
殿门	-11.4672
不足忧	-11.4673
天官	-11.4673
吏士	-11.4674
殷道	-11.4677
楚王信	-11.4677
翟人	-11.4677
景帝崩	-11.4678
七千	-11.4679
少文	-11.4679
绝其粮	-11.4679
定计	-11.468
国之王	-11.4681
三让	-11.4681
数动	-11.4682
闻盗	-11.4682
世莫知	-11.4683
江都王	-11.4683
子成公	-11.4683
游猎	-11.4686
偿之	-11.4687
宣侯	-11.4687
不克	-11.4692
三千户	-11.4693
族灭	-11.4693
北宫	-11.4694
虞君	-11.4695
无一人	-11.4698
十四年卒	-11.4698
有天下者	-11.4701
贤才	-11.4701
不肯见	-11.4702
汉王赐	-11.4702
空言	-11.4704
治尚书	-11.4705
有男	-11.4706
勿使	-11.4706
少孔子	-11.4707
▁文公	-11.4707
有国者	-11.4707
争长	-11.4707
占於	-11.4708
独身	-11.4709
成山	-11.471
我先王	-11.4711
不敢归	-11.4712
卫士	-11.4713
不得还	-11.4714
吾是以	-11.4716
大赦	-11.4718
入谢	-11.4718
食客	-11.4718
晋六卿	-11.472
吾今	-11.4721
最彊	-11.4722
以五百金	-11.4723
善恶	-11.4725
景王	-11.4727
为鲁公	-11.4728
於是桓公	-11.473
之田	-11.473
收韩	-11.4732
正西	-11.4733
谢秦	-11.4733
西山	-11.4734
是以后	-11.4734
▁威王	-11.4735
吾视	-11.4735
弗礼	-11.4737
▁哀王	-11.4739
方正	-11.4739
散卒	-11.474
佩之	-11.4743
太史公曰	-11.4746
然犹	-11.4747
自将兵	-11.4747
复遣	-11.4749
方者取	-11.475
尊秦	-11.4751
使人来	-11.4751
决疑	-11.4751
爱士卒	-11.4754
力能	-11.4755
夜行	-11.4757
不便者	-11.4757
下蔡	-11.4758
两人相	-11.4758
军吏皆	-11.4761
击吴楚	-11.4761
名都	-11.4764
围燕	-11.4764
兴兵诛	-11.4765
率兵	-11.4766
子胥谏	-11.4766
不对	-11.4766
五丈	-11.4767
安于	-11.4768
政在	-11.4769
无所见	-11.4769
归与	-11.4771
而致	-11.4771
往会	-11.4772
上寿	-11.4776
既定	-11.4776
万民之	-11.4776
太后弟	-11.4779
自伤	-11.478
南诛	-11.4781
子卿	-11.4783
於是遣	-11.4784
则不然	-11.4784
言万物之	-11.4787
快意	-11.4788
者斩	-11.4789
卫侯	-11.4789
进取	-11.479
谥曰	-11.4792
以谢	-11.4794
又欲	-11.4794
已行	-11.4798
教我	-11.4799
发怒	-11.48
子悼公	-11.4801
贞子	-11.4804
县中	-11.4805
请服	-11.4807
不满	-11.4808
数世	-11.4809
东帝	-11.481
立石	-11.4812
公不如	-11.4814
收天下	-11.4814
惠公立	-11.4814
百二十	-11.4815
至辽东	-11.4816
南至於	-11.4817
竟死	-11.4818
不肖者	-11.4819
而杀之	-11.482
攻卫	-11.482
信臣	-11.4822
异道	-11.4823
灭六国	-11.4825
有夏	-11.4825
於齐而	-11.4825
争天下	-11.4826
国邑	-11.4828
乃大怒	-11.4828
断其	-11.4831
用一	-11.4833
吾得	-11.4833
中废	-11.4835
之父曰	-11.4836
之祸也	-11.4837
有名	-11.4844
▁釐公	-11.4846
且降	-11.4846
襄公元年	-11.4848
城数十	-11.4849
封之於	-11.485
子鱼	-11.485
将其众	-11.4851
戮之	-11.4851
不自知	-11.4854
计功	-11.4855
吾不如	-11.4855
弗从	-11.4861
者事之	-11.4861
逐北	-11.4862
直言	-11.4865
今齐	-11.4865
常先	-11.4866
与秦会	-11.4867
今寡人	-11.487
而虏	-11.4871
颂曰	-11.4872
以御	-11.4873
与彭越	-11.4874
立为太子	-11.4875
伏甲	-11.4876
受地	-11.4878
之咸阳	-11.4878
二世怒	-11.488
亲信	-11.4881
不善者	-11.4882
以为郡	-11.4883
五战	-11.4884
为前将军	-11.4885
中都	-11.4887
者数百人	-11.4887
最贤	-11.4888
文吏	-11.4892
▁宣王	-11.4895
於天下也	-11.4896
所论	-11.4896
孤臣	-11.4898
不往	-11.4899
无所用	-11.4899
为何	-11.4903
鞅曰	-11.4907
民心	-11.4911
短也	-11.4913
致天下	-11.4916
轸曰	-11.4917
民劳	-11.4918
天下之中	-11.492
雠也	-11.4923
淫於	-11.4924
贵人也	-11.4925
失时	-11.4925
患害	-11.4926
出门	-11.4926
两君	-11.4926
地之	-11.4929
其所以	-11.4929
塞之	-11.4933
▁田常	-11.4933
以为不可	-11.4935
加以	-11.4936
▁子曰	-11.4938
”。“	-11.494
凡二十	-11.494
田中	-11.4944
之身	-11.4945
穆公卒	-11.4946
恨之	-11.4949
广国	-11.4953
誉之	-11.4955
甚急	-11.4956
资也	-11.4957
侵暴	-11.4957
君不如	-11.4957
为晋君	-11.4961
死耳	-11.4961
以为名	-11.4963
考之	-11.4963
臣能	-11.4963
欲止	-11.4964
奔翟	-11.4964
遣人	-11.4965
▁简公	-11.4966
其福	-11.4966
莫大於	-11.4967
主命	-11.4968
用乐	-11.497
犹不能	-11.4972
曹子	-11.4974
何病	-11.4979
首事	-11.4979
容也	-11.4983
其东	-11.4984
邑中	-11.4985
何以教	-11.4988
将战	-11.4989
入彭城	-11.4994
今单于	-11.4995
神明之	-11.4999
降赵	-11.5002
臣进	-11.5004
安危之	-11.5005
俱事	-11.5006
而已也	-11.5006
后三岁	-11.501
其状	-11.501
於此者	-11.5016
天子问	-11.5018
太后亦	-11.502
三万骑	-11.5021
不审	-11.5024
子献公	-11.5024
及左右	-11.5027
最少	-11.5028
归葬	-11.5028
广之	-11.503
其宗	-11.5036
弗及	-11.5038
使白起	-11.5039
以谗	-11.5039
而修	-11.5042
三者	-11.5042
既出	-11.5044
三能	-11.5044
▁五月	-11.5046
汉王使	-11.5047
皆城守	-11.5049
迎代王	-11.5052
虽彊	-11.5052
▁襄王	-11.5055
由此益	-11.5059
且吾	-11.5065
以为郎	-11.5069
不敢受	-11.507
甘泉宫	-11.5071
女主	-11.5072
竟立	-11.5076
以续	-11.5079
苟有	-11.5081
太子忽	-11.5082
赵利	-11.5082
万五千	-11.5083
党之	-11.5083
皆各	-11.5084
失行	-11.5084
请问	-11.5087
大鸟	-11.5087
节用	-11.5088
发明	-11.5088
魏有	-11.5092
东道	-11.5093
杀其父	-11.5096
若是者	-11.5097
为天	-11.5102
龙且军	-11.5103
报怨	-11.5106
其麾下	-11.5108
发於	-11.511
▁襄公	-11.511
配天	-11.5116
韩说	-11.5117
不时	-11.5124
生长	-11.5127
五侯	-11.5127
远去	-11.5138
此国	-11.5141
往从	-11.5142
乃亡去	-11.5142
窦	-11.5144
东地	-11.5148
子之言	-11.5149
无反	-11.5149
其面	-11.515
遂往	-11.515
外自垂	-11.5151
遂称病	-11.5152
长数	-11.5153
一男	-11.5154
王弗听	-11.5159
辞曰	-11.516
如吴	-11.5162
不拜	-11.5162
至楚	-11.5164
能致	-11.5166
安民	-11.5169
避之	-11.5173
特以	-11.5174
之薛	-11.5174
不忧	-11.5175
终不敢	-11.5179
未生	-11.5182
为资	-11.5182
此类	-11.5189
之极	-11.519
反晋	-11.5194
两女	-11.5195
公子扶苏	-11.5198
不辟	-11.5198
与天地	-11.5201
而益	-11.5204
乃置酒	-11.521
之民也	-11.5212
思王	-11.5212
西兵	-11.5214
河阳	-11.5216
有黄	-11.5218
其敝	-11.5224
武王立	-11.5226
请令	-11.5229
急则	-11.523
战死	-11.5231
以大	-11.5233
且待	-11.5235
然尚	-11.5235
所疑	-11.5236
君必	-11.5245
献於	-11.5247
难得	-11.5247
不让	-11.5247
为足下	-11.5251
相随	-11.5254
七庙	-11.5256
明诏	-11.526
不得与	-11.5265
三弟	-11.5267
其后人有上书	-11.5268
▁赵高	-11.5273
亦宜	-11.5279
观兵	-11.5279
弃去	-11.5289
使人迎	-11.529
有度	-11.5293
而当	-11.5295
汤武之	-11.5295
使人微	-11.5297
宁有	-11.5297
为韩王	-11.5297
使龙且	-11.5297
南国	-11.5298
其辩	-11.5302
灭赵	-11.5305
所虏	-11.531
文马	-11.5314
肃王	-11.5316
验之	-11.5319
三行	-11.5322
请奏	-11.5326
至其	-11.533
燕见	-11.534
以正月	-11.5344
安定	-11.5346
韩信军	-11.5348
为五	-11.5348
而用之	-11.5348
因家	-11.5348
欲战	-11.5349
所处	-11.5352
▁魏其	-11.536
其指	-11.5361
遂奔	-11.5369
虽未	-11.5378
有物	-11.5379
占之	-11.5384
县令	-11.5389
至德	-11.5395
先下	-11.5395
亦不得	-11.5396
受金	-11.54
乱臣	-11.5401
反汉	-11.5401
典之	-11.5403
於是天子曰	-11.5415
荆轲之	-11.5416
则安	-11.5418
足恃	-11.542
无亲	-11.5427
寡人虽	-11.5428
争言	-11.5438
子游	-11.5443
儿子	-11.5446
列於	-11.5447
则乱	-11.545
谏者	-11.545
之旗	-11.5451
战战	-11.5453
谋及	-11.5456
其手	-11.5463
罔不	-11.5464
▁灵公	-11.5465
何以言	-11.5469
名士	-11.5473
骑驰	-11.5475
死之后	-11.548
▁相如	-11.5484
得亡	-11.5485
不流	-11.549
乃因	-11.5492
之形	-11.5494
贤豪	-11.5503
浮於	-11.5507
归魏	-11.5513
人之有	-11.5515
上党郡	-11.5518
验问	-11.5528
为蔡	-11.5531
於是武王	-11.5532
宾客皆	-11.5534
世主	-11.5536
幽厉	-11.5543
以为大夫	-11.5545
有验	-11.5554
迎立	-11.5555
后元年	-11.5557
三胜	-11.5558
非子	-11.5562
先见	-11.5562
去齐	-11.5562
文王病	-11.5564
曾无	-11.5574
败秦	-11.5577
城上	-11.5579
遂成	-11.5583
所封	-11.5586
奔于	-11.5586
山阳	-11.5595
有言曰	-11.5597
国都	-11.5598
弗得	-11.5599
所贵	-11.5599
秦之攻	-11.5605
为县	-11.561
五百里	-11.5611
亦杀	-11.5616
为酒	-11.5627
符节	-11.563
天下畔	-11.5638
事魏	-11.5644
亡将	-11.5647
陈涉之	-11.5648
渡河击	-11.5653
倍秦	-11.5661
骊姬之	-11.5663
二十馀万	-11.5663
天子使	-11.5664
初封	-11.5683
未可知也	-11.5687
民无	-11.5693
欲用	-11.5704
地也	-11.5704
下士	-11.572
复定	-11.5724
君之所	-11.5725
陛下幸	-11.5727
申功	-11.5732
以宁	-11.5736
於是高祖	-11.5741
昼晦	-11.5745
客皆	-11.5747
▁凡	-11.575
天下安	-11.5752
然而不	-11.5756
长幼	-11.5757
彊起	-11.5757
关梁	-11.5764
以四时	-11.5765
将众	-11.577
出乎	-11.5772
之疆	-11.5778
而雍	-11.5778
失天下	-11.5786
其岁	-11.5786
伤人	-11.5789
之妻	-11.5792
失国	-11.5798
无益	-11.5799
而伐齐	-11.5799
为和	-11.5805
能胜	-11.5807
荥阳东	-11.5822
景公卒	-11.5823
卫献公	-11.5824
有命	-11.5825
迎公子	-11.5826
霸天下	-11.5845
至吴	-11.5849
攻胡	-11.585
以文学	-11.5853
百石	-11.5853
还过	-11.5854
为吴	-11.5855
归齐	-11.5864
私与	-11.5865
涉河	-11.5866
无使	-11.5867
既归	-11.5875
其霸	-11.5877
度淮	-11.588
子嗣	-11.5884
土功	-11.5887
已降	-11.5887
入北军	-11.5888
四十三	-11.5888
至雍	-11.59
召赵王	-11.5908
虽多	-11.5909
乐而不	-11.5911
遂复	-11.5915
五日而	-11.5917
平王之	-11.592
权轻	-11.5922
欲袭	-11.5924
夕出	-11.5925
尽去	-11.594
趣之	-11.5943
而行之	-11.5943
为大国	-11.5946
为灵王	-11.5947
楚众	-11.5949
女乐	-11.5951
本纪言	-11.5956
作乐	-11.5965
公子雍	-11.5967
为兵	-11.5968
使张仪	-11.5969
过陈	-11.597
则不可	-11.5973
进言	-11.5985
发兵距	-11.599
而专	-11.5991
劫其	-11.6008
吾適	-11.6013
听於	-11.6014
言灌夫	-11.6019
专以	-11.6033
复置	-11.6037
相善	-11.6042
上马	-11.6043
封于	-11.6044
放逐	-11.6046
以为天下	-11.605
击楚军	-11.6055
所重	-11.6057
皆亡	-11.6057
苟合	-11.6066
二十九	-11.6073
凡七	-11.6086
闻声	-11.6087
正东	-11.6094
乃疑	-11.6101
所以亡	-11.6105
请事	-11.6105
一士	-11.6107
告急於	-11.6107
以公子	-11.6109
九川	-11.6111
不能过	-11.612
夏徵舒	-11.6129
什二	-11.6133
所诛	-11.6137
与其弟	-11.6143
▁管仲	-11.6144
於雍	-11.6153
女为后	-11.6169
四十六	-11.6174
之诸公子	-11.6175
子阳	-11.6175
名闻天下	-11.6179
无由	-11.6179
先立	-11.6184
其友	-11.6184
命乎	-11.6185
变法	-11.6191
所从	-11.6196
十六年卒	-11.6197
其御	-11.62
俱出	-11.6201
得出	-11.6208
季次	-11.6209
亦死	-11.6217
为人所	-11.6219
君子不	-11.6219
还兵	-11.622
临河	-11.6221
罢於	-11.6224
人事	-11.6224
封万户	-11.623
有郄	-11.6248
将兵击	-11.6253
使公孙	-11.6259
自持	-11.6259
天下定	-11.6267
枚	-11.628
太半	-11.628
汉公卿	-11.6281
不能制	-11.6282
攻南阳	-11.6285
有日	-11.6288
如楚	-11.6294
且尽	-11.6297
神仙	-11.6303
关外	-11.6303
好书	-11.631
祸及身	-11.6313
谓楚王	-11.6317
三家	-11.6319
乃驰	-11.6347
吾弟	-11.6349
其亲	-11.635
变更	-11.6355
之理也	-11.6359
或闻	-11.636
当行	-11.6362
亦怒	-11.6364
尊重	-11.6366
固也	-11.6368
魏君	-11.637
土地	-11.6373
奉明	-11.6374
其阴	-11.6384
中阳	-11.6385
发兵击	-11.6401
坐法当	-11.6406
为兄弟	-11.6408
随畜	-11.6416
罪三	-11.6425
奔随	-11.6439
文公之	-11.6448
吏皆	-11.6453
主君	-11.6454
文侯卒	-11.6455
林中	-11.6465
悼武王	-11.6473
中郎将	-11.6473
侍祠	-11.6474
之俗	-11.6477
右手	-11.6487
之雠	-11.6489
尽并	-11.6492
以为高	-11.6498
项梁军	-11.6516
陛下虽	-11.6524
淮南王黥布	-11.6526
乃释	-11.6527
晕	-11.6539
怀诈	-11.6542
卜而	-11.6542
凡四	-11.6547
暴逆	-11.6552
爱子	-11.6555
民众	-11.6558
攻代	-11.6566
告缗	-11.657
绝赵	-11.6575
门人	-11.6576
列城	-11.6579
出定襄	-11.6585
立代王	-11.6585
遂不	-11.6593
夏太后	-11.6602
左右或	-11.661
举以为	-11.6615
而发兵	-11.6616
皇帝敬拜	-11.6619
彊齐	-11.6624
五百金	-11.6634
此三人	-11.6637
引兵还	-11.664
灭陈	-11.6644
闺	-11.6652
教寡人	-11.6658
众多	-11.6661
戎翟之	-11.6675
子仲	-11.6676
沛公为汉王	-11.6678
▁范睢	-11.6679
为儿	-11.6679
去我	-11.6682
杀臣	-11.6684
为币	-11.6687
以春秋	-11.6707
边郡	-11.6716
自迎	-11.6726
▁当是	-11.6729
足肣首仰	-11.6729
上军	-11.673
昭公卒	-11.6737
七十馀城	-11.6742
三月丙	-11.6743
委国	-11.6745
败亡	-11.6745
再至	-11.6747
位在	-11.6752
然所以	-11.6753
赐金	-11.6757
使人上书	-11.6763
灵公卒	-11.6776
赡	-11.6777
六十四	-11.6782
颜回	-11.6785
骑将军	-11.6796
以顺	-11.6798
地小	-11.6801
数上书	-11.6808
有乱	-11.6808
命国	-11.6811
一二	-11.6818
番	-11.6821
罪一	-11.6823
多少	-11.6824
禳	-11.6832
太宗	-11.6832
王龁	-11.6832
诸吏	-11.6834
会饮	-11.6835
控弦	-11.6842
如之	-11.6847
虏魏王	-11.6854
李延年	-11.6859
夫轻	-11.6862
恶太子	-11.6863
削其	-11.6867
周太史	-11.6867
质於秦	-11.6867
人迹	-11.6871
婚姻	-11.6877
齐七十馀城	-11.6882
阿房	-11.6883
龁	-11.6885
二十有	-11.6887
瓠	-11.6889
簿	-11.6898
千匹	-11.6899
脉法	-11.6901
藩臣	-11.6901
赦罪人迁之	-11.6901
及孝文帝	-11.6901
群臣或	-11.6902
则致	-11.6903
公何不	-11.6903
羲	-11.6908
共公卒	-11.6908
与楚王会	-11.6911
为王后	-11.6913
贰	-11.6917
郐	-11.6917
牟	-11.6918
井陉	-11.6918
即日	-11.6919
潢	-11.692
喟然	-11.692
徐偃	-11.6921
彘肩	-11.6921
宋公	-11.6921
绎	-11.6921
令尹子西	-11.6922
发兵西	-11.6923
桑弘羊	-11.6924
挑	-11.6924
圣主	-11.6924
陛	-11.6924
剧	-11.6925
毒	-11.6925
枢	-11.6926
呕	-11.6926
太息曰	-11.6926
泱	-11.6927
老妇	-11.6929
瓯	-11.6929
为匈奴所	-11.6929
▁焉逢	-11.693
霜	-11.6931
华山之阳	-11.6931
必兴师伐之	-11.6931
师旅	-11.6932
十斤	-11.6932
郧	-11.6932
间者河溢	-11.6932
帅	-11.6932
叩	-11.6933
蒸	-11.6933
撞	-11.6933
济阴	-11.6933
台骀	-11.6933
地士将军	-11.6933
汤伐桀	-11.6933
卞	-11.6934
遽	-11.6934
呈	-11.6934
咫尺之	-11.6934
雷霆	-11.6934
莅	-11.6934
行御史大夫事	-11.6934
斩首二十四万	-11.6935
握	-11.6935
源	-11.6935
膏腴之	-11.6935
队长	-11.6935
斩首四万	-11.6935
元狩	-11.6935
如公言	-11.6935
愕	-11.6935
夥	-11.6935
幄	-11.6935
翟璜	-11.6935
券	-11.6936
偶	-11.6936
臃	-11.6936
孟尝	-11.6936
鄱	-11.6936
杜门不出	-11.6936
睨	-11.6936
縠	-11.6936
铢钱	-11.6937
乔	-11.6937
贡职	-11.6937
混	-11.6937
稾	-11.6937
钜桥之粟	-11.6937
飘	-11.6937
淳于	-11.6937
蓝	-11.6937
枣脯	-11.6937
旰	-11.6937
祇	-11.6937
耆	-11.6937
吴楚七国	-11.6937
董翳	-11.6937
缟	-11.6937
为汉中守	-11.6938
穫	-11.6938
车骑将军青	-11.6938
脾	-11.6938
刀锯	-11.6938
剋	-11.6938
汝阴侯滕公	-11.6938
涓	-11.6938
蓄	-11.6938
以亿计	-11.6938
御史大夫臣汤	-11.6938
此王业也	-11.6938
鸩	-11.6938
外攘四夷	-11.6938
掊	-11.6938
虖	-11.6938
郤芮	-11.6938
靳	-11.6938
展	-11.6938
万全	-11.6939
公叔座	-11.6939
司马长卿	-11.6939
穹庐	-11.6939
设九宾	-11.6939
郿	-11.6939
怏怏	-11.6939
绳墨	-11.6939
遥	-11.6939
帜	-11.6939
土崩之势	-11.6939
声则思	-11.6939
邰	-11.6939
诘	-11.6939
书而藏之	-11.6939
候伺	-11.6939
灰	-11.6939
奭	-11.6939
黄屋	-11.6939
天下大定	-11.6939
攻城野战	-11.6939
武王克殷	-11.6939
拔五城	-11.6939
垂涕	-11.6939
韩相侠累	-11.6939
蒲阪	-11.694
拾	-11.694
黔中郡	-11.694
储	-11.694
将军市被	-11.694
漫	-11.694
涕	-11.694
硜	-11.694
鬻	-11.694
击赵贲	-11.694
殽函之固	-11.694
	-11.694
商於之地	-11.694
千钧	-11.694
沃	-11.694
九国之师	-11.694
铿	-11.694
搤	-11.694
探	-11.694
欃	-11.694
鱼鳖	-11.694
绿	-11.694
娶妇	-11.694
右谷蠡王	-11.694
葴	-11.694
铎	-11.694
隧	-11.694
匠	-11.694
逆无道	-11.694
窜	-11.694
为淮阳太守	-11.694
跨	-11.694
霍去病	-11.694
岸头侯	-11.6941
执珪	-11.6941
不亦难乎	-11.6941
二十八宿	-11.6941
宫殿中	-11.6941
颐	-11.6941
朐	-11.6941
倩	-11.6941
粱	-11.6941
浚	-11.6941
苞	-11.6941
海岱	-11.6941
演	-11.6941
膳	-11.6941
未遑	-11.6941
废勿王	-11.6941
笔	-11.6941
署	-11.6941
磷	-11.6941
贪戾	-11.6941
醪	-11.6941
高二十馀丈	-11.6941
齐王田广	-11.6941
鸱枭	-11.6941
低	-11.6941
啜	-11.6941
羸	-11.6941
筦	-11.6941
窈	-11.6941
茧	-11.6941
释箕子之囚	-11.6941
嘿	-11.6941
饷	-11.6941
惟命是听	-11.6942
会诸侯於葵丘	-11.6942
湟	-11.6942
郈昭伯	-11.6942
牖	-11.6942
斐	-11.6942
汩	-11.6942
臻	-11.6942
协律	-11.6942
恣睢	-11.6942
拊其背	-11.6942
柏梁灾	-11.6942
浃	-11.6942
粜	-11.6942
骏	-11.6942
包胥	-11.6942
藜	-11.6942
丕豹	-11.6942
矢石	-11.6942
以中涓从	-11.6942
旗帜	-11.6942
瑶	-11.6942
笃厚	-11.6942
哆	-11.6942
易子而食	-11.6942
皮牢	-11.6942
崛	-11.6942
万馀顷	-11.6942
孰知夫	-11.6942
它	-11.6942
折而入於	-11.6942
斗鸡走狗	-11.6942
赭	-11.6942
食马肝	-11.6942
慑	-11.6942
朱英	-11.6942
以孝景前二年用皇子为	-11.6942
我之帝所甚乐	-11.6942
枣栗	-11.6942
畎	-11.6942
麦	-11.6942
营陵侯	-11.6942
慈仁	-11.6942
胆	-11.6942
煮海水	-11.6942
玄鹤	-11.6942
以灭口	-11.6942
刳	-11.6942
城市邑十七	-11.6942
批	-11.6942
持两端	-11.6942
深沟	-11.6942
荔	-11.6942
祗	-11.6942
为彊弩将军	-11.6942
慈孝	-11.6942
缭	-11.6942
千里之外	-11.6942
斩首六万	-11.6942
谣俗	-11.6942
鼓瑟	-11.6943
棓	-11.6943
怵	-11.6943
摺	-11.6943
沾	-11.6943
锵	-11.6943
预	-11.6943
东牟侯兴居	-11.6943
奉车子侯	-11.6943
沛公与项羽	-11.6943
沣	-11.6943
鵕	-11.6943
孰大焉	-11.6943
李沮	-11.6943
安釐王	-11.6943
延陵季子	-11.6943
假贷	-11.6943
公山不狃	-11.6943
公玊带	-11.6943
路充国	-11.6943
踊	-11.6943
援琴	-11.6943
鸱夷	-11.6943
其於十母为	-11.6943
崎	-11.6943
黄屋左纛	-11.6943
隗	-11.6943
立张耳为赵王	-11.6943
诸侯毕贺	-11.6943
阳明脉	-11.6943
栾逞	-11.6943
为朕	-11.6943
胸	-11.6943
曳	-11.6943
蹴	-11.6943
与周高都	-11.6943
为平曲侯	-11.6943
吴王将许之	-11.6943
士无贤不肖	-11.6943
教诲	-11.6943
斧钺	-11.6943
泰山下阯	-11.6943
清浊	-11.6943
纶	-11.6943
贳贷	-11.6943
粲	-11.6943
与绛侯等	-11.6943
宜臼	-11.6943
豚	-11.6943
司马欣	-11.6943
摩笄	-11.6943
服外五百里	-11.6943
阅	-11.6943
魂	-11.6943
黄龙见成纪	-11.6943
大司马周殷	-11.6943
济川王	-11.6943
佣	-11.6943
办	-11.6943
众医皆以为	-11.6943
彤	-11.6943
肃慎	-11.6943
世为汉藩辅	-11.6943
伯邑考	-11.6943
压	-11.6943
岛	-11.6943
崇侯虎	-11.6943
所好者音也	-11.6943
有扈氏	-11.6943
械系	-11.6943
王公大人	-11.6943
瘗	-11.6943
砮	-11.6943
胄	-11.6943
虏魏太子申	-11.6943
衍溢	-11.6943
通天台	-11.6943
非刘氏而王	-11.6943
▁游兆	-11.6943
▁端蒙	-11.6943
刺讥	-11.6943
广为骁骑	-11.6944
散宜生	-11.6944
武庚禄父	-11.6944
首虏万九千级	-11.6944
绕	-11.6944
珍怪	-11.6944
大荒落	-11.6944
一角兽	-11.6944
为王计者	-11.6944
孤之愿也	-11.6944
方士求神	-11.6944
汉王之败彭城	-11.6944
貍	-11.6944
践天子位	-11.6944
郑卫之音	-11.6944
钦哉	-11.6944
谣	-11.6944
惲	-11.6944
为砀郡长	-11.6944
以数直谏	-11.6944
剖符世世勿绝	-11.6944
瀛洲	-11.6944
苴	-11.6944
与连和	-11.6944
白璧一双	-11.6944
庑	-11.6944
△	-11.6944
何为於此	-11.6944
壖	-11.6944
悝母	-11.6944
愿大王孰察	-11.6944
新垣平	-11.6944
方士多言	-11.6944
比内诸侯	-11.6944
煮盐	-11.6944
田子方	-11.6944
皙	-11.6944
睚眦	-11.6944
能使物	-11.6944
取三邑	-11.6944
犬戎杀幽王	-11.6944
去地可六丈	-11.6944
周太史儋见	-11.6944
淹茂	-11.6944
上亲禅	-11.6944
上官桀	-11.6944
以木禺马代	-11.6944
六十万人	-11.6944
在异国	-11.6944
奥	-11.6944
好直谏	-11.6944
愆	-11.6944
桮	-11.6944
袴	-11.6944
西伐大宛	-11.6944
旃	-11.6944
齐崔杼弑其君庄公	-11.6944
以其女妻之	-11.6944
杀適立庶	-11.6944
翩	-11.6944
郏敖	-11.6944
釐负羁	-11.6944
▁章邯已破	-11.6944
上官大夫	-11.6944
充后宫	-11.6944
则不可欺以	-11.6944
岂非天哉	-11.6944
斩首捕虏	-11.6944
滂	-11.6944
系颈	-11.6944
肃祗	-11.6944
怼	-11.6944
昌平君	-11.6944
洋洋	-11.6944
以续殷祀	-11.6944
反受其咎	-11.6944
庚寅	-11.6944
张掖	-11.6944
沃丁	-11.6944
蹠	-11.6944
逾句注	-11.6944
儿姁	-11.6944
闾阎	-11.6944
▁凡音	-11.6944
楚公子弃疾弑灵王	-11.6944
▁是时上方	-11.6944
东阳侯张相如	-11.6944
冰	-11.6944
出锐师以佐之	-11.6944
刎	-11.6944
卤获	-11.6944
太卜官	-11.6944
易与耳	-11.6944
浩浩	-11.6944
滈	-11.6944
略韩地	-11.6944
辔	-11.6944
荀彘	-11.6945
销锋	-11.6945
各有差	-11.6945
海中神山	-11.6945
称为长者	-11.6945
蒯成侯	-11.6945
鞅鞅	-11.6945
为周阳侯	-11.6945
榜	-11.6945
鬻熊	-11.6945
拾遗	-11.6945
轴	-11.6945
有星茀于	-11.6945
鄃	-11.6945
摄提	-11.6945
汧	-11.6945
可不慎	-11.6945
夜光之璧	-11.6945
夷眜	-11.6945
家无馀	-11.6945
平原广泽	-11.6945
敢布腹心	-11.6945
曹叔振铎	-11.6945
浣	-11.6945
竖刀	-11.6945
维稽古	-11.6945
言神事	-11.6945
譬犹	-11.6945
铁器	-11.6945
非有求人	-11.6945
贲赫	-11.6945
辟阳侯审食其	-11.6945
马服子	-11.6945
至大官	-11.6945
穷蝉	-11.6945
魏公子无忌	-11.6945
俀	-11.6945
仇液	-11.6945
掘冢	-11.6945
朕承祖考	-11.6945
管叔鲜	-11.6945
虎符	-11.6945
为正卿	-11.6945
冀州	-11.6945
瓮	-11.6945
耕织	-11.6945
觉寤	-11.6945
咨	-11.6945
惛	-11.6945
漦	-11.6945
熨	-11.6945
狐白裘	-11.6945
非其罪也	-11.6945
共和行政	-11.6945
为南越王	-11.6945
场	-11.6945
於仇雠之	-11.6945
皇帝玺	-11.6945
鸣条	-11.6945
少孔子五十	-11.6945
湣王出亡	-11.6945
仕宦	-11.6945
将六将军	-11.6945
榆次	-11.6945
乌有先生	-11.6946
元鼎五年	-11.6946
可移於	-11.6946
康诰	-11.6946
得志於天下	-11.6946
效文成	-11.6946
敷	-11.6946
木禺	-11.6946
舂	-11.6946
不忍致法於王	-11.6946
冉駹	-11.6946
骊戎	-11.6946
世多有	-11.6946
得其利	-11.6946
炎帝	-11.6946
伤脾	-11.6946
姑洗	-11.6946
条枝	-11.6946
赏赐甚多	-11.6946
鲍叔牙	-11.6946
三神山	-11.6946
阁道	-11.6946
师败绩	-11.6946
鄙语曰	-11.6946
李少君	-11.6946
何暇	-11.6946
未尝不废书而	-11.6946
于窴	-11.6946
招贤良	-11.6946
之所及也	-11.6946
取偿於	-11.6946
伐山戎	-11.6946
怠慢	-11.6946
河源	-11.6946
空桐	-11.6946
彫	-11.6946
面谀	-11.6946
岸门	-11.6946
霍太山	-11.6946
侠累	-11.6947
倦而归	-11.6947
六国从亲	-11.6947
元狩元年	-11.6947
逆鳞	-11.6947
军臣单于	-11.6947
倮	-11.6947
宗正刘	-11.6947
飞鸟	-11.6947
螫	-11.6947
季武子	-11.6947
北伐山戎	-11.6947
吾为公	-11.6947
在帝侧	-11.6947
推毂	-11.6947
赢粮	-11.6947
高祖为亭长	-11.6947
卓子	-11.6947
可不谓	-11.6947
以振贫民	-11.6947
纲纪	-11.6947
苛察	-11.6947
商瞿	-11.6947
屯戍	-11.6947
决死生	-11.6947
关雎	-11.6947
指示	-11.6947
棘蒲侯	-11.6947
父母妻子	-11.6947
阴安侯	-11.6947
弋猎	-11.6947
乃诏有司	-11.6947
冉季载	-11.6947
常山王张耳	-11.6947
造白金	-11.6947
用皇子为	-11.6948
杀吾子	-11.6948
由其道则	-11.6948
皋狼	-11.6948
身被坚执锐	-11.6948
鞠武	-11.6948
黄泉	-11.6948
齐秦合	-11.6948
以求割地	-11.6948
幸缑氏城	-11.6948
环渊	-11.6948
赖宗庙	-11.6948
以激怒	-11.6948
嫪毐舍人	-11.6948
筑冀阙	-11.6948
邹衍	-11.6948
锺鼓	-11.6948
器械	-11.6948
寻常	-11.6948
忽忽	-11.6948
能与息者	-11.6948
发巴蜀	-11.6948
秩比	-11.6948
休烈	-11.6948
昧蔡	-11.6948
诀	-11.6948
备员	-11.6949
几杖	-11.6949
明堂图	-11.6949
高傒	-11.6949
为微行	-11.6949
继嗣	-11.6949
无是公	-11.6949
为帝太傅	-11.6949
日有食之	-11.6949
避仇	-11.6949
食客三千人	-11.6949
二十九岁	-11.6949
六艺	-11.6949
饶给	-11.6949
佳	-11.695
朋党	-11.695
自立为代王	-11.695
醳卫	-11.695
▁成公元年	-11.695
以客从	-11.695
百有馀岁	-11.695
鹿台	-11.695
窦氏	-11.695
渭桥	-11.695
救钜鹿	-11.695
饭牛	-11.695
不知所出	-11.695
孟增	-11.695
崔氏	-11.695
汉将韩信	-11.695
陆离	-11.695
白沙	-11.695
桂陵	-11.695
▁太史公读	-11.695
舆鬼	-11.695
元朔六年	-11.695
柰之何	-11.6951
孟贲	-11.6951
智巧	-11.6951
本纪	-11.6951
分裂	-11.6951
今主君	-11.6951
北夷	-11.6951
窥周室	-11.6951
牧羊	-11.6951
年五十七	-11.6951
桀溺	-11.6951
纪纲	-11.6951
太尉周勃	-11.6951
孝景帝即位	-11.6951
平王襄	-11.6951
鲍叔不以我为	-11.6951
单于阏氏	-11.6951
阴使人	-11.6951
颜聚	-11.6951
亚将	-11.6951
慎到	-11.6951
年八十	-11.6951
吾悔不	-11.6951
丁壮	-11.6952
受相印	-11.6952
首俯	-11.6952
司马兵法	-11.6952
僻远	-11.6952
先縠	-11.6952
千树	-11.6952
弃其军	-11.6952
狐偃	-11.6952
溺赤	-11.6952
劲越	-11.6952
虏王离	-11.6952
昆吾	-11.6952
浮海	-11.6952
御史大夫周昌	-11.6953
头痛	-11.6953
有司请诛	-11.6953
铜器	-11.6953
葬长陵	-11.6953
中行偃	-11.6953
收恤	-11.6953
甯喜	-11.6953
覆案	-11.6953
迁为中尉	-11.6953
日蚀	-11.6953
豫章郡	-11.6953
五十里	-11.6954
宣房	-11.6954
家累千金	-11.6954
悲哀	-11.6954
伏尸	-11.6954
击盗不行	-11.6954
富有天下	-11.6954
陶唐	-11.6954
至城下	-11.6954
群臣有言	-11.6954
面折	-11.6954
列侯宗室	-11.6954
季孙	-11.6954
未可以	-11.6954
▁秦二世	-11.6954
园池	-11.6954
晋公子重耳过	-11.6954
赐爵一级	-11.6954
敦厚	-11.6954
陉山	-11.6955
怪迂	-11.6955
▁汉十二年	-11.6955
起丰	-11.6955
为臣妾	-11.6955
分三分二	-11.6955
龙须	-11.6955
李蔡	-11.6955
使公子光伐	-11.6955
绝其祀	-11.6955
慎勿	-11.6955
昏乱	-11.6955
享国十二年	-11.6955
皋陶之后	-11.6955
七尺	-11.6956
王臧等	-11.6956
王蠋	-11.6956
白嬴	-11.6956
夫卜筮者	-11.6956
李离	-11.6956
讥之	-11.6956
申亥	-11.6956
杨仆	-11.6956
吴芮	-11.6956
虚言也	-11.6956
罢敝	-11.6956
郭昌	-11.6956
因河为	-11.6956
左右贤王	-11.6956
闰月	-11.6956
建元二年	-11.6957
张武等	-11.6957
靖公	-11.6957
临汝侯	-11.6957
雷泽	-11.6957
▁今天子	-11.6957
逮捕	-11.6957
游云梦	-11.6957
相子驷	-11.6957
虢射	-11.6957
阿衡	-11.6957
为书谢	-11.6957
不可不察	-11.6957
秦王必喜	-11.6957
允常	-11.6957
大臣诛诸吕	-11.6957
微子开	-11.6957
详惊	-11.6957
罚之属	-11.6958
郭吉	-11.6958
驱驰	-11.6958
焉逢摄提格	-11.6958
姓赵氏	-11.6958
请救於齐	-11.6958
御寇	-11.6958
鱼肉	-11.6958
子綦	-11.6958
浊泽	-11.6958
裂地	-11.6959
经营	-11.6959
十四世	-11.6959
方见上	-11.6959
反逆行	-11.6959
石闾	-11.6959
两虎	-11.6959
慢易	-11.6959
砀郡	-11.6959
商鞅	-11.696
於是项王乃	-11.696
天下莫不闻	-11.696
典客	-11.696
邛都	-11.696
田成子	-11.696
舞阳侯	-11.696
尹夫人	-11.696
临邛令	-11.696
桓公子也	-11.696
歌儿	-11.696
善骑射	-11.6961
伏波将军	-11.6961
出东道	-11.6961
券书	-11.6961
秋豪	-11.6961
贾季	-11.6961
周章军	-11.6961
王馀眜	-11.6961
博戏	-11.6961
十七岁	-11.6961
任敖	-11.6961
大抵尽	-11.6962
多内宠	-11.6962
首仰	-11.6962
自此起	-11.6962
陈筮	-11.6962
江海	-11.6962
幸得脱	-11.6962
东至海上	-11.6962
千馀岁	-11.6962
客有说	-11.6962
乏绝	-11.6963
东击齐	-11.6963
白羊	-11.6963
桓公以霸	-11.6963
高陵君	-11.6963
北击齐	-11.6963
奸利事	-11.6963
惠伯	-11.6963
长五寸	-11.6963
损益	-11.6963
李同	-11.6964
赵郝	-11.6964
等十人	-11.6964
相国吕不韦	-11.6964
登台	-11.6964
白虎	-11.6964
唐蒙	-11.6964
万乘之主	-11.6964
不可胜道	-11.6964
悼侯	-11.6964
字叔	-11.6964
之深也	-11.6965
周旋	-11.6965
而不悔	-11.6965
货物	-11.6965
乐乘走	-11.6965
以安边	-11.6965
六律	-11.6965
分而为	-11.6965
赵肃侯	-11.6965
帐中	-11.6965
殷周之	-11.6965
不知所为	-11.6965
星辰	-11.6965
巫咸	-11.6965
神农	-11.6966
安平君	-11.6966
素骄	-11.6966
燕王旦	-11.6966
卑贱	-11.6966
吕台	-11.6967
朝夕	-11.6967
非计也	-11.6967
诸刘	-11.6967
儒学	-11.6967
给食	-11.6967
险塞	-11.6967
孝武帝	-11.6967
回远	-11.6967
户口	-11.6968
滋甚	-11.6968
入殿门	-11.6968
仙登	-11.6968
交驩	-11.6968
济之间	-11.6968
可二千里	-11.6968
苏氏	-11.6968
▁上遂	-11.6968
睢水	-11.6968
三百馀里	-11.6969
东乡坐	-11.6969
辞不受	-11.6969
病创	-11.6969
適足以	-11.6969
二千馀人	-11.6969
更立公子	-11.6969
目夷	-11.6969
决狱	-11.6969
围王宫	-11.697
嘉穀	-11.697
结宾客	-11.697
西向	-11.697
元首	-11.697
金鼓	-11.697
奔于彘	-11.697
入于河	-11.697
昭伯	-11.697
己丑	-11.6971
匈奴右贤王	-11.6971
郑朱	-11.6971
铜山	-11.6971
靡莫	-11.6971
孝谨	-11.6971
房陵	-11.6971
苦形	-11.6971
原庙	-11.6971
不如因而	-11.6971
实沈	-11.6971
出右北平	-11.6972
语有之	-11.6972
司城	-11.6972
天夭	-11.6972
击右贤王	-11.6972
夫为人臣	-11.6972
饮药	-11.6972
勇之乃	-11.6973
有谒於	-11.6973
曲遇	-11.6973
祖己	-11.6973
屏左右	-11.6973
禁暴	-11.6973
吕泽	-11.6973
文成将军	-11.6974
陈仓	-11.6974
严威	-11.6974
吕产等	-11.6974
布惠	-11.6974
币物	-11.6975
窦太后崩	-11.6975
南阳郡	-11.6975
击东越	-11.6975
▁后二年	-11.6975
凡厥	-11.6975
南岳	-11.6975
告急於齐	-11.6975
数挑战	-11.6976
可数千里	-11.6976
有德义	-11.6976
与数十骑	-11.6977
田臧	-11.6977
刻石	-11.6977
出代郡	-11.6977
大小相	-11.6977
直指	-11.6977
通谷	-11.6977
奉职	-11.6977
大同俗	-11.6977
四十七年	-11.6977
舅也	-11.6978
胥山	-11.6978
退让	-11.6978
起舞	-11.6978
分部	-11.6978
材力	-11.6978
龟策	-11.6978
通其意	-11.6978
玄成	-11.6979
为善者	-11.6979
卻老	-11.6979
吕禄等	-11.6979
宝鼎出	-11.6979
人有告	-11.6979
征匈奴	-11.6979
为一家	-11.6979
蔡姬	-11.6979
星昭	-11.698
衍氏	-11.698
刘仲	-11.698
田豹	-11.6981
之重也	-11.6981
何言之	-11.6981
因谢病	-11.6981
季世	-11.6981
入未央宫	-11.6981
半岁	-11.6981
彭生	-11.6981
出奇计	-11.6981
功亦诛	-11.6982
盛衰	-11.6982
情性	-11.6982
回车	-11.6982
围临菑	-11.6982
不可举事	-11.6982
袭邯郸	-11.6982
博徒	-11.6982
宋宣公	-11.6982
夜半时	-11.6982
用希	-11.6982
和集	-11.6983
监门	-11.6983
嫁女	-11.6983
为燕相	-11.6983
龙贾	-11.6983
同母弟	-11.6983
蔡叔	-11.6983
二尺	-11.6983
章华	-11.6983
殿下	-11.6984
门户	-11.6984
不敢忘	-11.6984
马邑城	-11.6984
祖考	-11.6984
之所以为	-11.6985
至召陵	-11.6985
逆顺	-11.6985
卑辞	-11.6985
曹伯	-11.6985
都雒阳	-11.6986
劳神	-11.6986
廉节	-11.6986
莫敢不听	-11.6986
八百诸侯	-11.6987
歌呼	-11.6987
娶陈	-11.6988
堕马	-11.6988
奉禄	-11.6988
周亚夫	-11.6988
五畤	-11.6988
为平王	-11.6988
刺秦王	-11.6988
簿责	-11.6989
尝有德	-11.6989
晋栾书	-11.6989
怨结	-11.6989
伯御	-11.6989
没世	-11.6989
玉门	-11.6989
▁秦既	-11.6989
海外	-11.699
详狂	-11.699
仇家	-11.699
丞相绾	-11.699
莱人	-11.699
玉石	-11.699
定太原	-11.6991
何为不可	-11.6991
泽流	-11.6991
田荣怒	-11.6991
新得	-11.6992
武州	-11.6992
龙变	-11.6993
十县	-11.6993
四丈	-11.6993
陈宝	-11.6993
权变	-11.6994
争事秦	-11.6994
庆舍	-11.6994
既绌	-11.6994
自立为单于	-11.6994
詹事	-11.6994
斩捕	-11.6994
则害於	-11.6995
失火	-11.6995
先入关	-11.6996
大陆	-11.6996
数十城	-11.6996
五尺	-11.6996
守藩	-11.6996
失势	-11.6996
阿意	-11.6997
陷陈	-11.6997
六畜	-11.6997
华阴	-11.6997
山林	-11.6997
魏桓子	-11.6998
益杂	-11.6998
孝武	-11.6998
静公	-11.6999
仓公	-11.6999
角动	-11.6999
一算	-11.6999
三十八年	-11.6999
状似	-11.6999
积功	-11.7
文字	-11.7
河南守	-11.7
失列侯	-11.7001
之暴也	-11.7001
成季	-11.7001
鱼石	-11.7001
二渠	-11.7002
吾不忍	-11.7002
十世	-11.7002
罢极	-11.7002
专制	-11.7002
衡父	-11.7003
长驱	-11.7003
臣幸得	-11.7004
文帝崩	-11.7004
来伐我	-11.7004
自置为	-11.7004
身危	-11.7004
屯留	-11.7004
战不利	-11.7004
曲阳	-11.7005
昌意	-11.7005
蒲阳	-11.7005
好善	-11.7006
臣闻明主	-11.7006
至梁父	-11.7006
魏无知	-11.7007
郑伯降	-11.7007
王若欲	-11.7007
张负	-11.7008
复爵邑	-11.7008
少儿	-11.7008
上善之	-11.7008
登降	-11.7009
岂足	-11.7009
长短	-11.7009
马惊	-11.7009
将万骑	-11.7009
腹中	-11.7009
火正	-11.7009
吴师败	-11.701
难施	-11.701
与秦王会	-11.701
六经	-11.701
释帝	-11.701
仲父	-11.701
聚众	-11.7011
居西方	-11.7012
如带	-11.7012
宰我	-11.7013
晋国且	-11.7013
齐王市	-11.7013
朝贺	-11.7014
之禁	-11.7014
气盛	-11.7014
广川王	-11.7014
归相印	-11.7014
为吴相	-11.7014
声色	-11.7014
过此者	-11.7015
无柰	-11.7015
尽入其	-11.7016
东面	-11.7016
尧崩	-11.7017
童子	-11.7017
使臣得	-11.7017
入奏事	-11.7017
窃为足下	-11.7018
风俗	-11.7019
浮于	-11.7019
醳之	-11.7019
上疏言	-11.702
击南越	-11.702
子幽公	-11.702
水火	-11.7021
持久	-11.7021
伐虢	-11.7021
天府	-11.7022
列大夫	-11.7022
幸教寡人	-11.7023
素服	-11.7023
弗任	-11.7023
积德	-11.7023
召入见	-11.7023
唐举	-11.7024
九山	-11.7024
重华	-11.7024
要服	-11.7025
共攻楚	-11.7025
天授	-11.7025
者百有馀	-11.7025
白云	-11.7025
舜禹	-11.7026
鲜矣	-11.7026
四十九年	-11.7026
已而果	-11.7026
与吴楚反	-11.7027
虏略	-11.7027
赐黄金	-11.7027
连称	-11.7027
早死	-11.7027
随其后	-11.7028
弗爱	-11.7028
皆来朝	-11.7029
所诊	-11.7029
请和亲	-11.7029
其嫂	-11.7029
家监	-11.7029
宽赦	-11.7029
九疑	-11.703
盖馀	-11.703
可全	-11.703
无风雨	-11.703
尧舜	-11.7031
其先祖	-11.7031
役属	-11.7031
居其中	-11.7031
明圣	-11.7032
回中	-11.7033
交争	-11.7033
三岁一	-11.7033
亡入匈奴	-11.7033
明习	-11.7033
行伍	-11.7033
让位	-11.7033
请刻	-11.7033
奸利	-11.7034
田文子	-11.7034
平阳君	-11.7034
分曹	-11.7034
▁四十八年	-11.7035
戏耳	-11.7035
侍太后	-11.7035
虞氏	-11.7035
任政	-11.7035
之歌	-11.7035
叛楚	-11.7035
推贤	-11.7035
子釐侯	-11.7036
谏大夫	-11.7036
惊恐	-11.7036
晋献公卒	-11.7036
皇太子	-11.7036
图周	-11.7037
秦伐我	-11.7037
众暴	-11.7038
傅说	-11.7038
等计	-11.7038
侯印	-11.7039
弃群臣	-11.7039
易姓	-11.7039
使弃疾	-11.704
四卿	-11.7041
宜春	-11.7041
幽明	-11.7041
人民所	-11.7042
令狐	-11.7042
参合	-11.7042
入贡	-11.7042
附耳	-11.7043
遂不复	-11.7043
下吏治	-11.7043
其南则	-11.7044
控弦者	-11.7044
虢君	-11.7045
四月丙	-11.7045
重器	-11.7045
古者诸侯	-11.7045
堂上	-11.7046
骄主	-11.7046
天性也	-11.7046
所知也	-11.7046
未毕	-11.7048
请粟	-11.7048
市朝	-11.7048
能督责	-11.7048
背晋	-11.7048
两贤	-11.7048
其西则	-11.705
五千匹	-11.7051
何以加	-11.7051
安国侯	-11.7051
祠具	-11.7052
悼惠王子	-11.7052
厚礼	-11.7052
青阳	-11.7052
山泽	-11.7053
不登	-11.7054
▁元光	-11.7054
问卿	-11.7054
伏士	-11.7054
▁他日	-11.7054
曾孙也	-11.7054
书奏	-11.7055
伐曹	-11.7055
莫如楚	-11.7055
南吕	-11.7056
岂尝	-11.7056
法式	-11.7057
为藩臣	-11.7057
可破也	-11.7057
襄王卒	-11.7058
议论	-11.7058
秦孝公卒	-11.7058
各往往	-11.7058
可试	-11.7059
献马	-11.7059
欲以观	-11.7059
南乡	-11.7059
还顾	-11.7059
过沛	-11.7059
烧杀	-11.706
九郡	-11.706
事觉	-11.706
庸可	-11.706
临朝	-11.706
为太上皇	-11.7061
尊者	-11.7061
六月中	-11.7061
被服	-11.7061
弗予	-11.7062
为长沙王	-11.7062
如脱	-11.7062
宾从	-11.7062
齐哀王	-11.7062
人之过	-11.7062
复合	-11.7063
匡君	-11.7063
能明其	-11.7063
后九月	-11.7064
为畔逆	-11.7064
建星	-11.7064
云盖	-11.7065
僣於	-11.7066
顷公卒	-11.7067
师己	-11.7067
能薄	-11.7067
康后	-11.7068
下廷尉	-11.7068
奔秦	-11.7068
於军门	-11.7068
未决	-11.7068
兵数万	-11.707
周最	-11.7071
乃亡归	-11.7073
倍德	-11.7073
子何不	-11.7073
楚有春申	-11.7073
可得见	-11.7074
因命曰	-11.7074
墓上	-11.7075
赵豹	-11.7075
尝欲	-11.7075
高宗	-11.7076
而神灵	-11.7077
备守	-11.7077
未拔	-11.7077
决胜	-11.7078
引河	-11.7078
不过百里	-11.7078
宗家	-11.7078
而下士	-11.7078
生产	-11.7078
祸乱	-11.7079
同舍	-11.7079
魏武侯	-11.708
鲁庄公	-11.708
小节	-11.7081
武力	-11.7082
希见	-11.7083
至陇西	-11.7083
仪礼	-11.7083
及诸公子	-11.7083
秦并天下	-11.7083
绝人之	-11.7084
上乃遣	-11.7084
申明	-11.7086
蚤自	-11.7087
告谕	-11.7087
五十六年	-11.7088
树下	-11.7088
者皆死	-11.7089
结交	-11.7089
烈王	-11.709
初郡	-11.709
秦之先	-11.709
吾闻圣人	-11.7091
自快	-11.7092
分争	-11.7094
今释	-11.7094
大王之所	-11.7095
元君	-11.7095
公卿言	-11.7095
状如	-11.7096
素善	-11.7097
此天之	-11.7097
将兵击之	-11.7098
入室	-11.7101
状类	-11.7101
求利	-11.7102
己而不	-11.7102
彊谏	-11.7102
亲拜	-11.7103
馀级	-11.7103
自全	-11.7103
彊本	-11.7104
原过	-11.7105
阴阳相	-11.7106
谓相国	-11.7106
与晋战	-11.7107
至御史大夫	-11.7107
乐饮	-11.7107
淮南王长	-11.7107
欲攻赵	-11.7107
罚出	-11.7107
追亡	-11.7107
诏赦	-11.7108
弱水	-11.7108
南至于	-11.7109
日饮	-11.7109
翟公	-11.7111
细民	-11.7112
争功	-11.7112
酒食	-11.7112
谗臣	-11.7112
宫观	-11.7113
存韩	-11.7113
时雨	-11.7114
▁子夏	-11.7114
骑围	-11.7115
赵相国	-11.7115
此四人	-11.7115
都邑	-11.7116
子孔	-11.7116
取辱	-11.7118
宣惠王	-11.7119
军长安	-11.7119
若此则	-11.7119
二十馀人	-11.7119
若者必	-11.7119
周霸	-11.712
周公既	-11.7122
梁孝王子	-11.7122
▁“‘	-11.7122
春夏	-11.7123
以为固	-11.7124
复得其	-11.7124
於是上令	-11.7124
从大将军出定襄	-11.7125
不党	-11.7125
详死	-11.7126
不辱	-11.7126
为人臣者	-11.7127
尊名	-11.7127
被发	-11.7127
状貌甚	-11.7128
有以也	-11.7128
迫於	-11.7128
果败	-11.7129
都六	-11.713
不答	-11.713
道古	-11.7131
顾反	-11.7131
而奔	-11.7131
然诺	-11.7132
太子勃	-11.7133
天子诏	-11.7133
西土	-11.7134
子驷	-11.7134
三江	-11.7135
定郡	-11.7135
等议	-11.7135
复振	-11.7135
金城	-11.7135
▁是后	-11.7135
受罪	-11.7135
拔宜阳	-11.7135
君长以	-11.7137
更置	-11.7139
兴利	-11.714
鸿门	-11.714
韩武子	-11.714
诸校尉	-11.7141
五百人	-11.7143
以君为	-11.7144
一子於	-11.7145
伐胡	-11.7145
振兵	-11.7145
请诛之	-11.7146
大府	-11.7146
沛中	-11.7146
既葬	-11.7147
乃遣使	-11.7148
大禄	-11.7148
得不诛	-11.7148
保国	-11.7151
九城	-11.7152
罪二	-11.7152
富彊	-11.7153
鲁阳虎	-11.7155
为任侠	-11.7155
至军中	-11.7155
见禽	-11.7157
数里	-11.7157
於是文帝	-11.7158
宛若	-11.7159
未得其	-11.7159
自择	-11.716
卜病者	-11.7161
▁太史公	-11.7162
往祠	-11.7164
然其言	-11.7164
徙处	-11.7165
南河	-11.7165
重之以	-11.7166
非人情	-11.7166
周流	-11.7166
将何以	-11.7167
楚昭	-11.7167
郎中骑	-11.7167
非素	-11.7167
孟尝君乃	-11.7169
滕公曰	-11.7169
殷后	-11.717
语矣	-11.717
言阳气之	-11.7172
陈喜	-11.7174
使使持节	-11.7177
王乌	-11.7177
鲁昭公	-11.7178
八通	-11.7179
案兵	-11.718
臣去病	-11.718
年长	-11.7182
赵之兵	-11.7183
相国印	-11.7183
皆已死	-11.7183
隐居	-11.7184
自今以	-11.7184
大事也	-11.7184
送我	-11.7184
愚民	-11.7185
从横	-11.7186
即自杀	-11.7186
阳夏	-11.7186
留守	-11.7186
厉侯	-11.7186
北有燕	-11.7187
诸侯宾客	-11.7187
著明	-11.7188
而饮之	-11.7188
宁公	-11.7188
秦昭王卒	-11.7188
明岁	-11.7189
得鼎	-11.7191
辅臣	-11.7191
孔子以为	-11.7192
及内史	-11.7192
韩相国	-11.7193
为司空	-11.7193
其少时	-11.7194
不能禁	-11.7194
子釐公	-11.7195
存赵	-11.7195
庸人	-11.7196
多暴	-11.7196
▁万石君	-11.7196
未急	-11.7196
重於齐	-11.7197
苏子	-11.7197
不敢发	-11.7197
出成皋	-11.7197
诸侯毕	-11.7198
三危	-11.7198
蒙骜攻魏	-11.7199
不返	-11.72
西门	-11.7201
可致	-11.7201
自射之	-11.7202
击沛公	-11.7202
五教	-11.7202
西陵	-11.7203
惜其	-11.7204
久长	-11.7205
在患	-11.7206
后期	-11.7206
周衰	-11.7207
魏献	-11.7208
假令	-11.7209
难耳	-11.721
使人先	-11.7211
而饿死	-11.7212
失明	-11.7213
自附	-11.7213
▁蔡泽	-11.7213
发难	-11.7213
齐之兵	-11.7214
丞相长史	-11.7215
绝约	-11.7216
一钱	-11.7217
封禅事	-11.7218
不能有也	-11.7219
古乐	-11.7219
食物	-11.7219
伐蒲	-11.7221
天幸	-11.7222
不达	-11.7223
陈大夫	-11.7224
其裨将	-11.7225
小战	-11.7231
燕饮	-11.7232
悼之	-11.7233
於左右	-11.7234
士马	-11.7234
母无宠	-11.7236
生患	-11.7236
爱幸之	-11.7238
以溉田	-11.7238
昔我	-11.7239
盍往	-11.7239
闺门	-11.724
安世	-11.724
汉财物	-11.724
曾不能	-11.7242
留匈奴	-11.7243
韩嫣	-11.7243
灭郑	-11.7244
大费	-11.7248
愿将军	-11.7249
秦记	-11.725
赵有平原	-11.7253
陛下不能	-11.7255
於是景帝	-11.7255
遇我	-11.7255
尚方	-11.7256
於侧	-11.7258
请为王	-11.7258
▁共公	-11.726
闻秦之	-11.726
并力击	-11.7262
卒史	-11.7262
宋元王	-11.7262
王后宫	-11.7263
陈氏	-11.7264
尊显	-11.7264
民田	-11.7265
皆赤	-11.7266
从旁	-11.7266
孝景前	-11.7268
战败	-11.7268
亲亲	-11.7269
齐孝王	-11.727
有奇	-11.7272
成阳	-11.7272
国之利也	-11.7273
虑事	-11.7274
同产	-11.7275
邪说	-11.7275
之计过	-11.7276
欲许之	-11.7277
赦令	-11.7278
乘胜逐	-11.7278
▁魏文侯	-11.7278
於是二世	-11.7278
千有馀	-11.728
无勇	-11.728
乃大惊	-11.728
曹君	-11.7281
▁庄襄王	-11.7281
释宋	-11.7283
亦云	-11.7287
诸夏	-11.7289
毋功	-11.7291
三郡	-11.7292
吕后时	-11.7292
不任	-11.7294
从张耳	-11.7294
往观	-11.7294
费人	-11.7294
说之难	-11.7294
不循	-11.7296
有所出	-11.7297
殷复	-11.7297
反具	-11.7298
古之道	-11.7298
以充	-11.7299
有势	-11.73
以忠信	-11.73
不偏	-11.7301
事业	-11.7302
与秦昭王	-11.7302
皆知之	-11.7302
可治	-11.7302
再战	-11.7304
历阶而	-11.7305
初县	-11.7306
慢而	-11.731
六十八	-11.7311
同席	-11.7314
岂可以	-11.7315
赐千金	-11.7316
是以诸侯	-11.7317
意所欲	-11.7318
兄伯	-11.7318
群臣如	-11.7318
▁左将军	-11.7319
必杀之	-11.7319
郢人	-11.732
小侯	-11.7321
二等	-11.7321
有所长	-11.7321
尽定	-11.7321
已祠	-11.7322
弟夫概	-11.7322
邑万户	-11.7322
相引	-11.7322
欲待	-11.7322
祸且	-11.7322
称善	-11.7323
讳之	-11.7324
入雁门	-11.7324
▁梁孝王	-11.7325
爱我	-11.7327
天所以	-11.7327
子武公	-11.7327
殷国	-11.7328
知氏	-11.7332
河南王	-11.7334
盖天下	-11.7339
游燕	-11.7339
口言	-11.734
▁范蠡	-11.734
使乐毅	-11.7341
取成皋	-11.7345
周之衰	-11.7345
以望	-11.7346
韩冯	-11.7346
之为言	-11.7348
月丙午	-11.7348
使人追	-11.7349
太子爽	-11.7349
封陵	-11.7352
劝王	-11.7356
善舞	-11.7357
之闾	-11.7358
以从事	-11.7359
▁八月	-11.7359
牵於	-11.7361
高梁	-11.7361
▁武安侯	-11.7362
居外久	-11.7363
文采	-11.7363
不反也	-11.7364
七百里	-11.7364
高帝时	-11.7364
者十馀	-11.7365
亨之	-11.7366
其嗣	-11.7366
公主为	-11.7368
时序	-11.7368
上大怒	-11.7369
事景帝	-11.7369
固不能	-11.737
既罢	-11.7372
吴军	-11.7374
变告	-11.7374
出朔方	-11.7375
今龟	-11.7375
其罚	-11.7376
将军卫青	-11.7376
及宾客	-11.7377
至二千石	-11.7377
畏死	-11.7379
豪桀并	-11.738
取六	-11.738
何足以	-11.7381
之谋也	-11.7381
怯也	-11.7382
不战而	-11.7383
於是周公	-11.7383
夜出	-11.7383
故其民	-11.7385
▁叔孙通	-11.7388
名高	-11.7388
失军	-11.7388
子之身	-11.739
无伤	-11.7392
五公子	-11.7395
於沛	-11.7395
分其地为	-11.7397
▁季布	-11.7403
周氏	-11.7403
张楚	-11.7405
有神龟	-11.7405
所以兴	-11.7405
有福	-11.7406
县名	-11.7407
孝公既	-11.741
风后	-11.7413
▁怀公	-11.7413
在彼	-11.7418
於是乃使	-11.7421
越平	-11.7423
行酒	-11.7425
卿秦	-11.7425
可成	-11.7425
臣故曰	-11.7427
弥久	-11.7427
魏而攻	-11.7429
怜而	-11.7431
不雠	-11.7433
令史	-11.7434
且留	-11.7435
其室	-11.7435
立为天子	-11.7435
孝惠时	-11.7437
人怀	-11.7437
江使	-11.7437
勇於	-11.7437
立突	-11.7439
说士	-11.7442
以为功	-11.7446
以兵属	-11.7446
自匿	-11.7447
兄弟之国	-11.7449
畏君	-11.7449
为上大夫	-11.745
单于兵	-11.7451
意方	-11.7454
不禁	-11.7457
疑事	-11.7458
奸人	-11.7459
义不为	-11.746
领之	-11.746
而巴	-11.7461
及孝惠	-11.7461
引兵西	-11.7464
奇谋	-11.7468
於子之	-11.7468
於是废	-11.7469
王夫差	-11.7469
万五千人	-11.747
德音	-11.7472
此所以	-11.7474
▁元王	-11.7474
武王崩	-11.7476
▁襄子	-11.7476
宗室大臣	-11.7477
不义也	-11.7479
丹之	-11.7482
收诸侯	-11.7483
自立为君	-11.7483
於是秦昭王	-11.7484
自失	-11.7485
天子诛	-11.7486
各有所	-11.7488
上大夫	-11.749
齐秦之	-11.749
弦之	-11.749
沛公兵	-11.7491
穷治	-11.7492
久乎	-11.7494
至厚	-11.7495
慎无	-11.7498
以东北	-11.7498
於天下者	-11.7499
无射	-11.7501
▁孝王	-11.7501
齐伐宋	-11.7502
其南有	-11.7503
大弱	-11.7504
不肯立	-11.7504
其禄	-11.7504
鲁公子	-11.7506
达者	-11.7506
共诛之	-11.7508
盗边	-11.751
以赐之	-11.7512
陛下安得	-11.7513
令国中	-11.7514
入秦者	-11.7515
建诸侯	-11.7516
投之	-11.7521
若水	-11.7525
乃发兵	-11.7526
子贱	-11.7527
发兵诛	-11.7527
皆尝	-11.7532
▁虞卿	-11.7533
东巡狩	-11.7533
与诸将	-11.7534
与尔	-11.7535
小人以	-11.7536
始乱	-11.7537
欲击之	-11.7538
为车骑将军	-11.7539
二周	-11.7539
是以无	-11.754
过当	-11.7541
专诸之	-11.7543
▁老子	-11.7545
陪臣执	-11.7546
幽死	-11.7547
数城	-11.755
未信	-11.755
无成功	-11.7551
梁相	-11.7553
相张仪	-11.7553
之常也	-11.7553
再见	-11.7555
其文辞	-11.7555
奸事	-11.7556
任事	-11.7557
中山王	-11.7559
以干	-11.756
发兵击之	-11.7562
私见	-11.7562
其璧	-11.7565
少长	-11.7566
之边邑	-11.7566
能脩其	-11.7568
在莒	-11.757
靡有	-11.7571
晋灭	-11.7571
天下属	-11.7572
取二	-11.7572
知罪	-11.7573
燔其	-11.7573
救至	-11.7573
恐祸及	-11.7578
使韩信	-11.7578
素与	-11.7578
广汉	-11.7581
别居	-11.7584
梁军	-11.7584
更相	-11.7589
为治者	-11.759
不羞	-11.7592
子庄公	-11.7592
五十万	-11.7594
北过	-11.7597
愿见	-11.7598
使监	-11.7599
以为不然	-11.7603
二军	-11.7604
已成	-11.7605
乃徵	-11.7608
天子怜	-11.7608
王诸将	-11.7609
成文	-11.761
西伯昌	-11.7612
子昌	-11.7615
单于死	-11.7616
厚利	-11.7617
▁乐毅	-11.762
郑地	-11.762
肉袒谢	-11.7626
有丧	-11.7626
以令天下	-11.7627
者为楚	-11.7627
不虞	-11.7629
两弟	-11.7636
杀忠臣	-11.7636
吾马	-11.7638
西极	-11.764
生者不	-11.7646
显王	-11.765
所施	-11.765
终不以	-11.7652
卜人	-11.7653
及其身	-11.7659
地不过	-11.7666
便事	-11.7672
与斗	-11.7681
不得用	-11.7684
出北地	-11.7685
张耳与	-11.7685
击项羽	-11.7685
名於天下	-11.7686
大理	-11.7687
无度	-11.7692
其策	-11.7694
郄	-11.7696
为法令	-11.7698
为人君	-11.77
故敢	-11.7706
天下之民	-11.7709
於江南	-11.7709
仲子	-11.7711
自以为功	-11.7711
乃迎	-11.7712
积怨	-11.7713
且内	-11.7714
以资	-11.7718
宾之	-11.7718
吴反	-11.7721
之舞	-11.7722
屋之	-11.7722
魏重	-11.7723
奔彘	-11.7724
其孙	-11.7724
至奉高	-11.7724
世父	-11.7725
其孤	-11.7727
者不以	-11.7729
不鸣	-11.7729
不患	-11.7731
并诸侯	-11.7733
数问	-11.7737
有子曰	-11.7738
代太子	-11.7741
先是	-11.7745
此则	-11.7748
后为周	-11.7749
於廷	-11.7749
燕人也	-11.7751
为筑	-11.7752
沛公欲	-11.7757
孝子	-11.7758
火光	-11.7763
原君	-11.7765
不听臣	-11.7767
何知	-11.7768
中子也	-11.7771
字季	-11.7774
人不敢	-11.7775
杀其子	-11.7775
子申	-11.7782
间出	-11.7783
于商	-11.7789
或谏	-11.779
后车	-11.779
相坐	-11.7791
复击	-11.7792
官名	-11.7792
吞天下	-11.7794
之圣	-11.7795
定楚地	-11.7802
固谢	-11.7805
乐必	-11.7809
待子	-11.7813
必内	-11.7814
秦攻魏	-11.7821
而民不	-11.7825
王寿梦	-11.7825
相士	-11.7836
素知	-11.7836
十二日	-11.7836
其精兵	-11.7841
为司徒	-11.7843
而不相	-11.7847
边城	-11.7849
正道	-11.7853
善事	-11.7862
定梁地	-11.7864
千三百	-11.7866
军砀	-11.7867
鲁人也	-11.7873
始秦	-11.7875
往古	-11.7877
攻取	-11.7882
之胶东	-11.7882
秦饥	-11.7882
称引	-11.7885
大夏之属	-11.7885
十四人	-11.7886
汉诛	-11.7891
彭越皆	-11.79
致物	-11.7902
巡祭	-11.7904
以为鲁	-11.7913
百步	-11.7915
蒙骜攻	-11.7915
入重耳	-11.7918
妾愿	-11.7918
为家人	-11.7929
可谓至	-11.7932
弗如	-11.7933
言可以	-11.7933
多杀	-11.7943
向使	-11.7949
以礼义	-11.795
坛旁	-11.7952
桓公病	-11.7956
君角	-11.7962
杀无知	-11.7964
张仪相	-11.7966
天子巡狩	-11.7971
尊号	-11.7971
军成皋	-11.7973
而封之	-11.7978
摄衣	-11.7978
材官	-11.7983
见秦王	-11.7983
忧病	-11.7984
王印	-11.7987
大河	-11.7996
拜卿为	-11.8002
视其所不	-11.8009
破赵军	-11.8011
无有所	-11.8012
独不得	-11.8014
变服	-11.8018
而舍之	-11.8018
之怪	-11.8026
之性	-11.8031
使甘茂	-11.8031
就功	-11.8056
坚壁	-11.8057
交於	-11.8066
元元年	-11.8073
比於	-11.8076
赵之所	-11.8079
不耻	-11.808
于外	-11.8082
见谢	-11.8082
在旁	-11.8083
车百乘	-11.8087
主吏	-11.8089
姬之子也	-11.8094
力行	-11.8103
往迎	-11.8108
一言而	-11.8127
为之下	-11.8134
诚知	-11.8134
尧知	-11.8136
把	-11.8154
不伤	-11.8163
反谋	-11.8168
以承	-11.8171
彊请	-11.8188
十馀年矣	-11.8195
诸县	-11.8203
欲以求	-11.8211
赐婴爵	-11.8211
极知	-11.8213
先生得	-11.8216
素闻其	-11.822
为僇	-11.8226
利民	-11.8238
惠王卒	-11.8239
子四人	-11.8241
于兹	-11.8244
之短	-11.8244
内属	-11.8249
嗣君	-11.8251
过梁	-11.8255
将兵助	-11.8257
除其	-11.8267
赵宗	-11.8275
转攻	-11.8277
长安东	-11.8292
其群臣	-11.8302
醢之	-11.8302
韩献	-11.8304
兵革不	-11.8311
称号	-11.8314
东至河	-11.8321
不能得之於	-11.8335
皆自杀	-11.8338
所不及	-11.8361
惑於	-11.8363
之所恶	-11.8364
无形	-11.8368
事未可知	-11.8372
复与楚	-11.8373
百骑	-11.8374
戊午	-11.8377
四十万	-11.8378
治官	-11.838
十八日	-11.8383
宛城	-11.8386
灭霍	-11.8388
问群臣	-11.8397
馀人	-11.8403
谋反者	-11.8406
王诸樊	-11.8408
得反国	-11.8416
为少府	-11.8425
召我	-11.843
情实	-11.8433
书遗	-11.8435
素无	-11.8443
周惠王	-11.8454
车之会	-11.8455
东至于	-11.8459
雒阳东	-11.846
通义	-11.8461
窃观	-11.8486
脩政	-11.849
羔	-11.8497
与之言	-11.851
著於	-11.8513
止孔子	-11.8543
围宋	-11.8557
苏秦恐	-11.8568
说楚王	-11.8569
幽厉之	-11.8576
之谓邪	-11.8577
所终	-11.858
其社稷	-11.8583
解衣	-11.8588
年十三	-11.8589
加其	-11.8605
不容於	-11.8606
辱於	-11.862
於是秦王	-11.8626
赖天	-11.8626
己亥	-11.8634
以西至	-11.8636
为中郎	-11.8637
贫无	-11.8652
离心	-11.8659
立庆父	-11.8659
君之子	-11.8666
文公立	-11.8667
以文学为	-11.8679
终不能得	-11.8682
克殷	-11.8685
据河	-11.8691
悉诣	-11.8699
各五	-11.8702
以相救	-11.8706
琴瑟	-11.8715
更事	-11.8728
有爱	-11.8735
败也	-11.874
或颇	-11.8741
引兵渡河	-11.8772
王听之	-11.8784
楚之兵	-11.879
亦尝	-11.8791
官吏	-11.8797
或封	-11.8813
金帛	-11.8817
公弗听	-11.8831
恐其有	-11.8836
江淮	-11.8837
大王之贤	-11.8857
而复之	-11.8859
以眇眇之身	-11.8871
桀纣之	-11.8875
欲上书	-11.8876
有序	-11.8877
▁孔子年	-11.888
辛丑	-11.8886
系者久	-11.889
愿从	-11.8892
三十馀年	-11.8902
世衰	-11.8923
争事	-11.893
常恐	-11.8932
於王者	-11.8945
益尊	-11.8951
其兄弟	-11.8955
将数千人	-11.8959
传言	-11.8961
军卻	-11.8963
人有上书告	-11.8965
政令	-11.8972
欲用之	-11.8973
既成	-11.8989
人臣无	-11.9
如约	-11.9016
去卫	-11.9027
用事於	-11.9029
子穨	-11.9029
复彊	-11.903
归鲁侵地	-11.9035
楚兵已	-11.9041
而不乱	-11.9046
实对	-11.9071
子兄弟	-11.9079
书赐公子扶苏	-11.9081
杀其令	-11.9081
辩智	-11.909
之虚	-11.9093
葬阳	-11.9094
诸窦	-11.9106
▁至孝文	-11.9112
谓何	-11.9115
十馀县	-11.9132
旁有	-11.9141
亲往	-11.9146
内外自	-11.9165
为人刚	-11.9176
废以为	-11.9186
所击	-11.9192
之所为	-11.92
施德	-11.9206
五千骑	-11.924
大变	-11.9246
何爱	-11.926
周宣王初	-11.9269
仰天大	-11.9278
苍为丞相	-11.93
谓其子	-11.931
裨	-11.9311
堕坏	-11.9323
於周室	-11.9325
西归	-11.9328
有圣	-11.9329
楚王欲	-11.9344
附楚	-11.9345
及期	-11.9375
相与谋	-11.9379
弗复	-11.9405
定公卒	-11.9406
新破	-11.9408
自矜	-11.9425
十金	-11.9429
追北至	-11.9434
起沛	-11.945
生熊	-11.9455
胡寇	-11.9458
小馀八百	-11.9462
怨深	-11.9475
缪公问	-11.9488
其仆	-11.9501
伏而不	-11.9503
▁而汉	-11.9506
南边	-11.9506
信为韩王	-11.952
窃言	-11.9529
易太子	-11.9531
万斤	-11.9542
以事其	-11.9545
益弱	-11.957
孤独	-11.9573
季姬	-11.9573
巡狩至	-11.9574
以吊	-11.9595
会临晋	-11.9601
禁止	-11.9609
百一十	-11.9625
欲以伐	-11.9639
仓之粟	-11.965
韩上党	-11.965
汉边	-11.9663
客语	-11.9685
取汉中	-11.9686
守关	-11.9689
圣德	-11.969
祀上帝	-11.9691
天下服	-11.9694
庙垣	-11.97
汉四年	-11.97
招贤	-11.9701
皮币	-11.9726
仓粟	-11.973
白鹿	-11.9738
十馀万言	-11.9738
甲士	-11.9746
之谓乎	-11.9746
可胜言	-11.9748
祠太一	-11.9751
翁主	-11.9773
将兵伐楚	-11.9776
康叔之	-11.9808
并海	-11.9808
树党	-11.9814
令於天下	-11.9833
与其姊	-11.9872
党於	-11.9874
溉田	-11.9875
杜平	-11.9878
盍	-11.9881
无宠於	-11.9886
日晏	-11.9899
昧死请	-11.9899
长平军	-11.9903
往谕	-11.9918
齐顷公	-11.9924
六十一	-11.9925
往归之	-11.9926
无尺寸	-11.9928
涉西河	-11.9951
日半	-11.9961
一体	-11.9968
周民	-11.9971
他名	-11.9973
稍迁	-11.9973
铁官	-11.998
郎吏	-11.9996
暴乱	-11.9998
郑庄	-12.0002
右内史	-12.0005
斩豨	-12.0013
赵午等	-12.0016
娱	-12.0018
太后薨	-12.0026
高渠弥	-12.0068
乃谢病	-12.0077
日久矣	-12.0092
布衣之	-12.0108
水上军	-12.0109
苑中	-12.0111
於是天子乃	-12.0114
五千	-12.0115
王黄等	-12.0123
红	-12.013
堪	-12.0145
救不至	-12.0154
醳	-12.0159
奏当	-12.0161
五十七	-12.0162
甚美	-12.0164
父兄皆	-12.0168
之者三	-12.0172
妻妾	-12.0181
必效	-12.0188
敢战	-12.019
之发也	-12.0194
厚赋	-12.0196
有兵不	-12.0202
招致宾客	-12.0202
马牛	-12.0203
驺忌	-12.0207
亡走赵	-12.0208
周室微	-12.0223
读书	-12.0224
相距荥阳	-12.0226
病甚不	-12.0227
金银	-12.0228
宏	-12.0237
齮	-12.0238
面目	-12.0241
大兴兵	-12.0243
拒	-12.0243
大良造白起攻	-12.0246
座	-12.0249
夙	-12.025
函	-12.0251
影	-12.0251
铚	-12.0252
叹息	-12.0254
晏然	-12.0255
焻	-12.0255
雒邑	-12.0255
荀寅	-12.0256
垓	-12.0256
九世	-12.0257
霑	-12.0257
祺	-12.0257
孝景中六年	-12.0258
胫	-12.0258
望夷宫	-12.0258
仞	-12.0258
东至海	-12.0259
孰虑之	-12.0259
习胡	-12.0259
葬芷阳	-12.026
元元	-12.026
携	-12.026
车十乘	-12.026
黔	-12.026
淳	-12.0261
茨	-12.0262
死不恨	-12.0262
采椽不	-12.0262
康叔亲属有十	-12.0263
暴鸢	-12.0263
威震天下	-12.0263
构	-12.0263
桃林之	-12.0263
汎	-12.0264
炉	-12.0264
范吉射	-12.0264
繻	-12.0264
荡荡	-12.0264
怅	-12.0264
斩首五万	-12.0264
阎	-12.0264
刓	-12.0264
艹	-12.0265
啜土	-12.0265
覆军杀将	-12.0265
汇	-12.0265
难得而制	-12.0265
檄	-12.0265
袂	-12.0265
在襁褓	-12.0265
炎	-12.0265
不敢为非	-12.0266
内史廖	-12.0266
秫	-12.0266
诗不云乎	-12.0266
普	-12.0266
公户满意	-12.0266
蝗虫	-12.0266
衣帛	-12.0266
眦	-12.0266
以振贫	-12.0266
零	-12.0266
褕	-12.0266
无用之	-12.0266
丕	-12.0266
棺椁	-12.0266
君何见之晚	-12.0266
夷维子	-12.0266
是君上	-12.0266
泰皇	-12.0266
自讬於	-12.0266
鸿渐	-12.0266
自贼杀	-12.0267
所以贵者	-12.0267
沇	-12.0267
洮	-12.0267
慈爱	-12.0267
袁	-12.0267
庳	-12.0267
无可用者	-12.0267
期年不解	-12.0267
阁	-12.0268
咏	-12.0268
珥	-12.0268
为宣平侯	-12.0268
殁	-12.0268
地可全而有	-12.0268
天下和平	-12.0268
王以其间	-12.0268
阨	-12.0268
轹	-12.0268
散鹿台之	-12.0268
肝胆	-12.0268
荀栎	-12.0268
锦	-12.0268
荥	-12.0268
檀	-12.0268
拨乱世反	-12.0268
足异处	-12.0268
缀	-12.0268
嚣	-12.0269
封其后於宋	-12.0269
韩之边	-12.0269
封比干之墓	-12.0269
奂	-12.0269
改过自新	-12.0269
赤泉侯	-12.0269
洋	-12.0269
豸	-12.0269
厮	-12.0269
一坐尽	-12.0269
表商容之闾	-12.0269
卿子冠军	-12.0269
备他盗	-12.0269
杀关龙逢	-12.0269
楚汉久相持	-12.0269
狁	-12.0269
粝	-12.0269
脰	-12.0269
谋娶公	-12.0269
乘船	-12.0269
粮道	-12.0269
然作色	-12.027
络脉	-12.027
刀笔	-12.027
跣	-12.027
徐巿等	-12.027
箭	-12.027
珪	-12.027
使使谓冒顿	-12.027
取其妻妻之	-12.027
愿王孰虑之	-12.027
方城之外	-12.027
泆	-12.027
赐长子书	-12.027
煌	-12.027
夏无且	-12.027
左骖	-12.027
扛	-12.027
鲰	-12.027
山跗病	-12.027
很	-12.027
故圣王	-12.027
湮	-12.027
界盗见	-12.027
者逆德	-12.0271
芋	-12.0271
颂秦德	-12.0271
东会于	-12.0271
为好会	-12.0271
为寒心	-12.0271
九牧之	-12.0271
兴师北伐齐	-12.0271
寝兵休	-12.0271
铄金	-12.0271
申屠嘉	-12.0271
射貍首	-12.0271
庶弟也	-12.0271
无立锥之地	-12.0271
湛	-12.0271
庖	-12.0271
沕	-12.0271
铁椎	-12.0271
以塞责	-12.0271
以重吾不德也	-12.0271
坻	-12.0271
夜立白茅上	-12.0271
夫治国家而弭人民	-12.0271
祸且及身	-12.0271
见大人迹	-12.0271
越衍侯吴阳	-12.0271
踪迹	-12.0271
迁于夏商	-12.0271
高山仰	-12.0271
糵	-12.0272
绮	-12.0272
氵	-12.0272
啼	-12.0272
僄悍	-12.0272
十太牢	-12.0272
宦者履鞮	-12.0272
离兄弟之亲	-12.0272
篝	-12.0272
纣可伐矣	-12.0272
诣行在所	-12.0272
蹇叔止臣	-12.0272
於城下	-12.0272
镞	-12.0272
魄	-12.0272
肘	-12.0272
牺	-12.0272
断虞芮之讼	-12.0272
死者不可复生	-12.0272
濑	-12.0272
燕将臧荼	-12.0272
豺狼	-12.0272
秀	-12.0272
烽火	-12.0272
黜	-12.0272
骖	-12.0272
先自告	-12.0272
发干侯	-12.0272
存亡继绝	-12.0272
得名龟	-12.0272
朕与单于	-12.0272
献酬之礼	-12.0272
王又安能使之步行千里	-12.0272
睢阳以北至穀城	-12.0272
纣杀王子比干	-12.0272
肄	-12.0272
陈以东傅海	-12.0272
餐	-12.0272
与淮南王谋反	-12.0272
衔	-12.0272
蝉	-12.0272
无尺寸之功	-12.0273
痍	-12.0273
赵公子嘉	-12.0273
耀	-12.0273
玄冥	-12.0273
繇王居股	-12.0273
芳	-12.0273
迷惑	-12.0273
一度半	-12.0273
四塞以为固	-12.0273
惊骇	-12.0273
珠玉宝器	-12.0273
芜	-12.0273
驺虞	-12.0273
世世相传	-12.0273
为知己者	-12.0273
感於物而	-12.0273
慝	-12.0273
臣意教以	-12.0273
飧	-12.0273
	-12.0273
铢	-12.0273
刍	-12.0273
偻	-12.0273
御史中丞	-12.0273
稚	-12.0273
赐金五千斤	-12.0273
陈豨反代地	-12.0273
顿刃	-12.0273
仇雠	-12.0273
乂	-12.0273
诽	-12.0273
三月生天	-12.0273
以至于今	-12.0273
内关之病	-12.0273
各有分地	-12.0273
家皇子为列侯	-12.0273
拥阏	-12.0273
朕甚嘉之	-12.0273
臣汤等	-12.0273
蓐	-12.0273
里克杀奚齐	-12.0273
阎乐	-12.0273
挠	-12.0273
杀略千馀人	-12.0273
逡巡	-12.0273
雎	-12.0273
姁	-12.0273
纚	-12.0273
自关以东	-12.0273
诲	-12.0273
万九千	-12.0274
二百四十	-12.0274
今日之事	-12.0274
孝景时为博士	-12.0274
末节也	-12.0274
脑	-12.0274
一茅三脊	-12.0274
在德不在	-12.0274
怠於政	-12.0274
扑	-12.0274
文学卒史	-12.0274
磔	-12.0274
糒	-12.0274
装治行	-12.0274
鉏耰	-12.0274
驵	-12.0274
鼍	-12.0274
啬夫	-12.0274
虹	-12.0274
滞	-12.0274
与丧会咸阳而	-12.0274
古之帝者	-12.0274
太子夷皋	-12.0274
怡	-12.0274
报私雠	-12.0274
於泽中圜丘	-12.0274
转败为功	-12.0274
银锡	-12.0274
非所敢望也	-12.0274
鸱	-12.0274
殉	-12.0274
揣	-12.0274
健	-12.0274
复常奉车从击	-12.0274
臣之所以	-12.0274
两雄	-12.0274
以万乘之国	-12.0274
以楚为彊	-12.0274
兔丝	-12.0274
勉哉夫子	-12.0274
吐	-12.0274
男女无别	-12.0274
至匈河水	-12.0274
荀欣	-12.0274
酆鄗	-12.0274
重译	-12.0274
金马门	-12.0274
雷被	-12.0274
荐绅	-12.0274
为龙頟侯	-12.0274
冕	-12.0274
移风易俗	-12.0274
逋	-12.0274
东楼公	-12.0274
眜	-12.0274
以千一百户封	-12.0274
瓯骆	-12.0274
崖	-12.0275
太仆公孙贺为	-12.0275
郑伯弟段	-12.0275
裹	-12.0275
斋五日	-12.0275
瞻	-12.0275
不亦甚乎	-12.0275
二十五城	-12.0275
以千六百户封	-12.0275
厚遗阏氏	-12.0275
又东至于	-12.0275
君何患	-12.0275
吴令郑昌为韩王	-12.0275
往四五日	-12.0275
披靡	-12.0275
旋踵	-12.0275
无二心	-12.0275
是事之不可知者	-12.0275
父不父	-12.0275
瑰	-12.0275
蹙	-12.0275
车镞矢	-12.0275
金万斤	-12.0275
鏦	-12.0275
钟磬	-12.0275
缸	-12.0275
惠文后	-12.0275
守白马之津	-12.0275
望气王朔	-12.0275
率数万之众	-12.0275
碣	-12.0275
肣	-12.0275
亲属益疏	-12.0275
会稽之耻	-12.0275
传子至孙	-12.0275
岂可谓非	-12.0275
年十八	-12.0275
录录	-12.0275
掠卤	-12.0275
斄	-12.0275
西说秦王	-12.0275
黾	-12.0275
诸侯畔之	-12.0275
牒	-12.0275
拜为上卿	-12.0275
捕首虏	-12.0275
叔振铎	-12.0275
持其头	-12.0275
牝	-12.0275
尺二寸	-12.0275
苑有白鹿	-12.0275
贝	-12.0275
万世之业	-12.0275
京兆	-12.0275
供养	-12.0275
兵者凶器	-12.0275
功最多	-12.0275
受命而帝者	-12.0275
吞二周	-12.0275
墨翟之	-12.0275
女子纺绩不足	-12.0275
引弓之	-12.0275
横行天下	-12.0275
濊	-12.0275
矰	-12.0275
绮縠	-12.0275
缩颈而	-12.0275
耶	-12.0275
脚	-12.0275
裂地而封	-12.0275
解鞍	-12.0275
	-12.0275
偩	-12.0275
匈奴数入	-12.0275
腹诽	-12.0275
递	-12.0275
肤	-12.0275
皆仰给	-12.0275
梧	-12.0275
爪	-12.0275
必加於	-12.0275
信哉是言也	-12.0275
奇咳	-12.0275
废申后	-12.0275
有缓急	-12.0275
牡疝	-12.0275
莲	-12.0275
虎贲之士	-12.0275
豺	-12.0275
骨鲠之臣	-12.0275
高祖微时	-12.0275
齐因起兵	-12.0275
骨肉之亲	-12.0275
中车府令赵高	-12.0276
使骑劫代将	-12.0276
鸿鹄	-12.0276
	-12.0276
伺	-12.0276
城中食尽	-12.0276
骤	-12.0276
橘	-12.0276
以肺腑	-12.0276
先大羹	-12.0276
噣	-12.0276
太子建之子胜	-12.0276
悌	-12.0276
施德惠	-12.0276
未暇见儒人也	-12.0276
猗顿之富	-12.0276
琳	-12.0276
秦彊而赵弱	-12.0276
臭	-12.0276
舜子商均	-12.0276
诸将徇地	-12.0276
蹛	-12.0276
鸷	-12.0276
蓬	-12.0276
荧	-12.0276
成陵君	-12.0276
糟糠	-12.0276
儒墨之	-12.0276
于流沙	-12.0276
底	-12.0276
湎	-12.0276
璜	-12.0276
济南王辟光	-12.0276
谓韩王曰	-12.0276
以巨万计	-12.0276
▁宋忠	-12.0276
为材官将军	-12.0276
令士皆	-12.0276
休屠王	-12.0276
充仞	-12.0276
千夫长	-12.0276
围汉王於荥阳	-12.0276
攻当路塞	-12.0276
於幕北	-12.0276
椎埋	-12.0276
榛	-12.0276
虒	-12.0276
贿	-12.0276
食不重肉	-12.0276
齐王田荣畔	-12.0276
氵费	-12.0276
蕤	-12.0276
与项羽相距	-12.0276
伏轼	-12.0276
左大都尉	-12.0276
祁傒	-12.0276
萃	-12.0276
裨小王	-12.0276
鲁人公孙臣上书	-12.0276
为季氏宰	-12.0276
令太祝	-12.0276
以客礼礼之	-12.0276
何谓毋望之	-12.0276
删	-12.0276
千二百户	-12.0276
南宫敬叔	-12.0276
君有疾在	-12.0276
喘	-12.0276
成帝业	-12.0276
拱手而取	-12.0276
摄行政当国	-12.0276
收天下之兵	-12.0276
於傅险	-12.0276
有二心	-12.0276
杅	-12.0276
武襄君	-12.0276
比德於	-12.0276
淳于司马病	-12.0276
渥	-12.0276
灵圉	-12.0276
相去远矣	-12.0276
知天下之所归	-12.0276
祖宗之	-12.0276
禘	-12.0276
筑受降城	-12.0276
缙	-12.0276
蓼	-12.0276
遍告诸侯	-12.0276
金三品	-12.0276
长乐卫尉	-12.0276
长夜之饮	-12.0276
雅颂之音	-12.0276
项羽别攻	-12.0276
割荥阳以西	-12.0276
尽地力	-12.0276
杀略数千人	-12.0276
祚	-12.0276
胶东王雄渠	-12.0276
隆虑侯	-12.0276
▁命曰呈兆首仰足开	-12.0276
使子胥於齐	-12.0276
公叔伯婴	-12.0276
出五原	-12.0276
受上赏	-12.0276
商君之法	-12.0276
四百户	-12.0276
国内空	-12.0276
士亦以此	-12.0276
壮健	-12.0276
天下之彊国也	-12.0276
天人之际	-12.0276
尘	-12.0276
峣关	-12.0276
斯文也	-12.0276
李归等	-12.0276
楚发兵绝吴	-12.0276
水德之始	-12.0276
涔	-12.0276
猿	-12.0276
盛夏吉时	-12.0276
秘	-12.0276
茭	-12.0276
香	-12.0276
骄蹇	-12.0276
鲁元王偃	-12.0276
陛楯	-12.0276
之馀烈	-12.0276
宋灭曹	-12.0276
汨	-12.0276
贤与不肖	-12.0276
马死者十馀万	-12.0276
鸃	-12.0276
楚公子围弑其君	-12.0277
作柏梁	-12.0277
涉往说	-12.0277
弃市罪	-12.0277
殚	-12.0277
不厌糟糠	-12.0277
主辱臣死	-12.0277
乞贷	-12.0277
五星皆从而聚	-12.0277
吊死问	-12.0277
告急于晋	-12.0277
喙	-12.0277
土禺人	-12.0277
士卒罢敝	-12.0277
局	-12.0277
巅	-12.0277
惕	-12.0277
扞蔽	-12.0277
搤捥而	-12.0277
摇荡	-12.0277
改历服色事	-12.0277
攻受降城	-12.0277
晏平仲	-12.0277
未尝不称善	-12.0277
来年秦复	-12.0277
痿	-12.0277
眯明	-12.0277
礚	-12.0277
竖儒	-12.0277
臧文仲	-12.0277
至六百石	-12.0277
色上黄	-12.0277
莫盛於	-12.0277
请谒追亡人	-12.0277
鄪	-12.0277
铅	-12.0277
铍	-12.0277
骝	-12.0277
魋结	-12.0277
黄犊	-12.0277
钳	-12.0277
生四男	-12.0277
举九江兵	-12.0277
徵百牢	-12.0277
爵左庶长	-12.0277
浍	-12.0277
熙	-12.0277
汪	-12.0277
乐瑕公	-12.0277
周襄王弟带	-12.0277
呵	-12.0277
国之政卒归於	-12.0277
好治宫室	-12.0277
学黄老	-12.0277
撮	-12.0277
求财物买臣妾马牛追亡人渔猎	-12.0277
纵反间於	-12.0277
终始五德之	-12.0277
邵骚	-12.0277
鲁公伯禽	-12.0277
鸮	-12.0277
立皇子长为淮南王	-12.0277
羊舌氏	-12.0277
乐昌侯	-12.0277
唐叔虞	-12.0277
啼泣	-12.0277
喉	-12.0277
好黄老之	-12.0277
帝中丁	-12.0277
废栗太子	-12.0277
烽燧	-12.0277
田乞弑其君孺子	-12.0277
纻	-12.0277
绞	-12.0277
自以精兵	-12.0277
至阳夏南	-12.0277
诛齐庆封	-12.0277
阳虚侯	-12.0277
隶	-12.0277
常伦所	-12.0277
禋	-12.0277
笄	-12.0277
与叔虞	-12.0277
以奉其先祀	-12.0277
刘泽为琅邪王	-12.0277
塞鄳阸	-12.0277
将军摎攻	-12.0277
收散兵	-12.0277
於临济	-12.0277
盲	-12.0277
絻	-12.0277
虏代王嘉	-12.0277
虽百家弗能	-12.0277
蝗大起	-12.0277
鄀	-12.0277
王孙满	-12.0277
万馀里	-12.0277
立简公弟骜	-12.0277
冠军侯	-12.0277
致文武胙於秦	-12.0277
万骑出陇西	-12.0277
三谏不听	-12.0277
不怿而去	-12.0277
为田开阡陌	-12.0277
五色诊	-12.0277
五载一巡狩	-12.0277
以为汉兵不能至	-12.0277
伯州犁	-12.0277
唊	-12.0277
噍	-12.0277
四塞之国	-12.0277
因杅将军敖	-12.0277
垝	-12.0277
居雍高寝	-12.0277
帝小辛	-12.0277
掉	-12.0277
此所谓毋望之	-12.0277
沈汨罗	-12.0277
泰蔟	-12.0277
火齐汤	-12.0277
烟	-12.0277
烧绝栈道	-12.0277
病得之流汗	-12.0277
竹箭	-12.0277
籍少公	-12.0277
蒧	-12.0277
蚌	-12.0277
褊	-12.0277
襄平侯通	-12.0277
赵涉河漳	-12.0277
践帝位	-12.0277
蹂	-12.0277
輓	-12.0277
逾岭	-12.0277
除肉刑	-12.0277
驰骛	-12.0277
骑八万五千	-12.0277
高帝已定天下	-12.0277
与周同姓	-12.0277
踞	-12.0277
南众星曰	-12.0277
廥	-12.0277
晋文公败楚於城濮	-12.0277
督弑其君殇公	-12.0277
霣	-12.0277
皓	-12.0277
俛	-12.0277
嬉	-12.0277
晋公子贤	-12.0277
欲危刘氏	-12.0277
置太尉官	-12.0277
芬芳	-12.0277
衙	-12.0277
愿大王孰计之	-12.0277
伤於泓	-12.0277
▁命曰横吉内外自	-12.0277
▁武王已克殷	-12.0277
吴延陵季子使	-12.0277
挤	-12.0277
三十二城	-12.0277
以客礼待之	-12.0277
伐败齐	-12.0277
侧目而视	-12.0277
侯文帝十六年为	-12.0277
典客刘揭	-12.0277
南方卑湿	-12.0277
囊瓦	-12.0277
囹	-12.0277
居官有忧	-12.0277
帝阳甲	-12.0277
庞暖将	-12.0277
忧劳天下	-12.0277
柘	-12.0277
栾盈	-12.0277
炮格之	-12.0277
犊牢具	-12.0277
童男女	-12.0277
葭	-12.0277
螾	-12.0277
诳	-12.0277
镜	-12.0277
祁连	-12.0277
出锐师	-12.0277
骝驹	-12.0277
涸	-12.0277
▁至今上即位	-12.0277
以孝景前三年	-12.0277
以岁时奉祠	-12.0277
入敬王于周	-12.0277
呈兆若横吉安	-12.0277
喋	-12.0277
帝武乙	-12.0277
帝祖丁	-12.0277
曲周侯郦商	-12.0277
疥	-12.0277
西王母	-12.0277
雍林人	-12.0277
非王之有	-12.0277
内高外下	-12.0277
丐	-12.0278
芬	-12.0278
孟明视	-12.0278
熊霜	-12.0278
雷电	-12.0278
举世混浊	-12.0278
井陉口	-12.0278
处囊中	-12.0278
嬛	-12.0278
孤愤	-12.0278
富国彊兵	-12.0278
封参为	-12.0278
封纣子武庚禄父	-12.0278
岂可得乎	-12.0278
岩穴之士	-12.0278
巧佞	-12.0278
征讨	-12.0278
执宾主之礼	-12.0278
擅发兵击	-12.0278
疽发背	-12.0278
离宫别	-12.0278
秦左右校	-12.0278
秦相应侯	-12.0278
窳	-12.0278
而民不得安	-12.0278
耑	-12.0278
胎	-12.0278
脂	-12.0278
自缪公以来	-12.0278
茸	-12.0278
言万物始生	-12.0278
豪恶吏	-12.0278
辟恶鬼	-12.0278
铭	-12.0278
陷阵	-12.0278
隼	-12.0278
▁察日	-12.0278
为轵侯	-12.0278
之列传	-12.0278
以国为姓	-12.0278
使乐乘代廉颇	-12.0278
太常臣充	-12.0278
斯可谓之	-12.0278
晋顷公之	-12.0278
武安侯田蚡为	-12.0278
眴	-12.0278
因葬焉	-12.0278
九州攸	-12.0278
以身徇	-12.0278
楚公子弃疾弑其君灵王代立	-12.0278
为名高者	-12.0278
为陇西都尉	-12.0278
因此时	-12.0278
天下莫能当	-12.0278
将梅鋗	-12.0278
楼船将军杨仆	-12.0278
臣意饮以	-12.0278
舞文巧诋	-12.0278
言阴气	-12.0278
诏诏之	-12.0278
跳	-12.0278
长子扶苏	-12.0278
颍阴侯灌婴	-12.0278
控	-12.0278
泓	-12.0278
三父等	-12.0278
中国之虞	-12.0278
令后世得	-12.0278
军散走	-12.0278
归视亲	-12.0278
接境壤界	-12.0278
独与滕公	-12.0278
而善著书	-12.0278
郦生说豹	-12.0278
铜鞮	-12.0278
闻斯行	-12.0278
下其议	-12.0278
其次序	-12.0278
檄告	-12.0278
为昆弟之国	-12.0278
以距汉	-12.0278
凋	-12.0278
右北平太守	-12.0278
天子法驾	-12.0278
守相田光	-12.0278
巿人皆	-12.0278
廷掾	-12.0278
心独喜	-12.0278
李园女弟	-12.0278
此非臣之所	-12.0278
独不见夫	-12.0278
璆	-12.0278
笙	-12.0278
羽翮	-12.0278
酺五日	-12.0278
鐻	-12.0278
驺牙	-12.0278
鲛	-12.0278
使公子弃疾	-12.0278
定公与吴王夫差	-12.0278
与余善	-12.0278
太子丹入质	-12.0278
愍	-12.0278
秦将王离	-12.0278
蟜极	-12.0278
跂	-12.0278
颖	-12.0278
顷侯立	-12.0278
从骠侯	-12.0278
丁亥	-12.0278
三年不蜚	-12.0278
不避贵戚	-12.0278
与上卧起	-12.0278
交臂而	-12.0278
伏弩	-12.0278
使臣效愚计	-12.0278
则民莫敢不	-12.0278
发兵距险	-12.0278
富埒	-12.0278
愤发	-12.0278
挛	-12.0278
普施	-12.0278
檀台	-12.0278
玉杯	-12.0278
王后乘舒	-12.0278
立于社	-12.0278
足以饰非	-12.0278
默然无以应	-12.0278
杼	-12.0278
虎贲	-12.0278
朕之不德	-12.0278
严酷	-12.0278
内自桥	-12.0278
涿鹿之	-12.0278
鞠躬	-12.0278
令诸侯各	-12.0278
冶铸	-12.0278
楚使子常	-12.0278
莫不宾服	-12.0279
二千五百户	-12.0279
吾知其能	-12.0279
大行李息	-12.0279
嵯峨	-12.0279
旸	-12.0279
有喜色	-12.0279
未始有	-12.0279
李哆为	-12.0279
枉车骑	-12.0279
段干木	-12.0279
潘崇	-12.0279
爱憎之	-12.0279
盆	-12.0279
督亢	-12.0279
终身不仕	-12.0279
获首虏	-12.0279
诖误	-12.0279
贽	-12.0279
赤县神州	-12.0279
邈绝	-12.0279
陁	-12.0279
騄耳	-12.0279
鱼腹中	-12.0279
稻	-12.0279
元里	-12.0279
左方兵	-12.0279
是故愿大王孰计之	-12.0279
楚将子反	-12.0279
皂	-12.0279
皇帝敬问匈奴大单于无恙	-12.0279
破荆军	-12.0279
臣尝游	-12.0279
適长孙	-12.0279
亶父	-12.0279
斜	-12.0279
为盟主	-12.0279
加兵於赵	-12.0279
周道衰	-12.0279
娶妇嫁女	-12.0279
扈辄	-12.0279
杨季主	-12.0279
柏寝	-12.0279
求救於齐	-12.0279
河东太守	-12.0279
滔	-12.0279
畦畤	-12.0279
祝兹侯	-12.0279
羊肠	-12.0279
翔舞	-12.0279
构难	-12.0279
洛汭	-12.0279
皆太祝	-12.0279
秦之深雠也	-12.0279
自古以来	-12.0279
雄鸡	-12.0279
公孙无知	-12.0279
布衣匹夫	-12.0279
乾谿	-12.0279
诛成安君	-12.0279
今纵不能	-12.0279
以宗女	-12.0279
以羊彘	-12.0279
僮仆	-12.0279
其下则有	-12.0279
具以实告	-12.0279
受命於天	-12.0279
吴娃	-12.0279
孟姚	-12.0279
将十万众	-12.0279
归将印	-12.0279
归燕之十城	-12.0279
收帑	-12.0279
炫	-12.0279
珍宝	-12.0279
百越之君	-12.0279
称东藩	-12.0279
薆	-12.0279
鄄	-12.0279
驷与彼	-12.0279
孙林父	-12.0279
淮泗	-12.0279
神仙之属	-12.0279
萌隶	-12.0279
佛肸	-12.0279
其宿地	-12.0279
其无能为也	-12.0279
剥	-12.0279
吾知之矣	-12.0279
大赦罪人	-12.0279
少而功多	-12.0279
庄蹻	-12.0279
才能不	-12.0279
朱鸡石	-12.0279
譁	-12.0279
郭隗	-12.0279
穿井	-12.0279
为城阳王	-12.0279
为河间王	-12.0279
杀郑子	-12.0279
之兴也以	-12.028
亡入魏	-12.028
以岁时致礼	-12.028
其孤未壮	-12.028
匿山中	-12.028
商於之地六百里	-12.028
大车驷马	-12.028
建章宫	-12.028
形弊	-12.028
揽	-12.028
昔下宫之难	-12.028
梓材	-12.028
湫	-12.028
熛至	-12.028
牝牡	-12.028
皇帝使御史大夫汤庙立子	-12.028
裂地而王	-12.028
计无便	-12.028
赐我二笥	-12.028
蹶阴之	-12.028
铗	-12.028
黎轩	-12.028
齐鲁之间	-12.028
募徙	-12.028
斩捕首虏	-12.028
范献子	-12.028
奏请	-12.028
奸轨	-12.028
听琴瑟	-12.028
唏	-12.028
三去相	-12.028
北至琅邪	-12.028
悠	-12.028
枯木朽株	-12.028
翟谋伐	-12.028
甘露	-12.028
礼废乐	-12.028
赖陛下神灵	-12.028
不过数人	-12.028
兆祥	-12.028
则毋以其	-12.028
北绝齐交	-12.028
吕马童	-12.028
固非浅闻	-12.028
委输	-12.028
帝不降	-12.028
彀	-12.028
或在夷狄	-12.028
故来告	-12.028
汧渭之	-12.028
百万之军	-12.028
神农氏	-12.028
讲诵	-12.028
以应陈涉	-12.028
安敢望	-12.028
小馀九百	-12.028
朱虚	-12.028
有文在	-12.028
其母蔡女	-12.028
列为九卿	-12.028
夕出郊	-12.028
孔文子	-12.028
租赋	-12.028
败魏於	-12.028
邛竹	-12.028
成公朝晋	-12.028
诸侯莫朝	-12.028
以寿终	-12.028
三王不同	-12.028
反为魏	-12.028
可观也	-12.028
奏请诛	-12.028
无验者	-12.028
曲沃桓叔	-12.028
棘壁	-12.028
泗上十二诸侯	-12.028
考入海	-12.028
问传舍长	-12.028
除其罪	-12.028
齐诸田	-12.028
二月乙	-12.028
切齿	-12.0281
月甲戌	-12.0281
灌园	-12.0281
为国患	-12.0281
以文绣	-12.0281
灵文侯	-12.0281
获麟	-12.0281
赁	-12.0281
黄钺	-12.0281
黑圜	-12.0281
伉代侯	-12.0281
胡骑晋阳	-12.0281
险狭	-12.0281
各守其	-12.0281
如耳见	-12.0281
存亡之机	-12.0281
宫之奇	-12.0281
对簿	-12.0281
廊庙	-12.0281
永叹	-12.0281
泽卤	-12.0281
玄鸟	-12.0281
用蒯通计	-12.0281
皆有副	-12.0281
颀	-12.0281
威烈王	-12.0281
魏之河内	-12.0281
为太子取妇	-12.0281
人君礼	-12.0281
刖	-12.0281
四战之国	-12.0281
枝叶	-12.0281
楚绝其后	-12.0281
白雉	-12.0281
百蛮	-12.0281
驷钧	-12.0281
丁酉	-12.0281
纪氏女	-12.0281
鬼谷	-12.0281
大潦	-12.0281
兵必罢	-12.0281
割膏腴之	-12.0281
右陇	-12.0281
四十六日	-12.0281
国人不附	-12.0281
年六十馀	-12.0281
煮枣	-12.0281
百户牛	-12.0281
皆仰给县官	-12.0281
铸鼎	-12.0281
鲁仲连先生	-12.0281
齐国之政	-12.0281
淫於酒	-12.0282
乖异	-12.0282
庠序	-12.0282
济南太守	-12.0282
尽索之	-12.0282
偃蹇	-12.0282
御史大夫周苛	-12.0282
蕤宾	-12.0282
襄之意	-12.0282
贤於己	-12.0282
赵使李牧	-12.0282
至矣哉	-12.0282
大破汉军	-12.0282
垣雍	-12.0282
居民间	-12.0282
秦拔赵	-12.0282
缟素	-12.0282
缪嬴	-12.0282
膝行而前	-12.0282
言以乱	-12.0282
起临洮	-12.0282
转移	-12.0282
饮药自杀	-12.0282
初置东郡	-12.0282
大败楚军	-12.0282
咎为魏王	-12.0282
火灾	-12.0282
酎	-12.0282
左丞相平	-12.0282
放勋	-12.0282
瑕丘	-12.0282
身毒	-12.0282
在大宛西	-12.0282
举烽火	-12.0282
以观诸侯	-12.0282
发卒数万人	-12.0282
堂邑父	-12.0282
始皇下其议	-12.0282
帅师	-12.0282
斩李由	-12.0282
昆阳	-12.0282
朅	-12.0282
柔克	-12.0282
灌孟	-12.0282
皇后兄	-12.0282
育群生	-12.0282
庙堂	-12.0283
免冠	-12.0283
国除为郡	-12.0283
居匈奴中	-12.0283
平原君母死	-12.0283
膏壤	-12.0283
靡丽	-12.0283
贾竖	-12.0283
人或毁	-12.0283
以观越	-12.0283
厀	-12.0283
复禹之	-12.0283
天子始巡郡	-12.0283
成安君陈馀	-12.0283
束缚	-12.0283
欲为乱者十家而	-12.0283
箦	-12.0283
至陈而王	-12.0283
赵氏孤儿	-12.0283
遵职	-12.0283
廪丘	-12.0283
大人赋	-12.0283
是故愿大王	-12.0283
先王之宗庙	-12.0283
卖浆	-12.0283
叔詹	-12.0283
堂堂	-12.0283
杀北地都尉卬	-12.0283
穷巷	-12.0283
粟支	-12.0283
酷刑	-12.0283
云蒸	-12.0283
有遗腹	-12.0283
出下计	-12.0283
取郓	-12.0283
困戹	-12.0283
夹锺	-12.0283
奸猾	-12.0283
寝庙	-12.0283
弑王僚	-12.0283
侈靡	-12.0283
相齐宣公	-12.0283
藩辅	-12.0283
奄蔡	-12.0283
宜春侯	-12.0283
弑其君昭侯	-12.0283
雄渠	-12.0284
臣之愚	-12.0284
为虏矣	-12.0284
人情之所	-12.0284
尚平阳公主	-12.0284
御史大夫张汤	-12.0284
猛虎	-12.0284
统理	-12.0284
而复始	-12.0284
与魏惠王会	-12.0284
杖剑	-12.0284
葛婴	-12.0284
申不害	-12.0284
不师古	-12.0284
君不君	-12.0284
唐雎	-12.0284
大司马咎	-12.0284
嬖姬	-12.0284
币帛	-12.0284
捕斩首虏	-12.0284
既殁	-12.0284
曹丘生	-12.0284
溃围	-12.0284
燕雀	-12.0284
言於秦昭王	-12.0284
鞅复见孝公	-12.0284
寒热	-12.0284
衰秏	-12.0284
伍徐	-12.0284
拜稽首	-12.0284
殷勤	-12.0284
兵大起	-12.0284
月戊申	-12.0284
公孙衍	-12.0284
瑞应	-12.0284
夺其军	-12.0284
宣平侯张敖	-12.0284
使刘贾将	-12.0284
▁灵公元年	-12.0284
其有极	-12.0284
击其辎重	-12.0284
君臣之义	-12.0284
吾说公以	-12.0284
扞关	-12.0284
文武之道	-12.0284
浊河	-12.0284
蕃昌	-12.0284
赤侧	-12.0284
四子皆	-12.0284
黄棘	-12.0284
各有宜	-12.0285
引兵而东	-12.0285
杨干	-12.0285
元朔四年	-12.0285
好事者	-12.0285
▁子思	-12.0285
以填之	-12.0285
合骑侯敖	-12.0285
复入壁	-12.0285
夫武之	-12.0285
病得之酒	-12.0285
襃斜道	-12.0285
复与匈奴和亲	-12.0285
为士卒先	-12.0285
▁公西	-12.0285
元狩四年	-12.0285
景湣王	-12.0285
子赣	-12.0285
熊徇	-12.0285
国家无事	-12.0285
可以去矣	-12.0285
赵王张敖	-12.0285
凡十四	-12.0285
淳于先生	-12.0285
元光元年	-12.0285
塞成皋之	-12.0285
故吴相袁盎	-12.0285
病笃	-12.0285
秦武王卒	-12.0285
膝行	-12.0285
任郑安平	-12.0286
元朔二年	-12.0286
推锋	-12.0286
立赵后	-12.0286
遂发兵反	-12.0286
受诏别	-12.0286
大将军窦婴	-12.0286
市租	-12.0286
师於殽	-12.0286
更立他	-12.0286
求救於秦	-12.0286
胥靡	-12.0286
慈母	-12.0286
臣不敢避	-12.0286
以扁鹊言	-12.0286
万乘之权	-12.0286
三光之	-12.0286
专国政	-12.0286
犯王命	-12.0286
拜释之为	-12.0286
绾称病	-12.0286
高祖为沛公	-12.0286
丞相申屠嘉	-12.0286
可言者	-12.0286
林锺	-12.0286
欲存之	-12.0286
循理	-12.0286
计未决	-12.0286
桓公鲍	-12.0286
薄姑	-12.0286
祠坛	-12.0286
摇动	-12.0286
八寸	-12.0287
夫秦为无道	-12.0287
群羊	-12.0287
霸西戎	-12.0287
栖於会稽	-12.0287
令其子为	-12.0287
斩首十万	-12.0287
则莫不和	-12.0287
伏灵	-12.0287
年六十二	-12.0287
臣不臣	-12.0287
卫元君	-12.0287
平定海内	-12.0287
如流水	-12.0287
罔极	-12.0287
佞幸	-12.0287
亡秦族	-12.0287
闭口	-12.0287
▁悼公元年	-12.0287
前将军广	-12.0287
少者得	-12.0287
常以夜	-12.0287
渐台	-12.0287
繇咸阳	-12.0287
郭舍人	-12.0287
鸿冢	-12.0287
以官卒	-12.0287
元鼎三年	-12.0287
武臣等家	-12.0287
何遽	-12.0287
天地万物	-12.0287
寡妇	-12.0287
幽王子遂	-12.0287
青圜	-12.0287
七十里	-12.0288
朕亲郊	-12.0288
蜚鸟	-12.0288
龟贝	-12.0288
击缸	-12.0288
助魏攻	-12.0288
长四寸	-12.0288
杜衍	-12.0288
丙戎	-12.0288
迫劫	-12.0288
鼓旗	-12.0288
寻阳	-12.0288
执戟	-12.0288
刻削	-12.0288
见欺於张仪	-12.0288
饥寒	-12.0288
漆身为厉	-12.0288
疆土	-12.0288
非其任	-12.0288
奄父	-12.0289
东方朔	-12.0289
任国政	-12.0289
心知其意	-12.0289
烦费	-12.0289
杀略汉	-12.0289
将兵伐晋	-12.0289
出公辄	-12.0289
列九卿	-12.0289
则可矣	-12.0289
夏后帝	-12.0289
太尉亚夫	-12.0289
王温舒等	-12.0289
管仲因而	-12.0289
负羁	-12.0289
三年於此矣	-12.0289
五十匹	-12.0289
弗肯	-12.0289
父子君臣	-12.0289
罪当死	-12.0289
周室卑	-12.0289
治宫观	-12.0289
五寸	-12.0289
识其处	-12.0289
共王目	-12.029
居禁中	-12.029
公何以言	-12.029
刻玉	-12.029
繻公	-12.029
司马穰苴	-12.029
尽以予	-12.029
紫宫	-12.029
五帝坛	-12.029
戚姬	-12.029
臣青翟等	-12.029
父子兄弟	-12.029
周显王	-12.029
其指意	-12.029
深雠	-12.029
称病不往	-12.029
坐法失官	-12.029
帝孔甲	-12.029
庄敖	-12.029
放牛	-12.029
杨州	-12.029
此臣之所谓	-12.029
轻锐	-12.029
河西之地	-12.029
遗赵王书	-12.029
恭谨	-12.029
必若所	-12.0291
皆明知	-12.0291
以一牛	-12.0291
其子寄	-12.0291
祖乙	-12.0291
稽疑	-12.0291
翁伯	-12.0291
从风而	-12.0291
令民得	-12.0291
冯唐	-12.0291
放弑	-12.0291
直百金	-12.0291
费无忌	-12.0291
隐桓之	-12.0291
及其衰	-12.0291
帝盘庚	-12.0291
舜摄行天子	-12.0291
无垠	-12.0291
俯首	-12.0291
吴楚七国反	-12.0291
拜为博士	-12.0291
正月旦	-12.0291
宝玉	-12.0291
载与俱归	-12.0291
野兽	-12.0291
灵寿	-12.0291
獠者	-12.0291
熊严	-12.0292
结和亲	-12.0292
乡党	-12.0292
右尹	-12.0292
奋翼	-12.0292
愚儒	-12.0292
楼昌	-12.0292
质於赵	-12.0292
为主计	-12.0292
弄法	-12.0292
败楚师	-12.0292
十二渠	-12.0292
南巡狩	-12.0292
取其头	-12.0292
周室衰	-12.0292
孔安国	-12.0292
数万众	-12.0292
稽留	-12.0292
管夷吾	-12.0292
考叔	-12.0292
西巡狩	-12.0292
筑甬道属	-12.0292
种树	-12.0292
遂伏剑	-12.0292
函封	-12.0293
韩千秋	-12.0293
岂有意	-12.0293
河滨	-12.0293
肥美	-12.0293
鸣泽	-12.0293
虢叔	-12.0293
周武王克殷	-12.0293
将军陈武	-12.0293
右将军建	-12.0293
大风起	-12.0293
长不满	-12.0293
王无彊	-12.0293
使督盗贼	-12.0293
朔方郡	-12.0293
趣驾	-12.0293
以尊贵	-12.0293
便程	-12.0293
俞侯	-12.0293
戎狄之间	-12.0293
后百馀年	-12.0294
兄弟四人	-12.0294
丞相平等	-12.0294
吕须	-12.0294
应锺	-12.0294
风气也	-12.0294
严助	-12.0294
举大事	-12.0294
定代地	-12.0294
日夜泣	-12.0294
保晋阳	-12.0294
约车	-12.0294
取楚王信	-12.0294
齐败我观	-12.0294
所损益	-12.0294
天数者	-12.0294
菑川王贤	-12.0294
公孙光	-12.0294
击磬	-12.0294
引兵而还	-12.0294
秦襄公始	-12.0295
子之所闻	-12.0295
戴伯	-12.0295
▁汉十一年	-12.0295
十馀万骑	-12.0295
陉城	-12.0295
雕阴	-12.0295
故不受也	-12.0295
争桑	-12.0295
宝剑	-12.0295
武安由此	-12.0295
济北郡	-12.0295
治产业	-12.0295
经纪	-12.0295
名高天下	-12.0295
安陵氏	-12.0295
岂特	-12.0295
歌舞	-12.0295
甚善之	-12.0295
粟都尉	-12.0295
臣固知	-12.0295
荆州	-12.0295
卖爵	-12.0296
六十馀岁	-12.0296
加惠	-12.0296
甚有宠於	-12.0296
与楚盟	-12.0296
奇药	-12.0296
岐伯	-12.0296
黄金千	-12.0296
息慎	-12.0296
以亲故	-12.0296
因嬖人	-12.0296
定律令	-12.0296
当驰道	-12.0297
口不能言	-12.0297
武姜	-12.0297
淫侈	-12.0297
留侯策	-12.0297
群臣诵	-12.0297
朕躬	-12.0297
万灵	-12.0297
副车	-12.0297
什倍	-12.0297
初并天下	-12.0297
以孝景中六年为	-12.0297
与赵王会	-12.0297
反乎卫	-12.0297
此天下之所	-12.0297
秦必疑	-12.0297
符离人	-12.0297
淮阴侯韩信	-12.0297
太子建母	-12.0298
辍食	-12.0298
▁汉六年	-12.0298
攻下邑	-12.0298
头兰	-12.0298
堂邑	-12.0298
当周厉王	-12.0298
非庸人	-12.0298
以其半	-12.0298
取齐女	-12.0298
侍郎	-12.0298
刘舍	-12.0298
并南山	-12.0298
▁武王既	-12.0299
东海郡	-12.0299
夏启	-12.0299
胡亥极	-12.0299
旁小邑	-12.0299
庆忌	-12.0299
围钜鹿	-12.0299
如瓜	-12.0299
欲易太子	-12.0299
畜积	-12.0299
括母	-12.0299
高后八年	-12.0299
取十城	-12.0299
而身为禽	-12.0299
之浦	-12.0299
囚箕子	-12.0299
形状	-12.0299
重泉	-12.0299
夹河	-12.0299
仁者不	-12.03
秦王政初	-12.03
相反也	-12.03
置酒咸阳	-12.03
仪表	-12.03
射干	-12.03
往来苦	-12.03
西入武关	-12.03
居西垂	-12.03
以城降	-12.03
者可以为	-12.03
诸律令	-12.03
张仪相魏	-12.03
六十日	-12.0301
解纷	-12.0301
铚人	-12.0301
使明知	-12.0301
故不论	-12.0301
画策	-12.0301
仇犹	-12.0301
甲乙	-12.0301
灵星	-12.0301
和鸣	-12.0301
魏氏不敢	-12.0301
季连	-12.0301
改容	-12.0301
必入臣	-12.0301
徐戎	-12.0301
盼子	-12.0302
遣长公主	-12.0302
幽伯	-12.0302
骑数百	-12.0302
申差	-12.0302
负郭	-12.0302
向坐	-12.0302
贰师城	-12.0302
饟道	-12.0302
景叔	-12.0302
即讯	-12.0302
勉哉	-12.0302
杀轲	-12.0303
杀鲁桓公	-12.0303
郊祭	-12.0303
迁为御史	-12.0303
仲姬	-12.0303
失其官	-12.0303
戎州	-12.0303
已习其	-12.0303
千社	-12.0303
朱虚侯章	-12.0303
毛先生	-12.0303
耻辱	-12.0304
复故位	-12.0304
郦侯	-12.0304
征和	-12.0304
会诸侯於陈	-12.0304
方士传	-12.0304
列侯之国	-12.0304
里公乘	-12.0304
以为客卿	-12.0304
北落	-12.0304
大将军卫青	-12.0304
孝景帝崩	-12.0304
游侠	-12.0304
王后脩	-12.0304
血气	-12.0304
言於吴王	-12.0304
临淮	-12.0304
扶义	-12.0304
抗礼	-12.0304
所侵	-12.0304
与其徒	-12.0304
学兵法	-12.0305
沛公引兵西	-12.0305
伏剑	-12.0305
厥姬	-12.0305
山东之国	-12.0305
为匈奴所得	-12.0305
罢弊	-12.0305
悲歌	-12.0305
未至彭城	-12.0305
臣逸	-12.0305
愿望见	-12.0305
吊祠	-12.0305
太仓公	-12.0305
竖子耳	-12.0305
济南郡	-12.0305
数侵夺	-12.0305
度幕	-12.0305
吴广等	-12.0306
显荣	-12.0306
军广武	-12.0306
华阳太后	-12.0306
各有数	-12.0306
横流	-12.0306
诏狱	-12.0306
过一日不	-12.0306
杀其大夫	-12.0306
矫制	-12.0307
购求	-12.0307
饰虚	-12.0307
刘敬说	-12.0307
仇怨	-12.0307
咸池	-12.0307
不敢妄	-12.0307
五百馀里	-12.0307
尽之矣	-12.0307
恭让	-12.0307
谨候	-12.0307
感动	-12.0307
黔中地	-12.0307
伦侯	-12.0308
渡江	-12.0308
新造	-12.0308
山谷	-12.0308
享国四年	-12.0308
通夜郎	-12.0308
项羽已破	-12.0309
末世	-12.0309
昌意之子	-12.0309
佚乐	-12.0309
极哀	-12.0309
郦将军	-12.0309
石奢	-12.0309
辅拂	-12.0309
三十里地	-12.0309
李陵	-12.0309
饰诈	-12.0309
益彰	-12.0309
元龟	-12.0309
先王祀	-12.0309
支属	-12.0309
守长史	-12.031
楚令尹子西	-12.031
无已时	-12.031
艾安	-12.031
▁后六年	-12.031
初起时	-12.031
与吴战	-12.031
劲兵	-12.031
距关	-12.031
水灌	-12.031
复其位	-12.031
作阳陵	-12.031
乐得其	-12.031
号泣	-12.031
起为寿	-12.031
夜郎侯	-12.031
郑告急	-12.031
草具	-12.0311
立为单于	-12.0311
周公辅	-12.0311
与鲁会	-12.0311
党氏	-12.0311
回邪	-12.0311
授舜	-12.0311
民疫	-12.0311
深虑	-12.0311
夺爵	-12.0311
绝幕	-12.0311
百万石	-12.0311
守要害	-12.0311
自帷中	-12.0311
饮醇酒	-12.0311
为虏所	-12.0311
主君之子	-12.0312
亳南	-12.0312
宫垣	-12.0312
攻武关	-12.0312
牛畜	-12.0312
若有光	-12.0312
青黑	-12.0312
示天下不复用	-12.0312
应对	-12.0312
戎夷	-12.0312
之上卿	-12.0312
上尊号	-12.0312
贯高等	-12.0312
卫姬	-12.0312
拔楚之	-12.0313
温良	-12.0313
吴东门	-12.0313
据敖	-12.0313
辇道	-12.0313
杀幽公	-12.0313
咸阳市	-12.0313
淮阳守	-12.0313
赵王吕禄	-12.0313
不受私	-12.0313
药酒	-12.0313
一年卒	-12.0313
弑灵公	-12.0314
遁去	-12.0314
以军降	-12.0314
兵亦罢	-12.0314
列宿	-12.0314
闰馀	-12.0314
唐尧	-12.0314
梁王恢	-12.0314
裨王	-12.0314
一寸	-12.0314
以其地为	-12.0314
锐兵	-12.0314
文貌	-12.0314
登龙	-12.0314
于亳	-12.0315
乃召拜	-12.0315
所以辨	-12.0315
赤角	-12.0315
新丰	-12.0315
号之曰	-12.0315
因自立为齐王	-12.0315
此臣之所大	-12.0315
如家人	-12.0315
泉阳令	-12.0315
封齐悼惠王子	-12.0316
秦破韩	-12.0316
玉斗	-12.0316
一子为	-12.0316
于姜	-12.0316
生子二人	-12.0316
自负其	-12.0316
宽厚	-12.0316
富辰	-12.0316
设备	-12.0316
让其弟	-12.0316
阙门	-12.0316
不足以为臣	-12.0317
致贡	-12.0317
曹丘	-12.0317
五味	-12.0317
甲而趋	-12.0317
万端	-12.0317
冲天	-12.0317
蒯通说	-12.0317
於是制诏御史	-12.0317
左内史	-12.0318
不欲受	-12.0318
以正中	-12.0318
使长史欣	-12.0318
王齮	-12.0318
桥山	-12.0318
丞相灌婴	-12.0318
代成君	-12.0318
削弱	-12.0318
虏豹	-12.0318
匡正	-12.0318
吾臣有	-12.0318
得首虏	-12.0318
恤民	-12.0318
势不两立	-12.0318
三百石	-12.0318
十二星	-12.0319
法律	-12.0319
祖甲	-12.0319
有日矣	-12.0319
郑卫之	-12.0319
入秦宫	-12.032
善谀	-12.032
复归帝	-12.032
子孙咸	-12.032
戚氏	-12.032
灌等	-12.032
穷奇	-12.032
秦灭周	-12.032
于嗟	-12.032
赵悼襄王	-12.032
正妃	-12.032
行礼祠	-12.032
▁及至秦	-12.032
圣智	-12.0321
是故君子	-12.0321
二三子	-12.0321
择吉	-12.0321
语泄	-12.0321
苟利	-12.0321
田园	-12.0321
终莫能	-12.0321
荧惑守	-12.0321
勿敢	-12.0321
愈顺	-12.0321
昭关	-12.0321
盛壮	-12.0321
黄老	-12.0321
贾姬	-12.0322
横吉	-12.0322
天子既闻	-12.0322
左右司马	-12.0322
逾城	-12.0322
鼎足	-12.0322
祝祠	-12.0322
汤为御史大夫	-12.0322
意忌	-12.0322
有白云	-12.0322
举巴蜀	-12.0322
与我会	-12.0322
百全	-12.0322
诸郡县	-12.0322
置园	-12.0323
巫郡	-12.0323
出其南	-12.0323
风居东	-12.0323
襃有德也	-12.0323
议封禅	-12.0323
恶少年	-12.0323
直千金	-12.0323
得罪於君	-12.0323
以为儒者	-12.0323
八千人	-12.0323
子不子	-12.0323
修先王	-12.0323
授政	-12.0323
沙中	-12.0324
戎狄是	-12.0324
兴礼乐	-12.0324
良工	-12.0324
知吉凶	-12.0324
灭知伯	-12.0324
衣敝	-12.0324
寒门	-12.0324
成大功者	-12.0324
豫且得	-12.0324
陇西守	-12.0324
责汤	-12.0324
小月氏	-12.0325
东徙雒邑	-12.0325
商容	-12.0325
天下盐铁	-12.0325
我固当	-12.0325
上乃赦	-12.0325
巡狩封禅	-12.0325
魏成子	-12.0325
先王之所以	-12.0325
即位十三年	-12.0326
▁窦皇后	-12.0326
与汉战	-12.0326
卢生	-12.0326
以自广	-12.0326
极庙	-12.0326
迎孟尝君	-12.0326
与其大夫	-12.0327
伏匿	-12.0327
庄敬	-12.0327
良医	-12.0327
命羲	-12.0327
视其书	-12.0327
致粟	-12.0327
伯鱼	-12.0327
深壁	-12.0327
西羌	-12.0327
八九万	-12.0327
宣伯	-12.0328
以是知	-12.0328
危殆	-12.0328
以待士	-12.0328
南征	-12.0328
赵王将相	-12.0328
工官	-12.0328
安阳侯	-12.0328
懿子	-12.0328
谁最	-12.0328
吴使者至	-12.0328
谬乎	-12.0328
胡儿	-12.0329
卦得	-12.0329
北击胡	-12.0329
与其息	-12.0329
劫略	-12.033
湣公弟	-12.033
送丧	-12.033
城河上	-12.033
令男子	-12.033
祭黄帝	-12.033
具以报	-12.033
牧马	-12.033
鄂君	-12.033
巨公	-12.033
则有若	-12.033
师襄子	-12.033
画邑	-12.0331
及腊	-12.0331
守成皋	-12.0331
千足	-12.0331
天子之位	-12.0331
周厉王出奔	-12.0331
今陛下亲	-12.0332
杀出子	-12.0332
且夫秦之	-12.0332
取阳城	-12.0332
於堂下	-12.0332
盛推	-12.0332
祠泰山	-12.0332
驰说之	-12.0332
楚汉相距	-12.0333
徐偃王	-12.0333
衡石	-12.0333
用昏	-12.0333
康叔封	-12.0333
送重耳	-12.0333
邓说	-12.0333
能得士	-12.0333
各殊	-12.0334
延陵	-12.0334
封康叔	-12.0334
贪而好	-12.0334
五典	-12.0334
能使之	-12.0334
陛下之意	-12.0334
庶兄	-12.0334
倾耳	-12.0334
大骇	-12.0334
祠五帝	-12.0335
见武信君	-12.0335
军钜鹿	-12.0335
王之宠姬	-12.0335
破项籍	-12.0335
民疾疫无	-12.0335
为胡所	-12.0335
积石	-12.0335
荒侯	-12.0335
蕃臣	-12.0335
儿单于	-12.0336
厉贤	-12.0336
足以观	-12.0336
弟之名	-12.0336
质直	-12.0336
一匹	-12.0336
一倡	-12.0336
久劳	-12.0336
穷兵之	-12.0336
受兹	-12.0336
分职	-12.0337
使吏捕	-12.0337
世世称	-12.0337
立景驹为	-12.0337
天下辩士	-12.0337
存亡国	-12.0337
言万物可	-12.0337
魏武子	-12.0337
背约	-12.0337
乃令祠官	-12.0337
死不葬	-12.0337
告急於秦	-12.0337
求财物得	-12.0337
舆马	-12.0338
岂所谓	-12.0338
赵衰等	-12.0338
长沮	-12.0338
以反为	-12.0338
立四十七年	-12.0338
不足任	-12.0338
汉兵远	-12.0338
丞相公孙弘	-12.0338
千一百八十	-12.0339
得赵绾	-12.0339
作阿房	-12.0339
滋多	-12.0339
入焉而	-12.0339
子韦	-12.0339
壁门	-12.0339
孟夏	-12.034
彗星出	-12.034
亡降汉	-12.034
先帝法	-12.034
直数千	-12.034
不相能	-12.034
譬之	-12.034
八十一	-12.034
行出游	-12.0341
吾闻君子	-12.0341
送徒	-12.0341
闻此言	-12.0341
帝辛	-12.0341
无所遇	-12.0341
事下廷尉	-12.0342
孔子冢	-12.0342
札书	-12.0342
唯谨	-12.0342
威加	-12.0342
巫祠	-12.0342
武林	-12.0342
不可以应	-12.0343
所鲜	-12.0343
汉购	-12.0343
立二年卒	-12.0343
责望	-12.0343
卫长公主	-12.0343
孟女	-12.0343
守冢	-12.0343
又何足	-12.0344
白角	-12.0344
送葬	-12.0344
重币	-12.0344
之与卫	-12.0344
败楚将	-12.0344
烈公	-12.0345
汉王还定三秦	-12.0345
辅政	-12.0345
送迎	-12.0345
杨越	-12.0345
至日中	-12.0345
震恐	-12.0345
之无端	-12.0345
大鸿	-12.0346
赵歇	-12.0346
遇害	-12.0346
且秦以	-12.0346
受其方	-12.0346
泥行	-12.0346
巴蜀民	-12.0346
七百人	-12.0346
秦军解	-12.0346
建元中	-12.0346
诛罚	-12.0347
自往迎	-12.0347
周览	-12.0347
围大梁	-12.0347
朕获	-12.0347
室屋	-12.0347
愿勿	-12.0347
疾步	-12.0347
端门	-12.0347
推本	-12.0347
失序	-12.0347
伯牛	-12.0347
天廷	-12.0348
於江上	-12.0348
脉书	-12.0348
有三归	-12.0348
自是后	-12.0348
论剑	-12.0348
自上古	-12.0348
不矜其	-12.0348
拔邯郸	-12.0349
挟天子	-12.0349
霸中国	-12.0349
急引兵	-12.0349
白头	-12.0349
今杀王	-12.035
与秦合	-12.035
为济阴	-12.035
絜行	-12.035
死之日	-12.035
羁属	-12.035
百钱	-12.035
正於五	-12.035
所以失天下	-12.035
可得而礼	-12.0351
伐霍	-12.0351
八音	-12.0351
有所幸	-12.0351
吴回	-12.0351
因乘胜	-12.0351
水工	-12.0352
群弟	-12.0352
驰逐	-12.0352
长丞	-12.0352
不时则	-12.0352
于山川	-12.0352
▁郑庄	-12.0352
今孔丘	-12.0353
楚王大怒	-12.0353
寿星	-12.0353
徐氏	-12.0353
南北军	-12.0354
夏社	-12.0354
殷复兴	-12.0354
命有司	-12.0354
承间	-12.0354
从谀	-12.0354
天地之间	-12.0354
画计	-12.0354
赵孝成王卒	-12.0354
居栎	-12.0354
帝廷	-12.0354
中大夫令	-12.0355
汶上	-12.0355
韩哀侯	-12.0355
官不过	-12.0355
将十人	-12.0355
诸侯恐惧	-12.0355
用莫如	-12.0355
然则何	-12.0355
涉间	-12.0356
驩甚	-12.0356
引兵攻	-12.0356
王听臣	-12.0356
制礼乐	-12.0356
遵王之	-12.0356
尊於齐	-12.0356
封禅祠	-12.0356
车驾	-12.0357
田仲	-12.0357
▁将军赵	-12.0357
智足以	-12.0358
列星	-12.0358
君王能	-12.0358
屈彊	-12.0358
兄之子	-12.0358
震主	-12.0358
北阙	-12.0358
则尊卑	-12.0358
孟明	-12.0359
嬖於	-12.0359
共伐楚	-12.0359
太微	-12.0359
以求平	-12.036
皆赦之	-12.036
祠祀	-12.036
者身危	-12.036
以读书	-12.036
季心	-12.036
且为楚	-12.0361
代立为王	-12.0361
法严	-12.0361
予一人	-12.0361
厚交	-12.0361
十石	-12.0361
走大梁	-12.0362
宁可以	-12.0362
常往来	-12.0362
重赂	-12.0362
出上谷	-12.0362
之谓王	-12.0363
击韩信军	-12.0363
他县	-12.0363
他议	-12.0363
陆行	-12.0363
不知其何	-12.0363
青白	-12.0363
渭北	-12.0364
黑水	-12.0364
诏拜	-12.0364
受诗	-12.0364
最贵	-12.0364
一饭	-12.0364
天子大说	-12.0365
公子咎	-12.0365
击汉军	-12.0365
▁孔子既	-12.0365
戍周	-12.0365
至鸿门	-12.0365
其居国	-12.0365
私许	-12.0365
周人於	-12.0366
喜宾客	-12.0366
为婚姻	-12.0366
群臣皆以为	-12.0366
从西北	-12.0366
上疑未	-12.0366
尚可得	-12.0367
交错	-12.0367
贰师后	-12.0367
四达	-12.0367
汤火	-12.0368
与之俱	-12.0368
岁月	-12.0368
秦留之	-12.0368
银为	-12.0369
华阳君	-12.0369
九族	-12.0369
吕臣为	-12.0369
与之争	-12.0369
芮子	-12.0369
严安	-12.037
绝殊	-12.037
▁相如既	-12.037
移过	-12.037
具备	-12.037
东界	-12.037
涉水	-12.037
臣意告	-12.0371
克明	-12.0371
正朔	-12.0372
宰夫	-12.0372
其后子孙	-12.0372
而相君	-12.0372
稍益	-12.0372
甚设	-12.0372
亡逃	-12.0372
阳庆	-12.0373
贵用事	-12.0373
不足以当	-12.0373
吾不忍为	-12.0373
其世传	-12.0373
北辰	-12.0374
军彭城	-12.0374
天寒	-12.0374
自料	-12.0374
袁盎进	-12.0374
釐子	-12.0374
商纣	-12.0375
惠侯	-12.0375
此三人者	-12.0375
引兵南	-12.0375
白土	-12.0375
传送	-12.0375
借兵	-12.0375
陈完	-12.0375
后二十馀	-12.0375
击豨	-12.0375
修身	-12.0376
子不孝	-12.0376
为宛王	-12.0376
流星	-12.0376
真公	-12.0376
宜为王	-12.0376
大庶长	-12.0376
医家	-12.0377
博阳	-12.0377
遂归报	-12.0377
城旦	-12.0378
废孟尝君	-12.0378
白首	-12.0378
勿受	-12.0378
▁书奏	-12.0378
奉祀	-12.0378
闻淮阴侯	-12.0378
复相秦	-12.0379
徐越	-12.0379
先事秦	-12.038
渡河南	-12.038
连骑	-12.038
将十万	-12.038
四境	-12.038
人或谗之	-12.038
太子仇	-12.038
扬名	-12.0381
若敖	-12.0381
丰镐	-12.0381
当谁	-12.0382
舜让	-12.0382
晏然不	-12.0382
不豫	-12.0382
与叔向	-12.0382
西海	-12.0382
华氏	-12.0382
臣意往	-12.0382
定宗庙	-12.0382
不肯听	-12.0383
二十岁	-12.0383
会稽守	-12.0383
不私其	-12.0383
侧行	-12.0384
而王独	-12.0384
能长久	-12.0384
使大夫种	-12.0384
何如耳	-12.0384
禹之后	-12.0384
亲疏	-12.0385
术士	-12.0385
往诛之	-12.0385
诸产	-12.0385
文公夫人	-12.0385
接内	-12.0386
於沙丘	-12.0386
司马法	-12.0386
四十八	-12.0386
蜀郡	-12.0386
左徒	-12.0387
人彘	-12.0387
师庆	-12.0387
上怜之	-12.0387
二卿	-12.0387
宛春	-12.0387
世俗之所	-12.0387
安集	-12.0387
再胜	-12.0388
桓惠王	-12.0388
楚灵王会诸侯	-12.0388
非苟	-12.0388
霍人	-12.0389
’,‘	-12.039
即泄	-12.039
乃病免	-12.039
风谏	-12.039
为之足	-12.0391
不饮酒	-12.0391
列观	-12.0392
穀城	-12.0392
斩纣	-12.0392
褚大	-12.0392
言若是	-12.0392
物盛	-12.0393
子丹朱	-12.0393
被具	-12.0393
李延年以	-12.0394
闚其	-12.0394
败荥阳	-12.0394
为江都王	-12.0394
宿卫	-12.0394
为梁怀王	-12.0395
河南治	-12.0395
平旦	-12.0395
求捕	-12.0396
不相复	-12.0396
则忘其	-12.0396
离宫	-12.0397
而自令	-12.0397
先主之	-12.0397
愈怒	-12.0397
欲诛诸吕	-12.0397
牧民	-12.0397
不能言者	-12.0397
楼船军	-12.0397
分离	-12.0397
削吴	-12.0398
缑氏城	-12.0398
入绛	-12.0398
何所不	-12.0398
作阿房宫	-12.0398
汝安	-12.0399
教顺	-12.0399
真定王	-12.0399
少曲	-12.04
廉吏	-12.04
教射	-12.04
灭宗	-12.04
天禄	-12.04
笑谓	-12.04
得征伐	-12.0401
服御	-12.0401
哀乐	-12.0401
楚伐宋	-12.0401
一家之	-12.0402
魏纳	-12.0402
素车	-12.0403
齐姜	-12.0403
逆乱	-12.0404
武成王	-12.0404
毋有所	-12.0404
至衡山	-12.0405
白帝子	-12.0405
大川	-12.0406
桥下	-12.0406
不絜	-12.0406
能择	-12.0406
其令天下	-12.0406
近塞	-12.0407
非其道	-12.0407
龙文	-12.0407
除前	-12.0408
是以君子	-12.0408
好美	-12.0408
历山	-12.0408
黄氏	-12.0408
始皇崩	-12.0409
能虑	-12.0409
自远方	-12.0409
奉钱	-12.0409
往贺	-12.0409
两宫	-12.041
就车	-12.041
知其不可	-12.041
此宝	-12.0411
祠黄帝	-12.0411
谒太后	-12.0411
夜祠	-12.0411
或谮	-12.0411
客无所	-12.0412
赵救之	-12.0412
属籍	-12.0412
於豫章	-12.0412
胙於	-12.0413
道逢	-12.0413
拔剑击	-12.0413
其故俗	-12.0413
畏罪	-12.0413
则揖	-12.0413
三十一年卒	-12.0413
其东则	-12.0414
加诛	-12.0414
智氏	-12.0414
东周君	-12.0414
贤人乎	-12.0414
骊山	-12.0415
上党民	-12.0415
陈留令	-12.0415
诈称	-12.0415
三国兵	-12.0415
人徒之	-12.0416
於是乃拜	-12.0416
章邯等	-12.0416
美好	-12.0417
汉兴以来	-12.0417
晋饥	-12.0417
皆自刭	-12.0417
太阳	-12.0418
馀力	-12.0418
固不出	-12.0419
如其言	-12.0419
用其言	-12.0419
巡行	-12.0419
脉来	-12.0419
上自将	-12.0419
功多矣	-12.042
安得此	-12.042
何不自喜	-12.0421
刑罪	-12.0421
合於齐	-12.0421
兴兵而伐	-12.0421
星气	-12.0421
陛下纵	-12.0422
於是襄子	-12.0423
五采	-12.0424
令侍中	-12.0424
秦破赵	-12.0424
未衰	-12.0424
大王之国	-12.0425
东方生	-12.0425
其衣冠	-12.0425
犹尚	-12.0425
项梁败	-12.0425
已破矣	-12.0425
当敌	-12.0425
群公子	-12.0426
封其弟	-12.0426
风大臣	-12.0427
入界	-12.0427
建章	-12.0427
终始传	-12.0428
来奔齐	-12.0428
房中	-12.0428
汝能	-12.0429
以为何如	-12.0429
吴楚时	-12.0429
诸姬	-12.0429
五音	-12.043
狄后	-12.043
欲立其子	-12.043
五福	-12.043
不在此	-12.0431
利口	-12.0431
成形	-12.0431
诛徵舒	-12.0431
犹不足	-12.0432
西伐楚	-12.0432
固要	-12.0433
名卑	-12.0433
禳之	-12.0434
▁上还	-12.0434
岂称	-12.0435
先生之言	-12.0435
师曹	-12.0435
召诸将	-12.0435
庄周	-12.0435
公子冯	-12.0436
朕意	-12.0436
公何不令	-12.0436
走宛	-12.0436
南登	-12.0437
卒践	-12.0437
甚苦	-12.0437
大臣议	-12.0438
好酒	-12.0438
主爵	-12.0439
唯大王	-12.0439
马邑下	-12.0439
无所受	-12.044
南割	-12.044
遗物	-12.0441
贷立	-12.0441
因谗	-12.0441
宋景公	-12.0442
商邑	-12.0442
学官	-12.0442
背汉	-12.0442
乃著书	-12.0442
取给	-12.0443
赵幽王	-12.0444
乃复召	-12.0445
观望	-12.0445
入临淄	-12.0445
先生何以	-12.0446
乐由	-12.0446
平贫	-12.0447
二斗	-12.0447
而不弃	-12.0447
今秦楚	-12.0447
大中大夫	-12.0447
廉将军	-12.0448
秦父兄	-12.0448
汉中尉	-12.0449
蜀守	-12.0449
诸侯叛之	-12.0449
黄丞相	-12.0449
之计中	-12.0449
攻定陶	-12.045
招致天下	-12.045
复事秦	-12.045
奸吏	-12.045
未息	-12.045
郁成王	-12.045
秦复与	-12.045
民父母	-12.0451
宰人	-12.0451
重厚	-12.0451
聚会	-12.0452
取虑	-12.0452
祠官宽舒等	-12.0452
守边	-12.0452
不肃	-12.0452
入薛	-12.0452
於句	-12.0453
木彊	-12.0453
伯父	-12.0453
有味	-12.0453
秦焚	-12.0454
谋诈	-12.0454
夫从人	-12.0454
群后	-12.0454
今某	-12.0454
新困	-12.0455
古之人	-12.0455
益发卒	-12.0455
存问	-12.0455
成叔	-12.0456
故秦时	-12.0456
至建元	-12.0457
与王黄等	-12.0457
州来	-12.0457
逐利	-12.0458
非使秦	-12.0458
赐酒	-12.0459
尊贤	-12.0459
甚有功	-12.046
得赏赐	-12.046
立太子昭	-12.046
十二诸侯	-12.046
吴伐楚	-12.046
如雨	-12.046
举错	-12.0461
於华阳	-12.0461
责问	-12.0461
不相得	-12.0461
东瓯王	-12.0462
熟於	-12.0462
女脩	-12.0463
遣御史	-12.0464
行迟	-12.0464
亦以为然	-12.0464
教单于	-12.0464
可以报	-12.0465
献公十三年	-12.0465
当路	-12.0465
寡君	-12.0465
流水	-12.0467
无足与	-12.0467
口不能	-12.0467
下诏书	-12.0467
朕命	-12.0468
名誉	-12.0469
案责	-12.0469
报政	-12.0469
其经	-12.0469
芒然	-12.047
尽散	-12.047
秦欲攻	-12.047
出云中	-12.0472
西侵	-12.0472
不能有所	-12.0472
魏咎	-12.0472
三十馀人	-12.0473
丧礼	-12.0473
期会	-12.0473
百姓弗	-12.0473
遂没	-12.0473
吕禄信	-12.0474
给军	-12.0475
任重	-12.0475
司马安	-12.0476
晋卿	-12.0476
广莫	-12.0476
相府	-12.0476
奇士	-12.0477
俱进	-12.0477
受祸	-12.0477
夺侯	-12.0477
帝甲	-12.0478
天下之贤	-12.048
传语	-12.048
重足	-12.048
厉共公	-12.0481
遂兴师	-12.0483
安足	-12.0484
夫儒者	-12.0485
遗文	-12.0485
贵富	-12.0485
挟韩	-12.0485
荣公	-12.0486
百吏	-12.0487
维德	-12.0489
卫文公	-12.049
分土	-12.049
害于	-12.0491
群下	-12.0491
立为秦王	-12.0492
又擅	-12.0493
微甚	-12.0494
地狭	-12.0494
德盛	-12.0495
所笑	-12.0496
韩之兵	-12.0496
围单于	-12.0497
再三	-12.0498
吴叔	-12.0498
至盟津	-12.0498
金氏	-12.0499
石建	-12.0499
五十人	-12.05
乘六	-12.0501
失官	-12.0501
大宝	-12.0503
且郊	-12.0505
帝号	-12.0506
祭地	-12.0506
虞将军	-12.0506
不敢留	-12.0506
王龁攻	-12.0506
弗受	-12.0506
庶孙	-12.0509
不能支	-12.0509
学书	-12.051
此之为	-12.0511
维天	-12.0512
乃详为	-12.0513
秦吏卒	-12.0513
公等皆	-12.0513
太子仓	-12.0513
终不听	-12.0515
岂少	-12.0515
常山上	-12.0516
谢丞相	-12.0519
中州	-12.052
众物	-12.052
以待秦	-12.052
获五	-12.0521
子争立	-12.0522
旦暮且	-12.0522
闻其在	-12.0523
致功	-12.0525
桑下	-12.0525
得失之	-12.0526
赵成侯	-12.0526
告文公	-12.0529
吴楚已	-12.0532
相君之	-12.0532
重任	-12.0533
八千	-12.0533
廷尉当	-12.0533
教化	-12.0533
乃求见	-12.0535
以为娱	-12.0538
灭胡	-12.0538
杀孔父	-12.0539
年名	-12.0539
使使请	-12.054
诏赐	-12.054
车乘	-12.054
子肥为齐王	-12.0542
兵未发	-12.0545
可与共	-12.0546
何敢言	-12.0546
沛父兄	-12.0547
晋为彊	-12.0547
可袭	-12.0547
鲁句践	-12.0548
爰周	-12.0548
王欲发兵	-12.0555
其辎重	-12.0557
使随会	-12.0561
有殃	-12.0562
乃阴令	-12.0563
游观	-12.0564
自娶	-12.0564
颜回者	-12.0571
陈而有之	-12.0571
通年	-12.0577
苏代为齐	-12.058
义理	-12.0583
称诵	-12.0584
倍义	-12.0585
林父	-12.0585
所以不死	-12.0586
之所长	-12.0587
为行人	-12.0588
冯公	-12.0589
笃行	-12.0591
官职	-12.0592
以口舌	-12.0595
其功多	-12.0595
事鲁君	-12.0598
公孙庆	-12.0599
兵大败	-12.06
案诛	-12.0605
色赤	-12.0613
阴贼	-12.0617
知音	-12.062
聂政母	-12.0623
为主爵都尉	-12.0623
周桓王	-12.0625
遂破楚	-12.0627
无赖	-12.0629
命召公	-12.0633
不奉诏	-12.0634
兵击灭	-12.0635
尺寸之地	-12.064
不欲出	-12.064
不及谋	-12.064
法古	-12.0643
祷於	-12.0645
懿	-12.0649
诸公皆	-12.0652
楚兵败	-12.0654
以吕禄女为	-12.0655
七十馀万	-12.0656
寿宫神君	-12.0661
悬於	-12.0661
弟杵臼	-12.0662
有诏召	-12.0666
兵困於	-12.0667
齐田单	-12.067
盐水	-12.067
东南有	-12.0677
偏将	-12.0677
败吴师	-12.0679
立六国后	-12.0681
安国为御史大夫	-12.0681
武王即位	-12.0682
其次脩	-12.0682
远方之	-12.0685
使隰朋	-12.0691
符离	-12.0692
损郎	-12.0699
望气	-12.07
齐有孟尝	-12.0704
复入郢	-12.0706
非真	-12.0709
必行之	-12.0711
汉之败	-12.0714
入军门	-12.072
所从来远	-12.0721
自将伐	-12.0725
不免於	-12.0725
杀伍奢	-12.0728
孰视	-12.0736
於殽	-12.0738
恣所	-12.0739
诸子弟	-12.0739
夫秦之	-12.0742
使韩安国	-12.0747
之来也	-12.0755
败晋军	-12.0758
天子之国	-12.0759
国尉	-12.0765
树党於	-12.0771
吾先君	-12.0778
发兵救	-12.0783
熊勇	-12.0789
太子完	-12.0794
其赢	-12.0796
使泾阳君	-12.0797
劳民	-12.08
得亡归	-12.0805
顺適	-12.0812
秦昭王怒	-12.0816
委国於	-12.082
已决矣	-12.0835
观津人	-12.0835
於鄗	-12.0837
绝於齐	-12.084
自为守	-12.0842
为秦相	-12.0848
终不能复	-12.0849
此甚不	-12.0851
乃遂去	-12.0856
月晕	-12.087
得其一	-12.087
平原君家	-12.0879
兵临晋	-12.0886
数之以	-12.0889
单于留	-12.0889
取砀	-12.0891
六合之	-12.0895
此时不	-12.0899
望幸	-12.0905
日益亲	-12.0908
坚壁不	-12.0908
顷公母	-12.0912
卒有秦	-12.0913
分为三	-12.0918
全身	-12.092
见其书	-12.0922
以令於天下	-12.0923
上帝诸神	-12.0924
於牧野	-12.0931
将军从大将军	-12.0938
其兵降	-12.0944
城十二	-12.097
愿罢	-12.0976
西之地	-12.0978
为爪牙	-12.099
人都河	-12.0991
害於民	-12.0991
国相王	-12.1002
欲报仇	-12.102
占病	-12.1021
兵符	-12.1023
无异故	-12.1023
与诸侯约	-12.1024
得其王	-12.1027
首仰有外	-12.1031
请为子	-12.1035
辄射	-12.1036
权重	-12.1047
非人力	-12.1052
於单	-12.106
谢病免	-12.106
在三公	-12.1069
弗能禁	-12.1075
争於战	-12.1077
所欲用	-12.108
齐人管至父	-12.1087
又复问	-12.1089
吕不韦为相	-12.1092
杀湣王	-12.1098
有军功	-12.1111
赍粮	-12.1127
秦三将	-12.1133
有云梦	-12.114
取魏之	-12.1152
六千人	-12.1169
於是范睢	-12.1174
忘食	-12.1181
十八人	-12.1183
嘉林	-12.119
岁二月	-12.1196
攻中山	-12.1196
君不察	-12.1202
为翕侯	-12.121
人恶之	-12.1218
足与计	-12.1232
存孤	-12.1234
家妇	-12.1234
广利为	-12.1247
圉奔	-12.125
语在淮阴	-12.1254
我求之	-12.127
史官	-12.1281
言於上	-12.1284
与其客	-12.1288
皆亡匿	-12.1297
孝文后	-12.1297
其颜色	-12.1308
所变更	-12.1311
名族	-12.1311
於是乃相与	-12.1316
乃阴与	-12.1333
驰走	-12.1338
大馀三	-12.1342
幸太原	-12.1346
至缯	-12.1346
居官家室见贵人	-12.1347
及高祖起	-12.1356
矜功	-12.1356
杀奢	-12.136
尽哀	-12.1363
避难	-12.1378
太子妇	-12.1383
争附	-12.1385
荆山	-12.1386
属之於	-12.1391
忍之	-12.1395
楚赵之	-12.1419
今乃欲	-12.1434
封曲沃	-12.1445
有大事	-12.1457
以成其	-12.1458
高祖六年	-12.1462
至高阳	-12.1462
此万世之	-12.1473
毁恶	-12.1474
子将何	-12.1477
岁中有兵	-12.1477
三城	-12.1484
星逆行	-12.1508
韩襄王	-12.1522
晋败	-12.1525
地方五	-12.1535
皇帝即	-12.1535
许张仪	-12.1547
以其女为	-12.156
佩六	-12.1562
谋欲杀	-12.1564
将相列侯	-12.1568
入右北平	-12.1573
三十五	-12.158
定蜀	-12.1592
反书闻	-12.1595
其效	-12.1598
攻出公	-12.1598
济南人	-12.1599
不过什	-12.1604
廉颇攻	-12.1606
▁其后百	-12.1638
藏之府	-12.1643
无敢不	-12.1645
怀王入秦	-12.1653
女孙	-12.1662
杀隐公	-12.1669
使将击	-12.167
破燕军	-12.1674
侵犯边	-12.1678
丞相御史	-12.1681
民大说	-12.1688
后三世	-12.1689
逾于	-12.1695
不悟	-12.17
逐义帝	-12.1708
鲁侵地	-12.1723
以子为	-12.1742
鲁定公	-12.1754
渔於	-12.1758
至敦煌	-12.1759
兵四十万	-12.177
豪长者	-12.1782
建成侯彭越	-12.1806
朔方之郡	-12.1834
求蓬莱安期生	-12.1839
荆兵	-12.1852
不听谏	-12.1856
伐朝鲜	-12.1876
再出击	-12.1881
宜知	-12.1882
在东方	-12.1887
君之位	-12.189
用鞅	-12.1899
七月辛	-12.1909
久毋伤	-12.1912
齐复归	-12.1952
勃为太尉	-12.1957
邑中贤	-12.1957
皆同姓	-12.1972
职焉	-12.1974
所从来久	-12.1991
▁齐中	-12.2
死於杜	-12.2004
邮	-12.2007
骞因	-12.203
灭唐	-12.203
乃悉引兵	-12.2035
所赐金	-12.2045
知天之	-12.205
出房	-12.2054
先知之	-12.2094
丞相以下	-12.2107
众辱	-12.2153
呼天	-12.2174
诣荥阳	-12.2184
川竭	-12.2184
此臣之所为	-12.2186
别将击	-12.2196
兵击越	-12.2207
败秦军	-12.2208
能治天下	-12.2213
晦冥	-12.2214
人莫知	-12.2225
破月氏	-12.2226
可立也	-12.2237
出公奔	-12.2255
相弗听	-12.2259
甘茂为左	-12.2267
敢仰视	-12.2284
万世之功	-12.2319
又况	-12.2339
至平原	-12.2377
经天	-12.2387
至泾	-12.2392
郎中将	-12.2429
共击楚	-12.2446
开关	-12.2465
深远	-12.2465
八十三	-12.2504
地势	-12.2533
金百斤	-12.2541
百姓离	-12.2555
彊霸	-12.2645
杀湣公	-12.2663
有宠於釐	-12.2681
指所	-12.2731
三万馀	-12.2765
诏捕	-12.2803
后十二岁	-12.2816
晋献公灭	-12.2818
所以为王	-12.2847
使人让	-12.2854
咸服	-12.2858
爵七大夫	-12.288
逾墙	-12.2884
桑穀	-12.2897
使秦无	-12.2944
王始不	-12.296
杜邮	-12.296
公把	-12.2961
复入卫	-12.2984
是岁太初	-12.3059
以齐七政	-12.3084
玑玉衡	-12.3085
意诊	-12.3101
宗庙所	-12.3144
周郊	-12.3146
张氏	-12.3181
彭越为梁王	-12.3199
取楚之	-12.3256
於汶	-12.3315
士缚	-12.3449
兵追之	-12.3582
▁卜岁中	-12.359
为中丞	-12.3993
尺土之	-12.4059
管至父等	-12.4075
二百七十	-12.4157
所养	-12.4177
见安期	-12.418
爪牙	-12.4213
吴王夫差伐	-12.4216
万灶	-12.4248
以六合	-12.4356
使将将	-12.4374
别破军	-12.4401
请救於	-12.444
吾已决	-12.4458
用太牢	-12.4459
历阶	-12.4493
为象箸	-12.4495
阖庐弟夫	-12.4514
初起沛	-12.4516
从军击	-12.4558
即上书	-12.4559
亹	-12.4563
以安宗庙	-12.4576
戚姬子如意为	-12.4614
传诣长安	-12.4665
置寿宫	-12.4679
以吕禄女	-12.4688
兵东走	-12.4724
主爵都尉	-12.4741
口舌	-12.4777
之江中	-12.4815
按剑	-12.4851
肥为齐王	-12.4867
为光禄	-12.4871
呼万岁	-12.488
督责之	-12.4894
再从大将军	-12.4903
立布为	-12.4932
六百户	-12.4945
夺晋鄙军	-12.4946
五月丙	-12.4947
赐列	-12.4963
湣	-12.4974
为大良造	-12.4984
妹	-12.499
宽舒等议	-12.4995
移兵而	-12.5024
击章邯军	-12.5041
骑五千	-12.5055
人力也	-12.5064
兵欲袭	-12.5082
以象天	-12.5092
相以下	-12.5105
人或谗	-12.512
酣	-12.5121
此霸王之	-12.5137
移兵伐	-12.5138
譬	-12.5143
入咸阳者王之	-12.5162
皮革	-12.5171
徇魏地	-12.5173
逊	-12.5179
襃有德	-12.5188
不复用兵	-12.5188
舅	-12.5193
札	-12.5197
能言之	-12.5204
银	-12.5205
不两立	-12.5206
暇	-12.5208
曩	-12.5208
窦皇后	-12.521
成大功	-12.5212
沨	-12.5214
隙	-12.5218
尺寸之	-12.5219
晁	-12.5222
醇酒	-12.5222
为禽矣	-12.5226
与韩王会新城	-12.5227
殷道亲亲	-12.523
周道尊尊	-12.5231
綦	-12.5232
蠋	-12.5233
要害之	-12.5235
城旦舂以	-12.5236
亚	-12.5238
错为内史	-12.5239
赧	-12.524
破赵於长平	-12.5242
陶唐氏之	-12.5242
今释此而	-12.5242
请以剑舞	-12.5242
披其枝	-12.5242
无舟楫之用	-12.5242
薄洛之水	-12.5242
盼	-12.5243
不闻其有王也	-12.5244
馀眜	-12.5245
厎	-12.5245
偪	-12.5245
三令五申	-12.5246
以赐贫穷	-12.5246
彊则附	-12.5246
骑射之备	-12.5246
秦为无道	-12.5246
燕齐之间	-12.5247
箾	-12.5247
郢为南郡	-12.5248
临制天下	-12.5249
不复输积	-12.5249
有祸无福	-12.5249
勿复言	-12.5251
膝	-12.5251
天下之游士冯轼结靷	-12.5252
无不欲彊秦而弱齐	-12.5252
臣虏之劳不烈於此矣	-12.5252
茎长丈	-12.5252
虽监门之养	-12.5252
邳	-12.5252
方今天下之权	-12.5253
其智能	-12.5253
天下莫之能	-12.5253
为此计者	-12.5253
冯轼结靷	-12.5253
无不欲彊齐而弱秦	-12.5253
生满百茎	-12.5253
雄雌之国	-12.5253
何至自苦如此	-12.5254
耒	-12.5254
诈阬秦	-12.5254
兵而赍盗粮	-12.5255
项庄拔剑舞	-12.5255
以虎皮	-12.5255
则齐弱矣	-12.5255
德则易以	-12.5255
私家之富	-12.5255
轻财重	-12.5255
郐之君	-12.5255
以义兵从	-12.5256
筑甬道	-12.5256
▁孝景皇帝	-12.5256
从百馀骑	-12.5256
以自娱	-12.5257
使闽越及匈奴	-12.5257
等七十人与棘蒲侯	-12.5257
倍畔之意	-12.5257
大国不亲	-12.5257
天下游士	-12.5257
子罕相宋	-12.5257
文章尔雅	-12.5257
无柰寡人何	-12.5257
浸润	-12.5257
逆旅之宿	-12.5257
重币以事	-12.5257
楚庄王伐	-12.5257
督盗贼	-12.5257
钦	-12.5257
左手把	-12.5257
揕	-12.5257
蜚刍輓粟	-12.5257
以除罪	-12.5258
犊	-12.5258
胪	-12.5258
布德施惠	-12.5258
近世之吴楚	-12.5258
所过无不残灭	-12.5258
赐之卮酒	-12.5258
齐之彊兵	-12.5258
事者必有	-12.5258
欺於张仪	-12.5258
将以伐韩	-12.5259
博望侯张骞	-12.5259
整	-12.5259
思东归	-12.5259
而厚事	-12.526
何虑之	-12.526
民贫苦	-12.526
闲	-12.526
以少割收	-12.526
北乡而臣事之	-12.526
小国不附	-12.526
少阳初	-12.526
所贵於有天下	-12.526
昆虫	-12.526
王无意偿赵	-12.526
环柱	-12.526
莫非王	-12.526
虞夏殷周	-12.526
虽仪之所甚	-12.526
长安君为质	-12.526
饮酒高会	-12.526
被坚执锐	-12.526
使人驰报	-12.526
喟	-12.526
蒯	-12.526
客卿灶	-12.5261
禽夏说阏与	-12.5261
臿	-12.5261
一国之政犹一身	-12.5261
敝邑之王所甚	-12.5261
牝鸡	-12.5261
者亦无先	-12.5261
糠	-12.5261
泜	-12.5261
酤酒	-12.5261
为刎颈之交	-12.5261
同恶相	-12.5261
成安君泜水	-12.5261
此沛公左司马曹无伤言之	-12.5261
丰庑未	-12.5261
八日呕脓死	-12.5261
出兵函谷而	-12.5261
城恐不可得	-12.5261
左更白起攻	-12.5261
然后王可以多割得地	-12.5261
相国多受贾	-12.5261
请吾苑	-12.5261
箕踞	-12.5261
花	-12.5262
禽夏说	-12.5262
鹰	-12.5262
以制御	-12.5262
临事而屡断	-12.5262
为门阑之厮	-12.5262
肝脑涂	-12.5262
沬	-12.5263
鈇钺	-12.5263
参乘樊哙	-12.5263
奋臂大呼	-12.5263
封其后於杞	-12.5263
引领而	-12.5263
当代父后	-12.5263
驰骋弋猎	-12.5263
下取履	-12.5263
中其声者谓之	-12.5263
子婴为秦王	-12.5263
宝马也	-12.5263
王之讬仪	-12.5263
白起为左	-12.5263
秦民无不	-12.5263
窾	-12.5263
纂	-12.5263
经主病	-12.5263
能通一蓺	-12.5263
闇昧	-12.5263
除秦苛	-12.5263
马汗之力	-12.5263
樛	-12.5264
寝不安	-12.5264
受命之日	-12.5264
仰天而叹	-12.5264
帏	-12.5264
法三章耳	-12.5264
盗跖不搏	-12.5264
眙	-12.5264
砢	-12.5264
繦	-12.5264
见利而让	-12.5264
请逮捕衡山王	-12.5264
错攻垣	-12.5264
呜	-12.5264
雀	-12.5264
滕	-12.5264
辍耕	-12.5264
客卿胡阳	-12.5264
俳	-12.5265
岂不善始善终哉	-12.5265
玦	-12.5265
事无小大皆决於	-12.5265
倚柱	-12.5265
具革车三十乘	-12.5265
具鞍马	-12.5265
削之亦反	-12.5265
周公旦欲为乱	-12.5265
和氏璧	-12.5265
天子使使验问巫	-12.5265
将数十万之众	-12.5265
庸人不释	-12.5265
承其敝	-12.5265
拔剑切	-12.5265
知所以自治	-12.5265
立三帝	-12.5265
羊彘千	-12.5265
象天地人	-12.5265
鈇质	-12.5265
钜防	-12.5265
须臾离礼	-12.5265
鬺	-12.5265
鼓行而西	-12.5265
欲以有为	-12.5265
祸为福	-12.5265
以毁废	-12.5265
法直断	-12.5265
械	-12.5265
从外来	-12.5265
令有所不受	-12.5265
以岑娶为太子	-12.5265
使使责让	-12.5265
借臣车	-12.5265
凯	-12.5265
博士臣庆等	-12.5265
右丞相去疾	-12.5265
君相楚二十馀年	-12.5265
急则人习	-12.5265
无遗类	-12.5265
水可以灌	-12.5265
沛公与饮	-12.5265
盭	-12.5265
臣死且不	-12.5265
问占梦	-12.5265
效愚计	-12.5265
与匈奴和亲	-12.5265
昊	-12.5265
枞	-12.5266
廖	-12.5266
不中用者	-12.5266
以一璧之故	-12.5266
先驰至	-12.5266
创业垂统	-12.5266
婿咸阳令阎乐	-12.5266
荆轲为贼	-12.5266
不能自免於	-12.5266
主严尊	-12.5266
之命县於	-12.5266
以区区之越	-12.5266
冬日鹿裘	-12.5266
匝	-12.5266
士务附	-12.5266
孰敢不听	-12.5266
庄子刺虎	-12.5266
得与魏成子比	-12.5266
投杼	-12.5266
掌握	-12.5266
栎阳狱掾	-12.5266
殚为河	-12.5266
碌	-12.5266
篡弑	-12.5266
落下闳	-12.5266
跛牜羊	-12.5266
辅以医药	-12.5266
陛下入关而都	-12.5266
郓	-12.5266
为山阳太守	-12.5266
景行向之	-12.5266
不期而会孟津	-12.5266
冠带之伦	-12.5266
惟命不于常	-12.5266
从者魏敬	-12.5267
阔	-12.5267
臣居山东	-12.5267
今殷王纣	-12.5267
以成其私	-12.5267
会於夹谷	-12.5267
其王父母弟	-12.5267
司马梗	-12.5267
唯明主为能	-12.5267
娉	-12.5267
必唾其面	-12.5267
死者相望	-12.5267
浪	-12.5267
菹	-12.5267
藜藿	-12.5267
词	-12.5267
道里均	-12.5267
宄	-12.5267
御史及中丞	-12.5267
斥车马帷	-12.5267
柰何与人邻国	-12.5267
西楼公	-12.5267
郡中豪猾	-12.5267
郏	-12.5267
译	-12.5267
杯	-12.5267
替	-12.5267
桡楚权	-12.5267
此非臣之功也	-12.5267
胈	-12.5267
胝	-12.5267
积德累善	-12.5267
伯翳	-12.5267
契为子	-12.5267
陵夷衰微	-12.5267
傒	-12.5267
南阳守齮	-12.5268
不期而	-12.5268
发闾左	-12.5268
恐其为变	-12.5268
旱之望雨	-12.5268
邯郸大夫午	-12.5268
东至竟陵	-12.5268
中都官诏狱	-12.5268
今予发维共行天	-12.5268
候星气者	-12.5268
假左丞相	-12.5268
况大国乎	-12.5268
击瓮叩缶	-12.5268
匦	-12.5268
及旁近	-12.5268
双虎之	-12.5268
可谓能明	-12.5268
外侯服	-12.5268
天下之通道	-12.5268
婴有庸主之	-12.5268
巫锦	-12.5268
平城之围	-12.5268
归楚淮北	-12.5268
思越则	-12.5268
我非忘	-12.5268
故人所善宾客	-12.5268
敝国虽	-12.5268
易遵也	-12.5268
杖马箠	-12.5268
汉卒十馀万人	-12.5268
汾川	-12.5268
爱齐而憎秦	-12.5268
王使人上书告	-12.5268
相如度秦王	-12.5268
督责必	-12.5268
而广身自	-12.5268
脱粟之饭	-12.5268
脽	-12.5268
臣各为其主用	-12.5268
至于大邳	-12.5268
舄	-12.5268
蛇先成	-12.5268
负於魏成子	-12.5268
鋋	-12.5268
閜	-12.5268
阳文君子	-12.5268
须臾离乐	-12.5268
鸬	-12.5268
子度嗣	-12.5268
裔	-12.5268
锦绣	-12.5268
以太仆从击	-12.5268
诚能听臣	-12.5268
以兴太平	-12.5268
岁饥民	-12.5268
湛恩	-12.5268
箧	-12.5268
觡	-12.5268
禅梁父	-12.5268
邈	-12.5268
襃斜	-12.5268
讨彊暴	-12.5268
朱买臣	-12.5268
辐	-12.5268
狂夫之	-12.5268
东北会于	-12.5268
京兆尹赵君	-12.5268
以夫人贼杀	-12.5268
伏其辜	-12.5268
伐桀宋之利	-12.5268
古以来未尝有	-12.5268
可考于今者	-12.5268
君之高义	-12.5268
城彼朔方	-12.5268
壑	-12.5268
嶓冢	-12.5268
帛絮	-12.5268
敻	-12.5268
暴骸骨於	-12.5268
浸浔	-12.5268
睫	-12.5268
约而易操	-12.5268
赙	-12.5268
远近毕	-12.5268
韝	-12.5268
障	-12.5269
竽	-12.5269
雅颂	-12.5269
可施行	-12.5269
四月戊寅	-12.5269
尝有德於项梁	-12.5269
用后胜	-12.5269
家给人足	-12.5269
以天年	-12.5269
为煇渠侯	-12.5269
主爵都尉汲黯	-12.5269
事而不知其	-12.5269
以十五城请易	-12.5269
使两女子洗足	-12.5269
使人候伺	-12.5269
使刘敬往结和亲	-12.5269
其有天命	-12.5269
分王其地	-12.5269
勃然不说	-12.5269
发扬蹈厉	-12.5269
吴之信越也	-12.5269
天下非小弱也	-12.5269
定汉等言	-12.5269
尽陛下神灵威武	-12.5269
帝舜之后於陈	-12.5269
庇	-12.5269
接踵而死	-12.5269
於是六国之士有	-12.5269
无假之关	-12.5269
樛乐	-12.5269
毁隃	-12.5269
炊骨	-12.5269
瑕丘申阳	-12.5269
积毁销骨	-12.5269
纑	-12.5269
绣袷	-12.5269
群臣后宫从上	-12.5269
老弱转粮	-12.5269
茈	-12.5269
諠	-12.5269
诚以此时	-12.5269
谢病不朝见	-12.5269
赵将司马卬	-12.5269
足以肥国	-12.5269
选择贤	-12.5269
铸九鼎	-12.5269
鼐	-12.5269
龙川令	-12.5269
爵执珪	-12.5269
大将军出定襄	-12.5269
吾语汝	-12.5269
萧公角	-12.5269
甬	-12.5269
汁	-12.527
下邳圯上	-12.527
人之有腹心疾	-12.527
则络脉有过	-12.527
哭泣之声	-12.527
逋逃	-12.527
电	-12.527
湿	-12.527
蕙	-12.527
关东群盗	-12.527
狗亨	-12.527
下沛郡	-12.527
从韩信击	-12.527
以古非今	-12.527
倡侏儒	-12.527
其罚倍	-12.527
其足少阳脉	-12.527
击秦军砀东	-12.527
刚成君蔡泽	-12.527
加寒热	-12.527
十五都予赵	-12.527
千里而袭	-12.527
围章邯於废丘	-12.527
富给者	-12.527
嵕	-12.527
左衽	-12.527
当阳君黥布为	-12.527
征厥罪	-12.527
恻隐	-12.527
择子弟可	-12.527
数为边	-12.527
於是从散约	-12.527
无愚智	-12.527
日月之末光	-12.527
楚元王子	-12.527
河洛之间	-12.527
田叔等十馀人	-12.527
矇	-12.527
碎	-12.527
秦使庶长疾	-12.527
缯絮食物	-12.527
[...]
